{
  "version": "1.0",
  "truncation": null,
  "padding": null,
  "added_tokens": [
    {
      "id": 0,
      "content": "<s>",
      "single_word": false,
      "lstrip": false,
      "rstrip": false,
      "normalized": false,
      "special": true
    },
    {
      "id": 1,
      "content": "</s>",
      "single_word": false,
      "lstrip": false,
      "rstrip": false,
      "normalized": false,
      "special": true
    },
    {
      "id": 2,
      "content": "<pad>",
      "single_word": false,
      "lstrip": false,
      "rstrip": false,
      "normalized": false,
      "special": true
    },
    {
      "id": 3,
      "content": "<unk>",
      "single_word": false,
      "lstrip": false,
      "rstrip": false,
      "normalized": false,
      "special": true
    },
    {
      "id": 4,
      "content": "<mask>",
      "single_word": false,
      "lstrip": false,
      "rstrip": false,
      "normalized": false,
      "special": true
    }
  ],
  "normalizer": null,
  "pre_tokenizer": {
    "type": "ByteLevel",
    "add_prefix_space": true,
    "trim_offsets": true,
    "use_regex": true
  },
  "post_processor": null,
  "decoder": {
    "type": "ByteLevel",
    "add_prefix_space": true,
    "trim_offsets": true,
    "use_regex": true
  },
  "model": {
    "type": "BPE",
    "dropout": null,
    "unk_token": null,
    "continuing_subword_prefix": null,
    "end_of_word_suffix": null,
    "fuse_unk": false,
    "byte_fallback": false,
    "ignore_merges": false,
    "vocab": {
      "<s>": 0,
      "</s>": 1,
      "<pad>": 2,
      "<unk>": 3,
      "<mask>": 4,
      "!": 5,
      "\"": 6,
      "#": 7,
      "$": 8,
      "%": 9,
      "&": 10,
      "'": 11,
      "(": 12,
      ")": 13,
      "*": 14,
      "+": 15,
      ",": 16,
      "-": 17,
      ".": 18,
      "/": 19,
      "0": 20,
      "1": 21,
      "2": 22,
      "3": 23,
      "4": 24,
      "5": 25,
      "6": 26,
      "7": 27,
      "8": 28,
      "9": 29,
      ":": 30,
      ";": 31,
      "<": 32,
      "=": 33,
      ">": 34,
      "?": 35,
      "@": 36,
      "A": 37,
      "B": 38,
      "C": 39,
      "D": 40,
      "E": 41,
      "F": 42,
      "G": 43,
      "H": 44,
      "I": 45,
      "J": 46,
      "K": 47,
      "L": 48,
      "M": 49,
      "N": 50,
      "O": 51,
      "P": 52,
      "Q": 53,
      "R": 54,
      "S": 55,
      "T": 56,
      "U": 57,
      "V": 58,
      "W": 59,
      "X": 60,
      "Y": 61,
      "Z": 62,
      "[": 63,
      "\\": 64,
      "]": 65,
      "^": 66,
      "_": 67,
      "`": 68,
      "a": 69,
      "b": 70,
      "c": 71,
      "d": 72,
      "e": 73,
      "f": 74,
      "g": 75,
      "h": 76,
      "i": 77,
      "j": 78,
      "k": 79,
      "l": 80,
      "m": 81,
      "n": 82,
      "o": 83,
      "p": 84,
      "q": 85,
      "r": 86,
      "s": 87,
      "t": 88,
      "u": 89,
      "v": 90,
      "w": 91,
      "x": 92,
      "y": 93,
      "z": 94,
      "{": 95,
      "|": 96,
      "}": 97,
      "~": 98,
      "¡": 99,
      "¢": 100,
      "£": 101,
      "¤": 102,
      "¥": 103,
      "¦": 104,
      "§": 105,
      "¨": 106,
      "©": 107,
      "ª": 108,
      "«": 109,
      "¬": 110,
      "®": 111,
      "¯": 112,
      "°": 113,
      "±": 114,
      "²": 115,
      "³": 116,
      "´": 117,
      "µ": 118,
      "¶": 119,
      "·": 120,
      "¸": 121,
      "¹": 122,
      "º": 123,
      "»": 124,
      "¼": 125,
      "½": 126,
      "¾": 127,
      "¿": 128,
      "À": 129,
      "Á": 130,
      "Â": 131,
      "Ã": 132,
      "Ä": 133,
      "Å": 134,
      "Æ": 135,
      "Ç": 136,
      "È": 137,
      "É": 138,
      "Ê": 139,
      "Ë": 140,
      "Ì": 141,
      "Í": 142,
      "Î": 143,
      "Ï": 144,
      "Ð": 145,
      "Ñ": 146,
      "Ò": 147,
      "Ó": 148,
      "Ô": 149,
      "Õ": 150,
      "Ö": 151,
      "×": 152,
      "Ø": 153,
      "Ù": 154,
      "Ú": 155,
      "Û": 156,
      "Ü": 157,
      "Ý": 158,
      "Þ": 159,
      "ß": 160,
      "à": 161,
      "á": 162,
      "â": 163,
      "ã": 164,
      "ä": 165,
      "å": 166,
      "æ": 167,
      "ç": 168,
      "è": 169,
      "é": 170,
      "ê": 171,
      "ë": 172,
      "ì": 173,
      "í": 174,
      "î": 175,
      "ï": 176,
      "ð": 177,
      "ñ": 178,
      "ò": 179,
      "ó": 180,
      "ô": 181,
      "õ": 182,
      "ö": 183,
      "÷": 184,
      "ø": 185,
      "ù": 186,
      "ú": 187,
      "û": 188,
      "ü": 189,
      "ý": 190,
      "þ": 191,
      "ÿ": 192,
      "Ā": 193,
      "ā": 194,
      "Ă": 195,
      "ă": 196,
      "Ą": 197,
      "ą": 198,
      "Ć": 199,
      "ć": 200,
      "Ĉ": 201,
      "ĉ": 202,
      "Ċ": 203,
      "ċ": 204,
      "Č": 205,
      "č": 206,
      "Ď": 207,
      "ď": 208,
      "Đ": 209,
      "đ": 210,
      "Ē": 211,
      "ē": 212,
      "Ĕ": 213,
      "ĕ": 214,
      "Ė": 215,
      "ė": 216,
      "Ę": 217,
      "ę": 218,
      "Ě": 219,
      "ě": 220,
      "Ĝ": 221,
      "ĝ": 222,
      "Ğ": 223,
      "ğ": 224,
      "Ġ": 225,
      "ġ": 226,
      "Ģ": 227,
      "ģ": 228,
      "Ĥ": 229,
      "ĥ": 230,
      "Ħ": 231,
      "ħ": 232,
      "Ĩ": 233,
      "ĩ": 234,
      "Ī": 235,
      "ī": 236,
      "Ĭ": 237,
      "ĭ": 238,
      "Į": 239,
      "į": 240,
      "İ": 241,
      "ı": 242,
      "Ĳ": 243,
      "ĳ": 244,
      "Ĵ": 245,
      "ĵ": 246,
      "Ķ": 247,
      "ķ": 248,
      "ĸ": 249,
      "Ĺ": 250,
      "ĺ": 251,
      "Ļ": 252,
      "ļ": 253,
      "Ľ": 254,
      "ľ": 255,
      "Ŀ": 256,
      "ŀ": 257,
      "Ł": 258,
      "ł": 259,
      "Ń": 260,
      "à¤": 261,
      "à¥": 262,
      "Ġà¤": 263,
      "à¤¾": 264,
      "à¥į": 265,
      "à¤°": 266,
      "à¥ĩ": 267,
      "à¥Ģ": 268,
      "à¤¤": 269,
      "à¤¯": 270,
      "à¤²": 271,
      "à¤¿": 272,
      "à¤¨": 273,
      "à¤Ĥ": 274,
      "à¤ķ": 275,
      "à¤µ": 276,
      "à¤ļ": 277,
      "à¤¸": 278,
      "à¤¹": 279,
      "à¤£": 280,
      "à¥ĭ": 281,
      "Ġà¤ķ": 282,
      "Ġà¤Ĩ": 283,
      "à¤®": 284,
      "Ġà¤¸": 285,
      "Ġà¤ª": 286,
      "à¥ģ": 287,
      "Ġà¤®": 288,
      "à¤ª": 289,
      "à¤¦": 290,
      "à¤¾à¤Ĥ": 291,
      "Ġà¤¤": 292,
      "à¥Ĥ": 293,
      "Ġà¤ħ": 294,
      "à¤Ĺ": 295,
      "Ġà¤µ": 296,
      "à¤Ł": 297,
      "à¤¡": 298,
      "à¤ľ": 299,
      "Ġà¤¨": 300,
      "à¤§": 301,
      "Ġà¤¯": 302,
      "Ġà¤¹": 303,
      "à¤³": 304,
      "à¤¶": 305,
      "Ġà¤¦": 306,
      "à¤·": 307,
      "à¥ĩ.": 308,
      "Ġà¤Ĩà¤¹": 309,
      "Ġà¤ľ": 310,
      "à¤¬": 311,
      "Ġà¤°": 312,
      "Ġà¤¬": 313,
      "Ġà¤¶": 314,
      "Ġà¤ķà¤°": 315,
      "Ġà¤ħà¤¸": 316,
      "Ġà¤Ĺ": 317,
      "à¤ł": 318,
      "à¤¥": 319,
      "Ġà¤²": 320,
      "à¤ĸ": 321,
      "à¤µà¤°": 322,
      "Ġà¤Ĩà¤£": 323,
      "Ġà¤Ń": 324,
      "Ġà¤ļ": 325,
      "Ġà¤ī": 326,
      "à¤Ń": 327,
      "Ġà¤ı": 328,
      "Ġà¤ĺ": 329,
      "âĢ": 330,
      "à¥Ģ.": 331,
      "Ġà¤ıà¤ķ": 332,
      "à¤°à¤ķ": 333,
      "à¤¾.": 334,
      "Ġà¤ĸ": 335,
      "Ġà¤Ŀ": 336,
      "à¤Ī": 337,
      "Ġà¤«": 338,
      "Ġà¤ķà¤°à¤£": 339,
      "à¤¤à¤°": 340,
      "à¤°à¤¤": 341,
      "à¤¿à¤Ĥ": 342,
      "Ġà¥": 343,
      "à¤®à¤§": 344,
      "à¤¢": 345,
      "à¤°à¤£": 346,
      "à¤¯à¤ķ": 347,
      "à¥ī": 348,
      "Ġà¤Ĩà¤²": 349,
      "à¥ĩ,": 350,
      "Ġà¤®à¤¹": 351,
      "Ġà¤Ł": 352,
      "Ġà¤ªà¤°": 353,
      "à¤¹à¤£": 354,
      "à¤ĺ": 355,
      "à¥Ī": 356,
      "Ġà¤¤à¤°": 357,
      "à¥ĥ": 358,
      "Ġà¤ĩ": 359,
      "à¤ķà¤°": 360,
      "Ġ.": 361,
      "à¤°à¤®": 362,
      "à¥Ģ,": 363,
      "à¤µà¤¸": 364,
      "Ġà¤ł": 365,
      "Ġà¤Ĩà¤ª": 366,
      "à¤«": 367,
      "à¥ĩà¤Ĥ": 368,
      "à¤°à¤µ": 369,
      "à¥ħ": 370,
      "Ġà¤¸à¤°": 371,
      "Ġà¤¸à¤®": 372,
      "Ġà¤¡": 373,
      "à¤Ĭ": 374,
      "à¤ªà¤°": 375,
      "Ġà¤ħà¤¸à¤²": 376,
      "Ġà¤§": 377,
      "Âł": 378,
      "à¤¤à¤²": 379,
      "Ġà¤ħà¤¨": 380,
      "Ġà¤µà¤°": 381,
      "à¤ķà¤¡": 382,
      "ĠâĢ": 383,
      "à¤¾,": 384,
      "à¥ģà¤Ĥ": 385,
      "à¤µà¤²": 386,
      "Ġà¤¶à¤ķ": 387,
      "à¤°à¤¸": 388,
      "à¤±": 389,
      "Ġà¤ħà¤¶": 390,
      "à¤µà¤¤": 391,
      "à¤µà¤£": 392,
      "à¥¦": 393,
      "Ġà¤īà¤ª": 394,
      "Ġà¤ķà¤°à¤¤": 395,
      "à¤µà¤¡": 396,
      "Ġà¤ħà¤§": 397,
      "à¤Ĺà¤²": 398,
      "Ġà¤ħà¤¸à¤¤": 399,
      "Ġà¤Ĩà¤ªà¤²": 400,
      "à¥Į": 401,
      "âĢį": 402,
      "à¤¦à¤°": 403,
      "à¤¯à¤®": 404,
      "à¥Ģà¤Ĥ": 405,
      "à¤°à¤ļ": 406,
      "à¤·à¤£": 407,
      "Ġ(": 408,
      "Ġ1": 409,
      "à¤Ŀ": 410,
      "à¤¸à¤°": 411,
      "à¥įâĢį": 412,
      "Ġà¤ªà¤£": 413,
      "âĢĻ": 414,
      "Ġà¤®à¤§": 415,
      "ĠâĢĺ": 416,
      "Ġà¤Ĩà¤¤": 417,
      "Ġ2": 418,
      "à¤¬à¤°": 419,
      "à¤°à¤ª": 420,
      "à¤¯à¤¤": 421,
      "à¤ı": 422,
      "à¤ģ": 423,
      "Ġà¤Ĩà¤®": 424,
      "à¤ľà¤¨": 425,
      "à¤Ĺà¤¤": 426,
      "Ġà¤¨à¤µ": 427,
      "à¤°à¤²": 428,
      "à¤¡à¤²": 429,
      "§à¥": 430,
      "Ġà¤īà¤¤": 431,
      "à¤ªà¤¨": 432,
      "Ġà¤¶à¤ķà¤¤": 433,
      "à¥ĭ.": 434,
      "à¤Ĺà¤°": 435,
      "à¤¶à¤¨": 436,
      "Ġà¤Ĩà¤°": 437,
      "Ġ-": 438,
      "à¤Łà¤ķ": 439,
      "à¤Łà¤°": 440,
      "à¤Łà¤²": 441,
      "à¤Łà¤¨": 442,
      "à¤ħ": 443,
      "à¤¹à¤¤": 444,
      "à¤¤à¤ķ": 445,
      "Ġà¤¸à¤¹": 446,
      "à¤µà¤³": 447,
      "à¤°à¤¶": 448,
      "à¤Ĺà¤£": 449,
      "à¤²à¤¯": 450,
      "Ġà¤Ĩà¤µ": 451,
      "à¤ķà¤²": 452,
      "Ġà¤¥": 453,
      "à¤¬à¤¤": 454,
      "Ġà¤Ĩà¤ľ": 455,
      "Ġà¤ħà¤°": 456,
      "Ġà¤¸à¤°à¤ķ": 457,
      "à¤Īà¤²": 458,
      "à¤Ĩ": 459,
      "à¤¯à¤ļ": 460,
      "Ġà¤¤à¤¸": 461,
      "à¤Ĺà¤³": 462,
      "Ġà¥¨": 463,
      "à¤¸à¤²": 464,
      "à¤Ĭà¤¨": 465,
      "à¤¦à¤²": 466,
      "à¤²à¤ķ": 467,
      "à¤ªà¤£": 468,
      "à¤¹à¤°": 469,
      "à¤¯à¤²": 470,
      "Ġà¤Ĩà¤ªà¤£": 471,
      "à¤¬à¤Ī": 472,
      "Ġà¤ĳ": 473,
      "Ġà¤Ĩà¤¯": 474,
      "à¥ĭà¤Ĥ": 475,
      "Ġà¤ķà¤®": 476,
      "à¤°à¤¦": 477,
      "à¤¸à¤¨": 478,
      "à¤Ĥ.": 479,
      "Ġà¤īà¤¦": 480,
      "à¤ľà¤ª": 481,
      "Ġ\"": 482,
      "Ġà¤ĸà¤°": 483,
      "Ġà¤ĵ": 484,
      "Ġà¥§à¥": 485,
      "Ġà¤ħà¤Ń": 486,
      "Ġà¤®à¤¤": 487,
      "Ġà¤®à¤¨": 488,
      "à¤®à¤ļ": 489,
      "à¤¨à¤ļ": 490,
      "à¤®à¤¤": 491,
      "Ġ:": 492,
      "Ġà¤ªà¤¦": 493,
      "Ġà¤ĺà¤°": 494,
      "à¤ªà¤¤": 495,
      "à¤µà¤¨": 496,
      "à¤¸à¤¤": 497,
      "à¤²à¤¨": 498,
      "à¤ĩ": 499,
      "à¤®à¤¨": 500,
      "à¤¦à¤¨": 501,
      "Ġà¤ªà¤¹": 502,
      "à¤°à¤ľ": 503,
      "Ġà¤ªà¤ķ": 504,
      "à¤µà¤¡à¤£": 505,
      "Ġà¤¦à¤°": 506,
      "Ġà¤ħà¤ª": 507,
      "Ġà¤²à¤ķ": 508,
      "à¤¾à¤ģ": 509,
      "Ġà¤¹à¤ľ": 510,
      "à¤°à¤ĸ": 511,
      "à¤·à¤ķ": 512,
      "à¤¡à¤£": 513,
      "à¤£à¤¤": 514,
      "à¤ĸà¤²": 515,
      "Ġ20": 516,
      "à¤¯à¤¨": 517,
      "Ġà¤ħà¤¤": 518,
      "à¤¹à¤£à¤ľ": 519,
      "à¤ªà¤¯": 520,
      "à¤Ľ": 521,
      "Ġà¤ªà¤¤": 522,
      "à¤³à¤¤": 523,
      "à¤¨à¤¸": 524,
      "Ġ'": 525,
      "Ġà¤Ĩà¤µà¤¶": 526,
      "Ġà¤ķà¤²": 527,
      "à¤ŀ": 528,
      "Ġà¤¤à¤¯": 529,
      "Ġà¤Ľ": 530,
      "Ġà¤®à¤²": 531,
      "à¤ķà¤¸": 532,
      "Ġà¤¸à¤¤": 533,
      "à¤¸à¤ļ": 534,
      "à¤ľà¤ķ": 535,
      "à¤¯à¤¦": 536,
      "à¤¸à¤¹": 537,
      "Ġà¤®à¤°": 538,
      "à¤ľà¤¯": 539,
      "Ġà¤ľà¤¨": 540,
      "à¤³à¤£": 541,
      "à¤¤à¤µ": 542,
      "à¤¨à¤²": 543,
      "Ġà¤ħà¤®": 544,
      "à¤¬à¤¦": 545,
      "Ġà¤Ĩà¤§": 546,
      "à¤¹à¤¨": 547,
      "Ġ3": 548,
      "à¤²à¤¤": 549,
      "à¤¤à¤ļ": 550,
      "à¤ķà¤¤": 551,
      "à¤¾-": 552,
      "à¤ľà¤°": 553,
      "à¤°à¤ªà¤Ł": 554,
      "à¤®à¤ķ": 555,
      "Ġà¤¶à¤¹à¤°": 556,
      "à¤°à¤ķà¤°à¤£": 557,
      "à¤§à¤¨": 558,
      "à¤£à¤¯": 559,
      "Ġà¤¨à¤ķ": 560,
      "Ġà¤Ĩà¤¦": 561,
      "Ġà¤°à¤¸": 562,
      "à¤¯à¤µà¤¸": 563,
      "Ġà¤¸à¤ķ": 564,
      "à¤¦à¤¤": 565,
      "Ġà¤ķà¤¸": 566,
      "ĠâĢĵ": 567,
      "Ġà¤ļà¤°": 568,
      "à¤°à¤¯à¤¤": 569,
      "à¤µà¤ļ": 570,
      "Ġà¤®à¤¹à¤¤": 571,
      "Ġà¤®à¤¤à¤¦": 572,
      "ĠÂł": 573,
      "Ġà¤¬à¤¦à¤²": 574,
      "à¤ļà¤¨": 575,
      "Ġà¤«à¤ķ": 576,
      "à¤°à¤¨": 577,
      "Ġà¤ĩà¤¤à¤°": 578,
      "à¤¦à¤µ": 579,
      "Ġà¤¹à¤µ": 580,
      "Ġà¤ĺà¤Łà¤¨": 581,
      "Ġà¤ľà¤®": 582,
      "à¤¡à¤ķ": 583,
      "à¤·à¤¯": 584,
      "Ġà¥¨à¥¦": 585,
      "à¤Ĺà¤¦": 586,
      "à¤Ńà¤°": 587,
      "à¤¤à¤®": 588,
      "Ġà¤ħà¤ľ": 589,
      "à¤¡à¤¤": 590,
      "à¤¬à¤²": 591,
      "à¤§à¤µ": 592,
      "Ġà¤¬à¤°": 593,
      "à¥Ł": 594,
      "à¤ªà¤¦": 595,
      "à¤²à¤¬": 596,
      "à¤µà¤ķ": 597,
      "à¤ħà¤°": 598,
      "Ġà¤¦à¤°à¤®": 599,
      "à¤¯à¤µ": 600,
      "à¤ĵ": 601,
      "à¤ĥ": 602,
      "à¥«": 603,
      "Ġà¤īà¤®": 604,
      "à¤ķà¤°à¤£": 605,
      "à¤ļà¤²": 606,
      "Ġà¤īà¤ªà¤¸": 607,
      "Ġà¤Ķ": 608,
      "à¤³à¤²": 609,
      "à¤°à¤Ń": 610,
      "à¥¨": 611,
      "à¤°à¤¹": 612,
      "à¤¨à¤µ": 613,
      "à¤¢à¤²": 614,
      "Ġà¤ħà¤¸à¤£": 615,
      "Ġà¥©": 616,
      "Ġà¤Ĩà¤ł": 617,
      "à¥§à¥": 618,
      "à¤¸à¤®": 619,
      "Ġà¤ľà¤°": 620,
      "ĠÂłĠÂł": 621,
      "à¤¡à¤³": 622,
      "Ġà¥§": 623,
      "Ġà¤®à¤¦à¤¤": 624,
      "Ġà¤Łà¤ķ": 625,
      "Ġ5": 626,
      "Ġà¤¬à¤¸": 627,
      "à¤Łà¤¤": 628,
      "Ġ201": 629,
      "à¤¹à¤®": 630,
      "Ġà¤Ĩà¤¶": 631,
      "à¤²à¤ļ": 632,
      "..": 633,
      "Ġà¤ªà¤µ": 634,
      "à¤Ĺà¤¡": 635,
      "à¤ķà¤£": 636,
      "Ġà¤ħà¤µ": 637,
      "à¤¢à¤¤": 638,
      "à¤ªà¤²": 639,
      "Ġ4": 640,
      "Ġà¤¸à¤§": 641,
      "à¤§à¤ķ": 642,
      "Ġà¤¦à¤¹": 643,
      "à¤²à¤Ĺ": 644,
      "à¤§à¤¤": 645,
      "Ġà¤°à¤ķ": 646,
      "Ġà¤Ĩà¤ķ": 647,
      "Ġà¤¬à¤¹": 648,
      "Ġà¤ªà¤¡à¤²": 649,
      "Ġà¤µà¤¸": 650,
      "à¤¤à¤ª": 651,
      "Ġà¤īà¤Ń": 652,
      "à¤³à¤µ": 653,
      "Ġà¤¨à¤¸à¤²": 654,
      "à¤¤à¤¨": 655,
      "à¤µà¤¯": 656,
      "00": 657,
      "à¤¨à¤°": 658,
      "à¤¸à¤ķ": 659,
      "à¤Ńà¤µ": 660,
      "Ġà¤Ĳ": 661,
      "Ġà¤ķà¤§": 662,
      "à¤ľà¤²": 663,
      "à¤°à¤§": 664,
      "à¤¨à¤ķ": 665,
      "Ġà¤¸à¤Ĺà¤³": 666,
      "à¤µà¤Ł": 667,
      "à¤¡à¤ļ": 668,
      "à¤²à¤µ": 669,
      "à¥ĭ,": 670,
      "à¤¹à¤Łà¤²": 671,
      "Ġà¤¶à¤°": 672,
      "à¤¨à¤¹": 673,
      "Ġà¤ľà¤Ĺ": 674,
      "Ġà¤Ĺà¤°à¤ľ": 675,
      "Ġà¤Ĩà¤®à¤ļ": 676,
      "à¤ī": 677,
      "à¤ªà¤ķ": 678,
      "à¤±à¤¯": 679,
      "à¤®à¤Ĺ": 680,
      "Ġà¤Ĩà¤®à¤¦": 681,
      "à¤ªà¤·": 682,
      "Ġà¤²à¤Ĺ": 683,
      "Ġà¤ħà¤²": 684,
      "Ġà¤Ĺà¤°": 685,
      "à¥Ģ-": 686,
      "Ġà¤Ĩà¤Ĺ": 687,
      "Ġà¤¤à¤ª": 688,
      "Ġà¤¸à¤Ń": 689,
      "Ġà¤®à¤Ĺ": 690,
      "à¤ļà¤°": 691,
      "à¤¤à¤³": 692,
      "Ġà¤¯à¤¶": 693,
      "Ġà¤¸à¤¦": 694,
      "Ġà¤ľà¤µà¤³": 695,
      "à¤¶à¤¯": 696,
      "à¤¥à¤®": 697,
      "à¤¸à¤¦": 698,
      "à¤¯à¤°": 699,
      "à¤µà¤¶": 700,
      "à¥©": 701,
      "à¥Ĥà¤Ĥ": 702,
      "Ġà¥«": 703,
      "Ġà¤Ĩà¤¨": 704,
      "à¤ªà¤Ł": 705,
      "à¤µà¤ķà¤°": 706,
      "à¤ĸà¤°": 707,
      "à¤·à¤¦": 708,
      "à¤Ĺà¤µ": 709,
      "à¥ª": 710,
      "à¤¢à¤£": 711,
      "Ġà¤ĵà¤³": 712,
      "Ġà¤¹à¤²": 713,
      "Ġà¤Ĺà¤£": 714,
      "à¤¤à¤ķà¤°": 715,
      "Ġà¤ķà¤ª": 716,
      "Ġà¥ª": 717,
      "à¤ıà¤¸": 718,
      "Ġà¤īà¤²": 719,
      "Ġà¤²à¤¹": 720,
      "à¤ĺà¤Łà¤¨": 721,
      "à¤¯à¤¸": 722,
      "à¤¶à¤ķ": 723,
      "à¥ī.": 724,
      "à¤¡à¤µ": 725,
      "à¤Īà¤¨": 726,
      "Ġà¤¸à¤®à¤ľ": 727,
      "à¤¯à¤ķà¤°": 728,
      "à¤¹à¤£à¤¤": 729,
      "Ġà¤īà¤ļ": 730,
      "à¤¾?": 731,
      "à¥¦à¥¦": 732,
      "à¤łà¤ķ": 733,
      "à¤ķà¤¨": 734,
      "à¤°à¤ķà¤²": 735,
      "Ġ6": 736,
      "à¤µà¤°à¤£": 737,
      "Ġà¤ľà¤£": 738,
      "à¥¯": 739,
      "à¥®": 740,
      "à¥§": 741,
      "à¤²à¤£": 742,
      "Ġà¤°à¤µ": 743,
      "à¤¯à¤ª": 744,
      "Ġà¤ıà¤ķà¤¦": 745,
      "à¥¬": 746,
      "à¤¨à¤Ĺ": 747,
      "à¥Ń": 748,
      "à¤Łà¤ļ": 749,
      "Ġà¤ªà¤°à¤¤": 750,
      "Ġà¤Ńà¤°": 751,
      "Ġà¤ħà¤ķ": 752,
      "Ġà¤¬à¤¨": 753,
      "à¤ķà¤¶": 754,
      "Ġà¤§à¤°": 755,
      "ĠĠ": 756,
      "à¤¸à¤µ": 757,
      "à¤®à¤µ": 758,
      "in": 759,
      "à¤¶à¤²": 760,
      "Ġ,": 761,
      "à¤¬à¤³": 762,
      "à¤¨à¤¸à¤Ń": 763,
      "Ġà¤īà¤ªà¤²à¤¬": 764,
      "à¤µà¤¢": 765,
      "à¤ķà¤¦": 766,
      "à¤µà¤ª": 767,
      "à¤łà¤²": 768,
      "à¤¤à¤¹": 769,
      "Ġà¤¸à¤²": 770,
      "à¤®à¤¸": 771,
      "à¤Łà¤£": 772,
      "à¤Ĥ,": 773,
      "Ġà¤¶à¤¬": 774,
      "Ġà¤ĩà¤¤à¤ķ": 775,
      "à¤ķà¤®": 776,
      "Ġà¥¨à¥¦à¥§à¥": 777,
      "),": 778,
      "Ġà¤¨à¤¯": 779,
      "ÂłĊ": 780,
      "à¤¸à¤£": 781,
      "Ġà¤¬à¤ĺ": 782,
      "à¤¤à¤¤": 783,
      "Ġà¤ħà¤Ĺà¤¦": 784,
      "Ġ7": 785,
      "Ġà¤ĳà¤«": 786,
      "à¤µà¤ľ": 787,
      "Ġà¤¨à¤°": 788,
      "Ġà¤ĩà¤ļ": 789,
      "à¤ľà¤ªà¤ļ": 790,
      "à¤²à¤²": 791,
      "Ġà¤ħà¤ĸ": 792,
      "Ġà¤īà¤ªà¤ļ": 793,
      "à¤ķà¤¸à¤Ń": 794,
      "Ġà¤ıà¤¸": 795,
      "Ġà¤ĩà¤®": 796,
      "à¤¹à¤ķ": 797,
      "Ġà¤²à¤µà¤ķà¤°": 798,
      "Ġà¤¤à¤ķ": 799,
      "à¤®à¤¦": 800,
      "Ġà¤Ĩà¤ĺ": 801,
      "Ġà¤Ĩà¤¢": 802,
      "à¤Ĩà¤¯": 803,
      "Ġà¤ľà¤¨à¤¤": 804,
      "Ġà¤ħà¤¦": 805,
      "Ġà¤¸à¤®à¤¸": 806,
      "Ġà¤īà¤ĺ": 807,
      "à¤¾âĢĻ": 808,
      "à¤¡à¤°": 809,
      "à¥ĢâĢĻ": 810,
      "à¤¿.": 811,
      "à¤ķà¤ļ": 812,
      "à¤·à¤§": 813,
      "Ġ19": 814,
      "Ġà¤ĺà¤¡à¤²": 815,
      "à¤®à¤²": 816,
      "Ġ10": 817,
      "âĢ¦": 818,
      "Ġ8": 819,
      "à¤£à¤¸": 820,
      "à¤²à¤°": 821,
      "à¤§à¤°": 822,
      "Ġà¤Ķà¤·à¤§": 823,
      "Ġà¤Ĩà¤£à¤ĸ": 824,
      "Ġà¤Ĩà¤Ī": 825,
      "Ġà¤Ĺà¤Ł": 826,
      "Ġà¤¸à¤¦à¤¸": 827,
      "Ġà¤ħà¤Łà¤ķ": 828,
      "Ġà¤łà¤°à¤²": 829,
      "Ġà¤ıà¤ĸ": 830,
      "à¤ķà¤Ł": 831,
      "Ġà¤¸à¤¹à¤Ń": 832,
      "Ġà¤¨à¤Ĺ": 833,
      "à¤ľà¤¤": 834,
      "Ġà¤ıà¤ķà¤¤": 835,
      "à¤¥à¤³": 836,
      "Ġà¥§à¥¯": 837,
      "Ġà¤Ĩà¤µà¤¡": 838,
      "Ġà¤°à¤¹": 839,
      "à¤µà¤°à¤ļ": 840,
      "Ġà¥¬": 841,
      "Ġà¤ĩà¤¥": 842,
      "à¤¼": 843,
      "à¤¤à¤ķà¤±": 844,
      "à¥Ģ)": 845,
      "Ġà¤Ī": 846,
      "Ġà¤ªà¤°à¤µ": 847,
      "Ġà¤ļà¤µ": 848,
      "Ġ9": 849,
      "à¤®à¤°": 850,
      "à¤¬à¤Īà¤¤": 851,
      "Ġà¤¢": 852,
      "Ġà¤ľà¤¬": 853,
      "à¤Ĺà¤ļ": 854,
      "à¤¨à¤Ĺà¤°": 855,
      "à¤ľà¤µà¤³": 856,
      "à¤ªà¤ļ": 857,
      "à¤ıà¤®": 858,
      "à¤ĺà¤°": 859,
      "à¤°à¤¯": 860,
      "à¤°à¤¥à¤®": 861,
      "Ġà¤ªà¤¡": 862,
      "Ġà¤ĩà¤¤": 863,
      "à¤¥à¤ķ": 864,
      "Ġà¤¨à¤¸à¤¤": 865,
      "à¤µà¤§": 866,
      "ĠâĢľ": 867,
      "Ġà¤ķà¤¶": 868,
      "à¤łà¤µ": 869,
      "Ġà¤¬à¤¸à¤²": 870,
      "à¤ľà¤µ": 871,
      "à¤³à¤ľ": 872,
      "à¥ĩ?": 873,
      "à¤¨à¤¨": 874,
      "Ġà¤¨à¤¸": 875,
      "à¤°à¤¦à¤°": 876,
      "à¤ķà¤ª": 877,
      "ĠÂłĠÂłĠÂłĠÂł": 878,
      "à¤Ĺà¤¸": 879,
      "Ġà¤¤à¤¤": 880,
      "à¤Īà¤ķ": 881,
      "Ġà¤ħà¤¡": 882,
      "Ġà¤īà¤¡": 883,
      "Ġà¥Ń": 884,
      "Ġà¤ıà¤®": 885,
      "Ġà¤¸à¤¹à¤ķ": 886,
      "Ġà¤µà¤¡": 887,
      "Ġà¤ħà¤¹": 888,
      "à¤ªà¤°à¤²": 889,
      "Ġà¤µà¤ķ": 890,
      "Ġà¤łà¤°à¤µ": 891,
      "Ġà¤ħà¤Ĺ": 892,
      "Ġà¤¹à¤¸": 893,
      "Ġà¤Ńà¤µ": 894,
      "à¤Īà¤Ł": 895,
      "à¤ĸà¤®": 896,
      "Ġà¤¸à¤¨": 897,
      "à¤³à¤Ĺ": 898,
      "Ġà¤²à¤¢": 899,
      "Ġà¤®à¤ľ": 900,
      "à¤ļà¤µ": 901,
      "à¤°à¤®à¤§": 902,
      "à¤ľà¤®": 903,
      "Ġà¤¦à¤¹à¤¶": 904,
      "Ġà¤¸à¤ļ": 905,
      "Ġà¤¹à¤¤": 906,
      "Ġà¤ĵà¤³à¤ĸ": 907,
      "à¤¡à¤¸": 908,
      "à¤·à¤¤": 909,
      "à¤¡à¤ķà¤°": 910,
      "à¤µà¤Ń": 911,
      "à¤ľà¤£": 912,
      "à¤¸à¤ª": 913,
      "à¤ĩà¤¨": 914,
      "Ġà¤¦à¤²": 915,
      "Ġà¤ħà¤ªà¤ĺ": 916,
      "à¤§à¤£": 917,
      "Ġà¤ľà¤²": 918,
      "à¤¹à¤°à¤£": 919,
      "à¤¸à¤±": 920,
      "Ġà¤ĩà¤¨": 921,
      "Ġà¤¶à¤¹": 922,
      "Ġà¤ªà¤Ł": 923,
      "à¤§à¤²": 924,
      "Ġà¤¨à¤¦": 925,
      "à¤¹à¤²": 926,
      "Ġà¤µà¤¯": 927,
      "à¤Ĭà¤¸": 928,
      "Ġà¤ĺà¤Łà¤ķ": 929,
      "à¤¦à¤ķ": 930,
      "à¤ľà¤Ĺ": 931,
      "à¤Łà¤ª": 932,
      "Ġà¤ľà¤ĸà¤®": 933,
      "Ġà¥§à¥¦": 934,
      "Ġà¤«à¤¡à¤£": 935,
      "Ġà¤¸à¤ª": 936,
      "à¤ķà¤³": 937,
      "à¤°à¤ķà¤°": 938,
      "Ġà¥®": 939,
      "ï¿": 940,
      "ï¿½": 941,
      "Ġà¤«à¤¡à¤£à¤µ": 942,
      "Ġà¤ªà¤¶": 943,
      "à¥Ĥ,": 944,
      "20": 945,
      "à¤¡à¤¨": 946,
      "Ġà¤ªà¤¡à¤¤": 947,
      "Ġ15": 948,
      "à¤ļà¤£": 949,
      "Ġà¤§à¤ķ": 950,
      "Ġà¤¦à¤¹à¤¶à¤¤à¤µ": 951,
      "Ġà¤¤à¤¥": 952,
      "à¤¹à¤³": 953,
      "Ġà¤°à¤¶": 954,
      "Ġà¤ķà¤µ": 955,
      "à¤¡à¤ª": 956,
      "Ġà¤ıà¤µà¤¢": 957,
      "à¥ĩ-": 958,
      "Ġà¤ķà¤ł": 959,
      "à¤ĸà¤µ": 960,
      "à¤®à¤£": 961,
      "Ġà¤¨à¤Ĺà¤°": 962,
      "à¤¡à¤Ĺ": 963,
      "à¤¤à¤¸": 964,
      "Ġà¤ķà¤¦": 965,
      "Ġà¤īà¤ªà¤¯": 966,
      "à¤·à¤®": 967,
      "à¤Ĺà¤ª": 968,
      "Ġà¤¶à¤°à¤¦": 969,
      "à¤ļà¤¤": 970,
      "à¤¬à¤¤à¤ļ": 971,
      "Ġà¤īà¤¤à¤°": 972,
      "Ġà¤Ĩà¤łà¤µà¤¡": 973,
      "à¤Łà¤®": 974,
      "ing": 975,
      "à¤Łà¤®à¤§": 976,
      "à¤¶à¤µ": 977,
      "Ġà¤Ĩà¤£à¤²": 978,
      "Ġà¤ķà¤¨": 979,
      "Ġà¤§à¤¨": 980,
      "er": 981,
      "Ġà¤¹à¤°": 982,
      "à¤¥à¤µ": 983,
      "Ġà¤Łà¤ª": 984,
      "à¤°à¤Ĺ": 985,
      "à¤Łà¤µà¤°": 986,
      "es": 987,
      "Ġà¤¦à¤ķ": 988,
      "ad": 989,
      "Ġà¤Ĭ": 990,
      "Ġà¤ħà¤ļ": 991,
      "Ġà¤ĩà¤¸": 992,
      "à¤¸à¤®à¤§": 993,
      "Ġà¥¯": 994,
      "Ġ/": 995,
      "Ġà¤ıà¤ķà¤®": 996,
      "Ġà¤ĳà¤¨à¤²": 997,
      "Ġà¤ķà¤¥": 998,
      "Ġà¤¤à¤¬": 999,
      "à¤°à¤ªà¤¤": 1000,
      "à¤¨à¤®à¤§": 1001,
      "Ġà¤¸à¤®à¤°": 1002,
      "à¤·à¤®à¤¤": 1003,
      "Ġà¤Ĩà¤£à¤£": 1004,
      "âĢįà¥ħ": 1005,
      "Ġà¤¶à¤¨": 1006,
      "à¤ľà¤¸": 1007,
      "à¤ķà¤µ": 1008,
      "à¥īà¤Ĥ": 1009,
      "à¤¯à¤¶": 1010,
      "Ġà¤¨à¤Ĺà¤°à¤¸": 1011,
      "à¥¤": 1012,
      "Ġ!": 1013,
      "à¤°à¤¡": 1014,
      "à¤°à¤µà¤ł": 1015,
      "Ġà¤µà¤¨": 1016,
      "Ġ?": 1017,
      "Ġ12": 1018,
      "Ġà¤Ĩà¤°à¤ķ": 1019,
      "à¤²à¤®à¤§": 1020,
      "Ġà¤¬à¤³": 1021,
      "Ġà¤łà¤°": 1022,
      "à¤ļà¤ķ": 1023,
      "Ġà¤ķà¤¡": 1024,
      "Ġà¤į": 1025,
      "ÂłÂł": 1026,
      "à¤£à¤ªà¤£": 1027,
      "Ġà¤ĺà¤¡": 1028,
      "Ġà¤ıà¤¨": 1029,
      "à¤ĸà¤£": 1030,
      "Ġà¤¸à¤µ": 1031,
      "à¤¡à¤ļà¤£": 1032,
      "à¤¬à¤¸": 1033,
      "Ġà¤¨à¤®": 1034,
      "à¤°à¤³": 1035,
      "à¤Ĺà¤³à¤µ": 1036,
      "Ġà¤§à¤°à¤£": 1037,
      "Ġà¤ħà¤¡à¤ļà¤£": 1038,
      "ĠL": 1039,
      "à¤Īà¤ļ": 1040,
      "à¤®à¤ª": 1041,
      "à¤¨à¤¦": 1042,
      "à¤¤à¤¦": 1043,
      "Ġà¤ħà¤¹à¤µ": 1044,
      "à¤ľà¤ļ": 1045,
      "Ġà¤ľà¤ª": 1046,
      "à¤¿,": 1047,
      "à¤³à¤ķ": 1048,
      "Ġà¤®à¤¸": 1049,
      "à¤Ĺà¤¨": 1050,
      "Ġà¤¬à¤²": 1051,
      "Ġà¥§à¥«": 1052,
      "à¤³à¤µà¤²": 1053,
      "Ġà¤ļà¤ķ": 1054,
      "à¤Łà¤¸": 1055,
      "Ġà¤Ķà¤°": 1056,
      "à¤¤à¤µà¤£": 1057,
      "Ġà¤ĳà¤ķ": 1058,
      "Ġ11": 1059,
      "Ġà¤¯à¤¶à¤¸": 1060,
      "Ġà¤ľà¤¯": 1061,
      "à¤ªà¤¸": 1062,
      "an": 1063,
      "Ġ2019": 1064,
      "à¤®à¤¹": 1065,
      "Ġà¤īà¤°": 1066,
      "à¤¡à¤®à¤§": 1067,
      "à¤¤à¤ªà¤£": 1068,
      "à¤Ĩà¤§": 1069,
      "Ġà¤īà¤ĺà¤¡": 1070,
      "à¤¬à¤µ": 1071,
      "Ġà¤«à¤²": 1072,
      "ar": 1073,
      "Ġà¤«à¤³": 1074,
      "à¤¶à¤®": 1075,
      "à¤ªà¤®": 1076,
      "à¤¥à¤¨": 1077,
      "Ġà¤ħà¤µà¤²": 1078,
      "Ġà¤²à¤µà¤ķà¤°à¤ļ": 1079,
      "à¤¸à¤Ĺ": 1080,
      "Ġà¤īà¤ªà¤ķ": 1081,
      "à¤¯à¤µà¤¹": 1082,
      "Ġà¤ľà¤µ": 1083,
      "à¤¤à¤°à¤°": 1084,
      "à¤£à¤ķ": 1085,
      "Ġà¤®à¤¨à¤¸": 1086,
      "à¥Ĥ.": 1087,
      "à¤¦à¤°à¤®": 1088,
      "Ġà¤ĩà¤¶": 1089,
      "ï¿½ï¿½": 1090,
      "Ġà¤®à¤¶": 1091,
      "à¤Ĩà¤°": 1092,
      "à¤¾)": 1093,
      "à¤®à¤¹à¤¤": 1094,
      "à¤¢à¤µ": 1095,
      "Ġà¤ħà¤¬": 1096,
      "Ġà¥§à¥¨": 1097,
      "à¤¨à¤¤": 1098,
      "âĢĮ": 1099,
      "Ġà¤īà¤¨": 1100,
      "Ġà¤Ĺà¤¡": 1101,
      "Ġà¤ıà¤ª": 1102,
      "Ġà¤ĳà¤¸": 1103,
      "Ġà¤ªà¤¸": 1104,
      "at": 1105,
      "à¤²à¤ķà¤°": 1106,
      "à¤¦à¤£": 1107,
      "Ġà¤¬à¤ľ": 1108,
      "Ġà¤Ńà¤°à¤ª": 1109,
      "Ġà¤°à¤ļà¤¨": 1110,
      "Ġà¤Ĩà¤ķà¤°": 1111,
      "Ġ25": 1112,
      "à¤Ĺà¤¦à¤°": 1113,
      "à¤Łà¤µ": 1114,
      "à¤¬à¤°à¤ļ": 1115,
      "Ġà¤ħà¤µà¤ĺ": 1116,
      "à¤ªà¤¡": 1117,
      "Ġà¤¶à¤¤à¤ķ": 1118,
      "Ġà¤°à¤¦": 1119,
      "à¤Ĳ": 1120,
      "à¤°à¤¬": 1121,
      "Ġà¤ķà¤³": 1122,
      "Ġà¤ķà¤Ł": 1123,
      "à¤¸à¤°à¤²": 1124,
      "à¤¹à¤¸": 1125,
      "à¤«à¤¤": 1126,
      "à¤µà¤ľà¤¨": 1127,
      "à¤ĸà¤¨": 1128,
      "Ġà¤¹à¤³": 1129,
      "Ġà¤ªà¤¥à¤ķ": 1130,
      "à¥ĩ)": 1131,
      "Ġ200": 1132,
      "Ġà¤¸à¤¤à¤¤": 1133,
      "Ġà¤«à¤°": 1134,
      "à¤¹à¤£à¤£": 1135,
      "ĠâĢĻ": 1136,
      "à¤Łà¥Ł": 1137,
      "Ġà¤¸à¤ľ": 1138,
      "Ġ18": 1139,
      "ĠĠĠĠ": 1140,
      "à¤ıà¤¨": 1141,
      "à¤°à¤¥": 1142,
      "Ġà¤Ľà¤¤": 1143,
      "Ġà¤µà¤ľà¤¨": 1144,
      "Ġà¤Ĩà¤ľà¤ļ": 1145,
      "à¥Ģ?": 1146,
      "à¤Ĺà¤®": 1147,
      "âĢĿ": 1148,
      "Ġà¤¤à¤³": 1149,
      "Ġà¤Ńà¤°à¤²": 1150,
      "Ġà¤ĳà¤Ĺà¤¸": 1151,
      "Ġ30": 1152,
      "Ġà¤¬à¤¦": 1153,
      "à¤¸à¤³": 1154,
      "Ġà¤ªà¤ķà¤¡": 1155,
      "à¤£à¤¨": 1156,
      "à¥ĩ:": 1157,
      "on": 1158,
      "Ġà¤¹à¤ķ": 1159,
      "Ġà¤ĸà¤¡": 1160,
      "à¤£à¤µà¤¤": 1161,
      "à¤Łà¤°à¤¨": 1162,
      "ĠLo": 1163,
      "Ġà¤Ĺà¤¤": 1164,
      "à¤³à¤ļ": 1165,
      "à¤°à¤ªà¤£": 1166,
      "Ġ|": 1167,
      "à¤Ĳà¤µà¤ľ": 1168,
      "à¤¾'": 1169,
      "à¤¦à¤¯": 1170,
      "à¤ĸà¤¤": 1171,
      "Ġà¤¸à¤¹à¤ľ": 1172,
      "Ġà¤¬à¤¨à¤²": 1173,
      "Ġà¤łà¤°à¤¤": 1174,
      "à¤£à¤µ": 1175,
      "Ġà¤ķà¤ªà¤¡": 1176,
      "à¤°à¤µà¤£": 1177,
      "à¤²à¤¦": 1178,
      "à¤°à¤µà¤°": 1179,
      "à¤Łà¤¬": 1180,
      "Ġà¤¤à¤²": 1181,
      "à¤¾!": 1182,
      "à¥ĩ;": 1183,
      "Ġà¤Ĩà¤¦à¤°": 1184,
      "à¤Ŀà¤°": 1185,
      "à¤¬à¤¡": 1186,
      "ading": 1187,
      "or": 1188,
      "à¤ĩà¤²": 1189,
      "Ġ14": 1190,
      "à¥ĩâĢĻ": 1191,
      "Ġà¤īà¤ļà¤²": 1192,
      "Ġà¤Ĩà¤µà¤¡à¤¤": 1193,
      "à¤¯à¤£": 1194,
      "à¤ıà¤²": 1195,
      "ĠLoading": 1196,
      "à¤¤à¤°à¤£": 1197,
      "Ġà¤Ĳà¤ķ": 1198,
      "à¥Īà¤Ĥ": 1199,
      "Ġà¤ľà¤¸": 1200,
      "à¤¸à¤µà¤°": 1201,
      "Ġà¤ıà¤²": 1202,
      "Ġà¤ľà¤µà¤³à¤ª": 1203,
      "Ġà¤Ńà¤°à¤¤": 1204,
      "Ġà¤²à¤¢à¤¤": 1205,
      "Ġà¤²à¤·": 1206,
      "Ġà¤¦à¤Ĺà¤¡": 1207,
      "à¥Įà¤Ĥ": 1208,
      "Ġà¤µà¤¤": 1209,
      "à¤¯à¤Łà¤ķ": 1210,
      "Ġ)": 1211,
      "à¤Ľà¤¤": 1212,
      "Ġà¤Ĩà¤ķà¤¡": 1213,
      "Ġà¤¬à¤ļ": 1214,
      "à¤µà¤Łà¤ļ": 1215,
      "à¤¸à¤¬": 1216,
      "à¤£à¤§": 1217,
      "Ġ0": 1218,
      "à¤ĸà¤ķ": 1219,
      "à¤®à¤¯": 1220,
      "ĠA": 1221,
      "Ġà¥¨à¥¦à¥¦": 1222,
      "Ġà¤¬à¤¨à¤µ": 1223,
      "à¤¯à¤Ł": 1224,
      "à¤¯à¤¯": 1225,
      "Ġà¤ĵà¤²": 1226,
      "à¥Ģ'": 1227,
      "Ġà¤¶à¤ķà¤²": 1228,
      "Ġà¤ªà¤¡à¤£": 1229,
      "Ġà¤¶à¤¸": 1230,
      "à¥ħà¤Ĥ": 1231,
      "à¤³à¤µà¤£": 1232,
      "à¤ĸà¤µà¤²": 1233,
      "à¤¯à¤¬": 1234,
      "Ġ13": 1235,
      "Ġ50": 1236,
      "à¤¨à¤®": 1237,
      "Ġ16": 1238,
      "à¤²à¤Ń": 1239,
      "Ġà¤«à¤Łà¤ķ": 1240,
      "Ġà¤¤à¤¶": 1241,
      "Ġs": 1242,
      "à¤ªà¤¡à¤²": 1243,
      "Ġà¤µà¤¨à¤¸": 1244,
      "ed": 1245,
      "à¤¦à¤ļ": 1246,
      "Ġà¥§à¥®": 1247,
      "Ġà¤¦à¤¤": 1248,
      "Ġà¤Ńà¤°à¤£": 1249,
      "Ġà¤ĵà¤³à¤ĸà¤²": 1250,
      "à¤ªà¤µ": 1251,
      "Ġà¤¦à¤°à¤µ": 1252,
      "Ġà¥¨à¥«": 1253,
      "Ġà¤ħà¤Ł": 1254,
      "à¤µà¤°à¤¹": 1255,
      "à¤²à¤®": 1256,
      "en": 1257,
      "Ġà¤Ńà¤ķ": 1258,
      "Ġà¤ħà¤£": 1259,
      "Ġà¤ªà¤°à¤¦": 1260,
      "à¤¨à¤ª": 1261,
      "Ġà¤ıà¤ķà¤ļ": 1262,
      "à¤°à¤®à¤£": 1263,
      "Ġà¤°à¤¤": 1264,
      "à¤¤à¤¡": 1265,
      "à¤¢à¤ļ": 1266,
      "ic": 1267,
      "à¤¥à¤²": 1268,
      "Ġà¤·": 1269,
      "--": 1270,
      "à¤ıà¤«": 1271,
      "Ġà¤ħà¤«": 1272,
      "Ġà¤īà¤¶": 1273,
      "à¤¨à¤¯": 1274,
      "al": 1275,
      "Ġà¤«à¤°à¤ķ": 1276,
      ">>": 1277,
      "âĢĺ": 1278,
      "à¤²à¤¬à¤ľ": 1279,
      "Ġà¤īà¤²à¤Ł": 1280,
      "à¤¨à¤¶": 1281,
      "Ġ17": 1282,
      "à¥ĩ!": 1283,
      "à¤£à¤ļ": 1284,
      "...": 1285,
      "Ġà¤ĺà¤Ł": 1286,
      "à¤§à¤³": 1287,
      "à¤°à¤ķà¤¡": 1288,
      "à¤ħà¤²": 1289,
      "Ġà¤¹à¤®": 1290,
      "à¤¡à¥Ł": 1291,
      "Ġà¤µà¤Ĺ": 1292,
      "Ġà¤ĭ": 1293,
      "à¤®à¤²à¤¬à¤ľ": 1294,
      "à¤¦à¤³": 1295,
      "Ġà¤Ĩà¤¸": 1296,
      "à¤¬à¤¨": 1297,
      "à¤¯à¤ķà¤¤": 1298,
      "Ġà¤ħà¤µà¤¸": 1299,
      "à¤ľà¤ªà¤¨": 1300,
      "à¤¤à¤°à¤ļ": 1301,
      "Ġà¤Ĩà¤łà¤µà¤£": 1302,
      "à¤Ĭà¤²": 1303,
      "Ġà¤¤à¤ľ": 1304,
      "à¤Łà¤«": 1305,
      "à¤¼à¥į": 1306,
      "à¤ªà¤°à¤£": 1307,
      "à¤¢à¤°": 1308,
      "à¤¶à¤¨à¤ļ": 1309,
      "à¤¸à¤¸": 1310,
      "Ġà¤ĩà¤²": 1311,
      "à¤¾\"": 1312,
      "Ġà¤ªà¤²": 1313,
      "à¤ıà¤ķ": 1314,
      "à¤łà¤µà¤²": 1315,
      "à¤³à¤ķà¤°": 1316,
      "Ġà¥§à¥§": 1317,
      "ĠÂłĠÂłĠÂłĠÂłĠÂłĠÂłĠÂłĠÂł": 1318,
      "à¤²à¤ª": 1319,
      "Ġà¤Ĺà¤³": 1320,
      "à¤łà¥Ł": 1321,
      "à¤Ĭà¤¤": 1322,
      "à¤¯à¤ķà¤²": 1323,
      "Ġà¥©à¥¦": 1324,
      "à¤ĩà¤Ł": 1325,
      "Ġ24": 1326,
      "à¥¨à¥¦": 1327,
      "Ġà¤ħà¤¹à¤®": 1328,
      "ĠS": 1329,
      "à¤¡à¤®": 1330,
      "Ġà¤ĩà¤°": 1331,
      "Ġà¤ķà¤ļà¤°": 1332,
      "Ġà¤¬à¤¦à¤²à¤²": 1333,
      "à¤®à¤¶": 1334,
      "Ġ100": 1335,
      "à¤°à¤Ĺà¤¤": 1336,
      "Ġ2018": 1337,
      "à¤¥à¤¸": 1338,
      "Ġà¥§à¥¬": 1339,
      "Ġà¤ĳà¤ªà¤°": 1340,
      "Ġc": 1341,
      "à¤¯à¤°à¤²": 1342,
      "à¤°à¤·": 1343,
      "Ġà¤ĵà¤µ": 1344,
      "à¤²à¤¸": 1345,
      "Ġà¥§à¥ª": 1346,
      "Ġà¤¸à¤®à¤ľà¤¤": 1347,
      "à¥Ģ!": 1348,
      "à¤¶à¤Ńà¤°": 1349,
      "Ġà¤¸à¤¦à¤°": 1350,
      "Ġà¤Ĭà¤°": 1351,
      "ĠM": 1352,
      "Ġ21": 1353,
      "le": 1354,
      "Ġà¤¨à¤ľà¤°": 1355,
      "à¥ģ,": 1356,
      "à¤¶à¤¨à¤²": 1357,
      "Ġà¤ķà¤²à¤®": 1358,
      "à¤²à¤µà¤£": 1359,
      "à¤¶à¤ļ": 1360,
      "à¤¯à¤µà¤°": 1361,
      "à¤®à¤®à¤§": 1362,
      "Ġà¤¥à¤°": 1363,
      "Ġà¤Ĩà¤ľà¤¹": 1364,
      "à¤¬à¤Īà¤ļ": 1365,
      "à¤¸à¤³à¤²": 1366,
      "à¤¯à¤¥": 1367,
      "à¤Łà¤°à¤ļ": 1368,
      "Ġà¤®à¤ľà¤¬": 1369,
      "à¤ļà¤¬à¤°": 1370,
      "Ġà¤ªà¤Łà¤ķ": 1371,
      "is": 1372,
      "à¥Ģ;": 1373,
      "à¤ľà¤ªà¤²": 1374,
      "Ġà¤ķà¤¦à¤®": 1375,
      "ĠP": 1376,
      "à¤¯à¤Łà¤¨": 1377,
      "Ġà¤¤à¤°à¤¤": 1378,
      "Ġà¤·à¤Łà¤ķ": 1379,
      "Ġà¥«à¥¦": 1380,
      "à¤ķà¤®à¤§": 1381,
      "à¥Ĥ-": 1382,
      "Ġà¤Ĺà¤°à¤®": 1383,
      "Ġà¤¦à¤°à¤°": 1384,
      "Ġà¤ļà¤¹": 1385,
      "à¤¥à¤°": 1386,
      "Ġà¤Ĩà¤«": 1387,
      "Ġà¤ªà¤¦à¤µ": 1388,
      "à¤¦à¤Ĺ": 1389,
      "Ġà¤°à¤®": 1390,
      "Ġà¤ľà¤Ĺà¤Ńà¤°": 1391,
      "Ġà¤®à¤ľà¤²": 1392,
      "Ġà¤«à¤¸": 1393,
      "Ġà¤¦à¤ĸà¤²": 1394,
      "à¤¾;": 1395,
      "Ġà¥§à¥©": 1396,
      "à¤ªà¤°à¤¤": 1397,
      "Ġà¤§à¤¡": 1398,
      "à¤¾:": 1399,
      "Ġà¤ħà¤¥à¤µ": 1400,
      "Ġà¥¤": 1401,
      "Ġà¤Ĩà¤¢à¤³à¤²": 1402,
      "Ġà¤¸à¤®à¤ľà¤²": 1403,
      "à¤ļà¤ª": 1404,
      "Ġà¤®à¤¦": 1405,
      "Ġà¥§à¥Ń": 1406,
      "à¤ªà¤³": 1407,
      "à¤µà¤¸à¤¨": 1408,
      "à¤«à¤°": 1409,
      "Ġà¤īà¤ªà¤ķà¤°à¤£": 1410,
      "à¤¬à¤°à¤²": 1411,
      "Ġà¤ľà¤Ĺà¤¤": 1412,
      "Ġà¤¬à¤ĺà¤¤": 1413,
      "à¤²à¤®à¤¤": 1414,
      "à¤°à¤µà¤²": 1415,
      "Ġà¤¦à¤¬": 1416,
      "à¥ģ.": 1417,
      "ĠC": 1418,
      "Ġ22": 1419,
      "à¤°à¤«": 1420,
      "Ġà¤ªà¤³": 1421,
      "Ġà¤Ĺà¤£à¤ªà¤¤": 1422,
      "Ġà¤Ĩà¤¢à¤³": 1423,
      "Ġà¤µà¤Ĺà¤³": 1424,
      "Ġà¤Ĩà¤Ń": 1425,
      "Ġà¤ļà¤¢": 1426,
      "Ġà¤®à¤¹à¤¸": 1427,
      "à¥Ģ\"": 1428,
      "à¤Ĺà¤µà¤¡": 1429,
      "Ġà¤§à¤®à¤ķ": 1430,
      "à¤²à¤ĸ": 1431,
      "Ġp": 1432,
      "à¤ĳ": 1433,
      "Ġ40": 1434,
      "Ġà¤łà¤°à¤µà¤²": 1435,
      "Ġà¤łà¤°à¤£": 1436,
      "Ġà¤ĺà¤¡à¤¤": 1437,
      "Ġà¤ªà¤¸à¤°à¤²": 1438,
      "Ġà¤Ĩà¤ļ": 1439,
      "à¤µà¤µ": 1440,
      "Ġà¥§à¥¦à¥¦": 1441,
      "it": 1442,
      "Ġà¤°à¤£": 1443,
      "à¤¨à¤¤à¤³": 1444,
      "à¤¯à¤°à¤¤": 1445,
      "Ġà¤īà¤¸": 1446,
      "à¤°à¤°": 1447,
      "Ġà¤¸à¤£": 1448,
      "à¤Ĺà¤£à¤ķ": 1449,
      "à¤łà¤µà¤£": 1450,
      "Ġà¤§à¤°à¤²": 1451,
      "à¤·à¤°": 1452,
      "à¤Īà¤¤": 1453,
      "Ġ23": 1454,
      "à¤¨à¤µà¤°": 1455,
      "Ġà¤ķà¤¬": 1456,
      "Ġà¤ķà¤ļ": 1457,
      "à¤³à¤µà¤³": 1458,
      "Ġà¤ħà¤ªà¤¯à¤¶": 1459,
      "à¤¯à¤¨à¤°": 1460,
      "Ġà¤¬à¤¸à¤£": 1461,
      "Ġà¤ľà¤µà¤³à¤ľà¤µà¤³": 1462,
      "à¤ħà¤¸": 1463,
      "Ġà¤¡à¤¬": 1464,
      "Ġà¤ĸà¤³": 1465,
      "à¤·à¤ªà¤¦": 1466,
      "Ġd": 1467,
      "Ġà¤Ĺà¤®": 1468,
      "Ġà¥¨à¥ª": 1469,
      "à¤ĸà¤¡": 1470,
      "Ġà¤¶à¤ª": 1471,
      "à¤ļà¤ļ": 1472,
      "Ġà¤Ńà¤¯": 1473,
      "Ġà¤¸à¤¹à¤¨": 1474,
      "Ġà¤īà¤·": 1475,
      "Ġà¤¬à¤¦à¤²à¤¤": 1476,
      "à¤ªà¤¹": 1477,
      "Ġà¤ħà¤¯": 1478,
      "Ġà¤Ńà¤Ĺà¤µ": 1479,
      "Ġà¤¸à¤²à¤®": 1480,
      "à¤¦à¤®": 1481,
      "à¤·à¤ª": 1482,
      "à¤ıà¤ļ": 1483,
      "Ġà¤§à¤¡à¤ķ": 1484,
      "Ġà¤«à¤¸à¤µà¤£": 1485,
      "Ġà¤¬à¤¦à¤²à¤£": 1486,
      "Ġà¤Ĳà¤¤": 1487,
      "Ġà¤¦à¤°à¤µà¤°": 1488,
      "à¤¬à¤°à¤¦": 1489,
      "à¤ľà¤¦": 1490,
      "om": 1491,
      "à¤ħà¤ª": 1492,
      "à¤²à¤ķà¤®": 1493,
      "Ġà¤¸à¤¹à¤¸": 1494,
      "à¥Ģ:": 1495,
      "Ġà¤¸à¤²à¤Ĺ": 1496,
      "Ġà¤ķà¤³à¤¤": 1497,
      "à¤¢à¤µà¤£": 1498,
      "Ġ[": 1499,
      "à¤¯à¤ķà¤µ": 1500,
      "à¤Īà¤¡": 1501,
      "Ġà¤ļà¤³à¤µà¤³": 1502,
      "Ġ*": 1503,
      "Ġ26": 1504,
      "Ġà¤īà¤ľ": 1505,
      "as": 1506,
      "Ġà¤ıà¤ķà¤¹": 1507,
      "à¤¤à¤°à¤¹": 1508,
      "Ġà¤ħà¤®à¤°": 1509,
      "à¤®à¤§à¤²": 1510,
      "Ġà¤¬à¤¨à¤µà¤£": 1511,
      "Ġà¤Ĩà¤¯à¤ª": 1512,
      "Ġm": 1513,
      "Ġà¤Ĺà¤²": 1514,
      "Ġ28": 1515,
      "à¤ĸà¤³": 1516,
      "à¤³à¤¸": 1517,
      "Ġà¤īà¤¤à¤°à¤²": 1518,
      "à¤Łà¤ķà¤°": 1519,
      "à¤ļà¤¸": 1520,
      "Ġ2017": 1521,
      "ĠI": 1522,
      "Ġà¤¬à¤¡": 1523,
      "50": 1524,
      "Ġ2020": 1525,
      "Ġà¤µà¤°à¤ļ": 1526,
      "à¥Ģ/": 1527,
      "ul": 1528,
      "à¥ģ:": 1529,
      "Ġt": 1530,
      "à¤Ńà¤ķ": 1531,
      "à¤Ĺà¤Ł": 1532,
      ").": 1533,
      "à¤¡à¤µà¤°": 1534,
      "Ġà¤īà¤Ĺ": 1535,
      "à¤°à¤®à¤ķ": 1536,
      "Ġà¤ıà¤«": 1537,
      "Ġà¤¤à¤£": 1538,
      "Ġà¤ľà¤µà¤³à¤ļ": 1539,
      "à¤ľà¤§": 1540,
      "30": 1541,
      "à¤¸à¤°à¤£": 1542,
      "Ġà¤ªà¤¡à¤¦": 1543,
      "à¤¯à¤ªà¤¦": 1544,
      "Ġà¤ıà¤¸à¤Ł": 1545,
      "à¤¤à¤ªà¤¤": 1546,
      "à¤·à¤¨": 1547,
      "Ġà¤īà¤ł": 1548,
      "Ġà¤¤à¤ªà¤¶": 1549,
      "ol": 1550,
      "à¤Ĺà¤¦à¤ªà¤¤": 1551,
      "Ġà¤ªà¤¨": 1552,
      "Ġ27": 1553,
      "à¤¡à¤µà¤²": 1554,
      "Ġà¤¨à¤Ĭ": 1555,
      "à¤µà¤¦": 1556,
      "Ġà¤¨à¤µà¤°": 1557,
      "à¤¤à¤¬": 1558,
      "Ġà¤ĸà¤Łà¤²": 1559,
      "Ġà¤ĳà¤²": 1560,
      "ĠB": 1561,
      "à¤µà¤¹": 1562,
      "à¤ĺà¤¨": 1563,
      "re": 1564,
      "Ġà¤ĸà¤³à¤¬à¤³": 1565,
      "à¤ıà¤¸à¤Ł": 1566,
      "ĠR": 1567,
      "Ġà¤¸à¤°à¤ª": 1568,
      "Ġà¤ľà¤Ĺà¤£": 1569,
      "à¤¶à¤ª": 1570,
      "ÂłÂłÂłÂł": 1571,
      "à¤ķà¤ľ": 1572,
      "Ġà¤Ĺà¤ª": 1573,
      "Ġà¤ľà¤²à¤¦": 1574,
      "à¤ķà¤µà¤°": 1575,
      "à¤¯à¤Ńà¤°": 1576,
      "Ġh": 1577,
      "à¤¬à¤Ł": 1578,
      "Ġà¤¹à¤¦": 1579,
      "âĢĻ,": 1580,
      "ĠâĢĺâĢĺ": 1581,
      "à¤ĸà¤µà¤£": 1582,
      "Ġà¤ĺà¤¡à¤µ": 1583,
      "Ġà¤ħà¤¶à¤ķ": 1584,
      "à¤ĸà¤µà¤¤": 1585,
      "Ġà¤¬à¤¸à¤¤": 1586,
      "ĠF": 1587,
      "à¤Łà¤°à¤µà¤°": 1588,
      "à¤°à¤ķà¤¤": 1589,
      "à¤³à¤ª": 1590,
      "Ġà¤Ĩà¤µà¤°": 1591,
      "Ġà¤ªà¤Ĺ": 1592,
      "ĠN": 1593,
      "à¤°à¤Ł": 1594,
      "Ġà¤¶à¤¤": 1595,
      "Ġà¤¥à¤ķ": 1596,
      "Ġà¤¬à¤¨à¤µà¤²": 1597,
      "à¤ļà¤¯": 1598,
      "Ġà¤¸à¤«": 1599,
      "à¤ľà¤¬": 1600,
      "à¤¶à¤°": 1601,
      "à¤ħà¤¨": 1602,
      "Ġ31": 1603,
      "à¤ľà¤®à¤§": 1604,
      "ro": 1605,
      "à¤·à¤Ńà¤°": 1606,
      "Ġà¤¤à¤¡": 1607,
      "à¤Īà¤¸": 1608,
      "Ġà¤īà¤§": 1609,
      "Ġà¥¨à¥¨": 1610,
      "Ġà¥ªà¥¦": 1611,
      "Ġà¤¬à¤¸à¤µ": 1612,
      "Ġà¤ħà¤¡à¤¥à¤³": 1613,
      "Ġà¤¦à¤¶à¤ķ": 1614,
      "Ġà¤ıà¤ķà¤Ł": 1615,
      "Ġà¤ĳà¤°": 1616,
      "à¤¡à¤¯": 1617,
      "à¤Ĺà¤ľ": 1618,
      "à¤µà¤¡à¤²": 1619,
      "el": 1620,
      "ĠT": 1621,
      "à¤®à¤ľ": 1622,
      "à¤Ĺà¤®à¤§": 1623,
      "Ġà¤ķà¤¡à¤ķ": 1624,
      "Ġà¤¹à¤ľà¤°": 1625,
      "à¤¢à¤¦": 1626,
      "Ġà¤ıà¤ħà¤°": 1627,
      "à¤ĩà¤¸": 1628,
      "Ġà¤ħà¤¡à¤ķà¤²": 1629,
      "Ġà¥¨à¥§": 1630,
      "à¤¨à¤¡": 1631,
      "à¤µà¤ļà¤·à¤ķ": 1632,
      "à¥ĩ'": 1633,
      "à¤¯à¤¡": 1634,
      "Ġà¤¤à¤¹à¤¸": 1635,
      "à¤Ńà¤µà¤¤": 1636,
      "Ġ199": 1637,
      "ĠĠĠĠĠĠĠĠ": 1638,
      "à¤¹à¤µ": 1639,
      "Ġà¤ľà¤¹": 1640,
      "Ġà¤ıà¤ķà¤¨": 1641,
      "à¤¯à¤Ĺ": 1642,
      "à¤¬à¤£": 1643,
      "Ġà¤ıà¤ļ": 1644,
      "à¥įâĢĮ": 1645,
      "à¤¾à¥ĩ": 1646,
      "Ġà¤Ķà¤¦": 1647,
      "à¤®à¤°à¤£": 1648,
      "Ġà¤¶à¤ķà¤£": 1649,
      "à¤£à¤ªà¤¤": 1650,
      "am": 1651,
      "à¤¦à¤¶": 1652,
      "à¤ļà¤µà¤¡": 1653,
      "Ġà¤¹à¤Ł": 1654,
      "à¤¬à¤¹": 1655,
      "à¤§à¤ļ": 1656,
      "Ġà¤¹à¤²à¤µ": 1657,
      "Ġb": 1658,
      "Ġà¤Ĳà¤µà¤ľ": 1659,
      "Ġ2014": 1660,
      "à¤¯à¤®à¤ļ": 1661,
      "Ġà¤¨à¤·": 1662,
      "à¤Ńà¤²": 1663,
      "Ġà¤ħà¤ªà¤°": 1664,
      "à¤łà¤Ń": 1665,
      "Ġà¤ļà¤®à¤ļ": 1666,
      "Ġà¤ĺà¤°à¤ļ": 1667,
      "à¤Ŀà¤¨": 1668,
      "à¤Łà¤ªà¤Ł": 1669,
      "Ġà¤¬à¤±": 1670,
      "à¤¡à¤¬": 1671,
      "Ġà¥¨à¥¬": 1672,
      "à¥ĭ-": 1673,
      "Ġà¤ľà¤¨à¤ľ": 1674,
      "Ġà¤ıà¤Ł": 1675,
      "Ġà¤Ĺà¤¡à¤ķà¤°": 1676,
      "Ġà¥¨à¥¦à¥§à¥®": 1677,
      "à¤ķà¤µà¤£": 1678,
      "Ġà¤¸à¤µà¤¯": 1679,
      "à¥ĩ\"": 1680,
      "Ġà¤²à¤¸": 1681,
      "Ġà¤¬à¤ķ": 1682,
      "à¤¯à¤Ń": 1683,
      "Ġà¤ĵà¤¢": 1684,
      "000": 1685,
      "à¤°à¤ļà¤¨": 1686,
      "Ġ29": 1687,
      "Ġ>>": 1688,
      "à¤Īà¤®": 1689,
      "Ġà¥§à¥¯à¥¯": 1690,
      "Ġà¤®à¤¨à¤®": 1691,
      "Ġà¤ķà¤³à¤²": 1692,
      "à¤§à¤¶": 1693,
      "à¤µà¤¸à¤Ńà¤°": 1694,
      "à¤ļà¤µà¤£": 1695,
      "Ġà¤¦à¤¸": 1696,
      "à¤£à¤Ĺ": 1697,
      "Ġà¤Łà¤¨": 1698,
      "Ġà¥¨à¥©": 1699,
      "Ġà¤ħà¤µà¤ĺà¤¡": 1700,
      "à¤¬à¤Īà¤ķà¤°": 1701,
      "à¤ĩà¤¡": 1702,
      "Ġà¤¸à¤°à¤³": 1703,
      "à¤¯à¤Ĺà¤¡": 1704,
      "Ġ60": 1705,
      "à¤Łà¤ªà¤£": 1706,
      "à¤¬à¤ķ": 1707,
      "Ġà¤¨à¤Ĺà¤°à¤ª": 1708,
      "à¤ľà¤ªà¤®à¤§": 1709,
      "à¤Īà¤ªà¤°": 1710,
      "Ġà¤ıà¤ķà¤°": 1711,
      "Ġà¤ķà¤ķ": 1712,
      "à¤ľà¤¬à¤³": 1713,
      "Ġà¤®à¤ļ": 1714,
      "ou": 1715,
      "Ġà¤īà¤ªà¤®": 1716,
      "à¤łà¤£": 1717,
      "ĠG": 1718,
      "Ġà¤Ĳà¤ķà¤²": 1719,
      "à¤²à¤Ł": 1720,
      "ov": 1721,
      "à¤¾à¥ħ": 1722,
      "ĠV": 1723,
      "à¤¬à¤ļ": 1724,
      "Ġà¤ĸà¤¡à¤¸": 1725,
      "à¤ªà¤°à¤ķà¤°": 1726,
      "19": 1727,
      "à¤ªà¤®à¤§": 1728,
      "à¤¸à¤±à¤¯": 1729,
      "Ġà¥¨à¥®": 1730,
      "Ġà¤Īà¤¶": 1731,
      "Ġà¤īà¤°à¤²": 1732,
      "à¤īà¤¤": 1733,
      "Ġà¤ľà¤³à¤Ĺ": 1734,
      "Ġà¤Ĩà¤Īà¤ļ": 1735,
      "il": 1736,
      "Ġà¤īà¤ªà¤¨à¤Ĺà¤°": 1737,
      "Ġà¤¸à¤®à¤¨": 1738,
      "à¤¶à¤¦": 1739,
      "Ġà¤īà¤ĺà¤¡à¤ķ": 1740,
      "Ġ35": 1741,
      "à¤·à¤¯à¤ķ": 1742,
      "Ġà¤¶à¤ªà¤¥": 1743,
      "Ġà¤īà¤ķ": 1744,
      "Ġà¤ħà¤¹à¤®à¤¦": 1745,
      "à¤¤à¤ķà¤±à¤¯": 1746,
      "Ġà¤Ĩà¤¯à¤¸": 1747,
      "Ġà¤Ĭà¤¸": 1748,
      "Ġà¤¨à¤¶": 1749,
      "Ġà¥¨à¥¦à¥§à¥¯": 1750,
      "ĠD": 1751,
      "à¤µà¤Ĺ": 1752,
      "à¤¤à¤£": 1753,
      "Ġà¤Ĺà¤µ": 1754,
      "à¤¤à¤°à¤¤": 1755,
      "Ġà¤¦à¤¶": 1756,
      "Ġà¤¸à¤°à¤¸": 1757,
      "à¤¬à¤§": 1758,
      "Ġà¥¨à¥Ń": 1759,
      "Ġà¤µà¤³à¤£": 1760,
      "Ġà¤¹à¤²à¤ķ": 1761,
      "10": 1762,
      "Ġà¤¬à¤ļà¤¤": 1763,
      "à¤®à¤Ł": 1764,
      "Ġà¤¬à¤Ł": 1765,
      "Ġà¤Ĩà¤łà¤µà¤²": 1766,
      "à¤Ĩà¤£": 1767,
      "Ġà¤īà¤ľà¤µ": 1768,
      "à¤²à¤¹": 1769,
      "à¤³à¤ĸ": 1770,
      "à¤¬à¤°à¤¦à¤¸": 1771,
      "à¤¦à¤¨à¤¶": 1772,
      "à¤®à¤³": 1773,
      "Ġà¤²à¤¢à¤£": 1774,
      "à¤³à¤¶": 1775,
      "Ġà¤ĸà¤¤": 1776,
      "à¤¨à¤Ĺà¤°à¤ª": 1777,
      "Ġà¤Łà¤°": 1778,
      "à¤¬à¤µà¤£": 1779,
      "à¤łà¤¡": 1780,
      "Ġà¤¤à¤®": 1781,
      "Ġà¤¹à¤°à¤ķà¤¤": 1782,
      "Ġà¤ĭà¤¤": 1783,
      "Ġà¤¸à¤ĸ": 1784,
      "Ġà¤ķà¤¸à¤²": 1785,
      "Ġà¤ıà¤®à¤Ĩà¤¯": 1786,
      "Ġà¤ıà¤ľ": 1787,
      "à¤¾/": 1788,
      "Ġà¤īà¤ļà¤²à¤²": 1789,
      "ch": 1790,
      "à¥«à¥¦": 1791,
      "Ġà¤ľà¤¡": 1792,
      "à¤ľà¤¨à¤ķ": 1793,
      "Ġà¤ľà¤¬à¤°à¤¦à¤¸": 1794,
      "Ġà¤ªà¤ķà¤¡à¤²": 1795,
      "Ġà¤¨à¤«": 1796,
      "à¤³à¤¨": 1797,
      "Ġà¤®à¤¨à¤ª": 1798,
      "Ġà¤ĩà¤¥à¤²": 1799,
      "à¤°à¤¥à¤®à¤ļ": 1800,
      "à¤²à¤µà¤²": 1801,
      "à¤ķà¤¡à¤ļ": 1802,
      "----": 1803,
      "à¤¦à¤µà¤²": 1804,
      "à¥Īà¥¤": 1805,
      "Ġà¤ĺà¤°à¤Ĺ": 1806,
      "Ġà¥¨à¥¦à¥§à¥ª": 1807,
      "et": 1808,
      "à¤ħà¤Ń": 1809,
      "Ġà¤īà¤¦à¤¯à¤¨à¤°": 1810,
      "Ġà¤īà¤¦à¤¯": 1811,
      "Ġà¤Ĩà¤£à¤¤": 1812,
      "Ġà¤²à¤ĺ": 1813,
      "Ġà¤ķà¤£": 1814,
      "à¥©à¥¦": 1815,
      "Ġà¥¨à¥¦à¥§à¥Ń": 1816,
      "à¤µà¤²à¤¤": 1817,
      "Ġà¤ıà¤ķà¤¦à¤®": 1818,
      "à¤ķà¤°à¤¤": 1819,
      "à¤ķà¤²à¤¨": 1820,
      "à¤ķà¤ªà¤£": 1821,
      "à¤¦à¤¨à¤Ĺà¤°": 1822,
      "à¤¢à¤°à¤ª": 1823,
      "Ġà¤Ĩà¤µà¤¡à¤²": 1824,
      "\",": 1825,
      "à¤Ĩà¤¯à¤ļ": 1826,
      "Ġà¤ĩà¤ľ": 1827,
      "à¤²à¤µà¤¤": 1828,
      "Ġ...": 1829,
      "Ġà¤²à¤µ": 1830,
      "Ġà¤¨à¤µà¤¨": 1831,
      "à¤Łà¤¦": 1832,
      "à¤°à¤ªà¤°": 1833,
      "à¥ĩà¤Ĥ.": 1834,
      "à¥§à¥¦": 1835,
      "Ġà¤ľà¤²à¤¸": 1836,
      "à¤µà¤¹à¤¨": 1837,
      "ĠÂ": 1838,
      "à¤Łà¤¯": 1839,
      "à¤²à¤µà¤°": 1840,
      "Ġà¤Ŀà¤Łà¤ķ": 1841,
      "18": 1842,
      "à¤īà¤¦": 1843,
      "à¤¾âĢ¦": 1844,
      "à¤ļà¤¦": 1845,
      "ĠâĢĿ": 1846,
      "Ġ2016": 1847,
      "ï¿½ï¿½ï¿½ï¿½": 1848,
      "à¤£à¤§à¤°": 1849,
      "Ġà¤ªà¤°à¤¸": 1850,
      "à¤ıà¤®à¤¸": 1851,
      "Ġà¤Ĩà¤ĸ": 1852,
      "Ġà¤Ŀà¤³": 1853,
      "Ġà¤¹à¤¨": 1854,
      "ĠâĢ¦": 1855,
      "Ġà¤Ĺà¤ľ": 1856,
      "un": 1857,
      "Ġà¤ªà¤ł": 1858,
      "ra": 1859,
      "Ġà¤ħà¤µà¤¯à¤µ": 1860,
      "à¤¯à¤«": 1861,
      "Ġà¤ĳà¤«à¤°": 1862,
      "à¤Ĥ?": 1863,
      "Ġà¤ķà¤¹": 1864,
      "Ġà¤ªà¤¦à¤ķ": 1865,
      "Ġ70": 1866,
      "Ġà¤ĸà¤¨": 1867,
      "Ġà¤łà¤³à¤ķ": 1868,
      "tic": 1869,
      "à¤£à¤²": 1870,
      "à¤ľà¤µà¤²": 1871,
      "Ġà¤ļà¤²à¤¨": 1872,
      "à¤¬à¤µà¤²": 1873,
      "à¤Ĺà¤Ń": 1874,
      "Ġ#": 1875,
      "Ġà¤¸à¤µà¤²à¤¤": 1876,
      "à¤¹à¤¨à¤¤": 1877,
      "à¤Ĺà¤µà¤¤": 1878,
      "à¤ķà¤¹": 1879,
      "à¤¯à¤ľ": 1880,
      "à¤¯à¤¸à¤¨": 1881,
      "Ġà¤Ĩà¤Ĺà¤®à¤¨": 1882,
      "Ġà¤ªà¤°à¤¤à¤²": 1883,
      "à¤ĩà¤µ": 1884,
      "Ġà¤ħà¤¨à¤§": 1885,
      "ri": 1886,
      "Ġà¤ħà¤ªà¤µ": 1887,
      "à¤·à¤°à¤¶": 1888,
      "à¤¬à¤¦à¤²": 1889,
      "à¤¯à¤¸à¤Ń": 1890,
      "à¤ķà¤ľà¤£": 1891,
      "Ġà¤ĵà¤¬": 1892,
      "Ġà¤°à¤ľ": 1893,
      "Ġà¤ķà¤·": 1894,
      "à¤¨à¤Ń": 1895,
      "Ġ+": 1896,
      "Ġ80": 1897,
      "Ġà¤ļà¤²": 1898,
      "Ġà¤®à¤§à¤²": 1899,
      "Ġ37": 1900,
      "Ġ=": 1901,
      "Ġà¤¶à¤¶": 1902,
      "à¤¾à¥¤": 1903,
      "à¤¤à¤ľ": 1904,
      "à¤¡à¤µà¤£": 1905,
      "Ġà¤īà¤ĺà¤¡à¤²": 1906,
      "à¤¨à¤ķà¤°": 1907,
      "à¤¯à¤¬à¤°": 1908,
      "à¤¨à¤ªà¤£": 1909,
      "Ġà¤ªà¤°à¤®": 1910,
      "Ġà¤Ĩà¤¸à¤ª": 1911,
      "Ġà¤µà¤¹": 1912,
      "Ġà¤īà¤ªà¤¨": 1913,
      "à¤īà¤¨": 1914,
      "Ġà¤¨à¤¹": 1915,
      "à¤ķà¤·": 1916,
      "à¤¸à¤ķà¤¡": 1917,
      "ĠH": 1918,
      "Ġà¤ħà¤µà¤ķ": 1919,
      "Ġ>": 1920,
      "Ġà¤ħà¤ľà¤¯": 1921,
      "os": 1922,
      "Ġà¤Ĩà¤³": 1923,
      "Ġà¤ħà¤°à¤µ": 1924,
      "Ġà¤Ńà¤²": 1925,
      "Ġà¤¯à¤¶à¤µ": 1926,
      "à¥¦à¥¦à¥¦": 1927,
      "Ġà¤ªà¤£à¤ľ": 1928,
      "Ġà¤µà¤Ĺà¤³à¤¤": 1929,
      "Ġà¤īà¤ªà¤µ": 1930,
      "Ġà¥¬à¥¦": 1931,
      "ĠK": 1932,
      "à¤¦à¤¹": 1933,
      "ts": 1934,
      "à¤¥à¤Ĺ": 1935,
      "__": 1936,
      "Ġà¤Ĩà¤ªà¤¤": 1937,
      "Ġà¤Ĩà¤Ŀ": 1938,
      "Ġà¤°à¤¨": 1939,
      "à¤¤à¤®à¤§": 1940,
      "Ġà¥©à¥§": 1941,
      "Ġà¥¦": 1942,
      "à¤¯à¤°à¤¸": 1943,
      "à¤°à¤£à¤ªà¤£": 1944,
      "Ġà¤¤à¤°à¤ļ": 1945,
      "à¥§à¥¯": 1946,
      "à¤łà¤¯": 1947,
      "à¤®à¤µà¤°": 1948,
      "Ġà¥©à¥«": 1949,
      "Ġf": 1950,
      "id": 1951,
      "Ġà¥¨à¥¯": 1952,
      "à¤Łà¤°à¤®à¤§": 1953,
      "Ġà¤ľà¤®à¤²": 1954,
      "ion": 1955,
      "à¤ļà¤¶": 1956,
      "Ġà¤ħà¤ķà¤°": 1957,
      "à¤ħà¤§": 1958,
      "Ġ500": 1959,
      "Ġà¤ħà¤¹à¤®à¤¦à¤¨à¤Ĺà¤°": 1960,
      "à¤³à¤µà¤¤": 1961,
      "Ġà¤¦à¤®": 1962,
      "ĠAr": 1963,
      "Ġà¤Ńà¤µà¤¨": 1964,
      "à¤¶à¤®à¤¨": 1965,
      "à¤ĩà¤®": 1966,
      "à¤ªà¤µà¤¯": 1967,
      "à¤°à¤µà¤¤": 1968,
      "à¤Ńà¤£": 1969,
      "Ġà¤«à¤Ł": 1970,
      "Ġw": 1971,
      "à¤Ĺà¤¶": 1972,
      "à¤ķà¤ķ": 1973,
      "à¥ĭâĢĻ": 1974,
      "à¤ļà¤µà¤²": 1975,
      "à¤¡à¤ĸ": 1976,
      "à¤µà¤°à¤ķà¤°": 1977,
      "Ġà¤ļà¤¤": 1978,
      "à¤¸à¤ĸ": 1979,
      "Ġà¤ĵà¤°": 1980,
      "15": 1981,
      "Ġà¤Ĩà¤Ł": 1982,
      "us": 1983,
      "à¤¨à¤Ī": 1984,
      "à¤¯à¤¹": 1985,
      "**": 1986,
      "à¤¸à¤³à¤§": 1987,
      "Ġ32": 1988,
      "à¤®à¤®": 1989,
      "Ġà¤°à¤ĸ": 1990,
      "à¤Īà¤ª": 1991,
      "Ġà¤īà¤¬à¤¦": 1992,
      "....": 1993,
      "Ġà¤ĺà¤¸à¤°à¤£": 1994,
      "Ġà¤ħà¤ªà¤ķ": 1995,
      "à¤ľà¤¶": 1996,
      "Ġà¤Ńà¤Ł": 1997,
      "à¤¦à¤²à¤ļ": 1998,
      "Ġl": 1999,
      "Ġà¤ħà¤«à¤Ĺ": 2000,
      "12": 2001,
      "Ġà¤ĩà¤ķ": 2002,
      "Ġà¤ľà¤¨à¤¸": 2003,
      "ps": 2004,
      "Ġà¤¸à¤°à¤¦": 2005,
      "Ġà¤¦à¤®à¤¦": 2006,
      "à¤łà¤ª": 2007,
      "Ġà¤µà¤¨à¤¡": 2008,
      "Ġà¤¨à¤ĸ": 2009,
      "Ġà¤®à¤°à¤£": 2010,
      "hi": 2011,
      "ull": 2012,
      "à¤¡à¤«": 2013,
      "ur": 2014,
      "Ġà¤°à¤£à¤ľ": 2015,
      "à¥ĢâĢ¦": 2016,
      "Ġà¤ľà¤¤à¤¨": 2017,
      "à¤Ĺà¤®à¤¨": 2018,
      "à¤¹à¤ľ": 2019,
      "Ġà¤ªà¤°à¤°": 2020,
      "Ġà¤ħà¤ªà¤®": 2021,
      "à¤°à¤µà¤ķ": 2022,
      "Ġà¤²à¤¢à¤µ": 2023,
      "==": 2024,
      "à¤¹à¥Ł": 2025,
      "à¤Ĩà¤¹": 2026,
      "ticle": 2027,
      "Ġ45": 2028,
      "Ġà¤ĳà¤¡": 2029,
      "à¤Ĩà¤¯à¤¨": 2030,
      "Ġà¤ĭà¤·": 2031,
      "à¤°à¤¸à¤¨": 2032,
      "Ġà¤Ĩà¤¢à¤³à¤¤": 2033,
      "à¥ĩâĢ¦": 2034,
      "à¤ıà¤¶à¤¨": 2035,
      "à¤²à¤ĺà¤°": 2036,
      "Ġà¤°à¤ķà¤®": 2037,
      "à¤¯à¤ªà¤£": 2038,
      "à¤¶à¤¹": 2039,
      "à¤³à¥Ł": 2040,
      "à¤¹à¤ļà¤²": 2041,
      "à¥Į.": 2042,
      "à¤²à¤ªà¤£": 2043,
      "Ġà¤Ĩà¤łà¤µà¤¤": 2044,
      "Ġà¤Ńà¤Łà¤ķ": 2045,
      "à¥ģà¤ĥ": 2046,
      "à¤¨à¤¬": 2047,
      "à¤łà¤°": 2048,
      "à¤Īà¤µ": 2049,
      "Ġà¤®à¤®à¤¤": 2050,
      "Ġà¤¬à¤¨à¤¤": 2051,
      "Ġà¤ħà¤¡à¤ķ": 2052,
      "Ġà¤¢à¤µà¤³": 2053,
      "à¤¼à¤¾": 2054,
      "à¤«à¤³": 2055,
      "Ġà¤Ĺà¤¹": 2056,
      "à¤®à¤¬": 2057,
      "à¥Ī.": 2058,
      "ĠÂłĠÂłĠÂłĠÂłĠÂłĠÂłĠÂłĠÂłĠÂłĠÂłĠÂłĠÂłĠÂłĠÂłĠÂłĠÂł": 2059,
      "Ġà¤ĵà¤ªà¤¨": 2060,
      "à¤¤à¤Ĳà¤µà¤ľ": 2061,
      "à¤°à¤ªà¤¦": 2062,
      "Ġà¥¨à¥¦à¥§à¥¬": 2063,
      "à¤ĩà¤ķ": 2064,
      "Ġà¤¸à¤¬": 2065,
      "ĠArticle": 2066,
      "à¤¹à¤ļ": 2067,
      "à¥Ģ),": 2068,
      "Ġà¤¢à¤ķà¤²": 2069,
      "à¤¸à¤ľ": 2070,
      "à¤·à¤¸": 2071,
      "Ġà¤ĸà¤¡à¤ķ": 2072,
      "à¤ķà¤µà¤²": 2073,
      "Ġà¤ıà¤ķà¤¤à¤°": 2074,
      "à¤Ĩà¤°à¤ª": 2075,
      "à¤Ĩà¤ª": 2076,
      "Ġ198": 2077,
      "Ġà¤®à¤Ĭ": 2078,
      "à¤°à¤¹à¤£": 2079,
      "Ġà¤ħà¤·": 2080,
      "Ġà¤¬à¤ĺà¤£": 2081,
      "Ġà¤µà¤§": 2082,
      "Ġà¥Ńà¥¦": 2083,
      "Ġà¥§à¥¯à¥®": 2084,
      "à¤¦à¤®à¤§": 2085,
      "Ġà¤Ĩà¤łà¤µ": 2086,
      "Ġ90": 2087,
      "à¤¸à¤«": 2088,
      "Ġà¥®à¥¦": 2089,
      "à¤łà¤®": 2090,
      "ers": 2091,
      "oo": 2092,
      "à¤ªà¤µà¤°": 2093,
      "Ġà¤Ĳà¤ķà¤¤": 2094,
      "Ġà¤ªà¤§": 2095,
      "Ġà¤²à¤ª": 2096,
      "Ġ36": 2097,
      "Ġà¤Ĺà¤¦": 2098,
      "à¤Ĩà¤®": 2099,
      "ac": 2100,
      "à¤§à¤¨à¤ķ": 2101,
      "à¤¦à¤ª": 2102,
      "Ġà¤ľà¤¨à¤°à¤²": 2103,
      "Ġà¤ļà¤°à¤¬": 2104,
      "Ġà¤ªà¤Łà¤²": 2105,
      "Ġà¤Ĩà¤ľà¤µà¤°": 2106,
      "Ġ2015": 2107,
      "à¤ľà¤µà¤°": 2108,
      "Ġà¤ļà¤®à¤ķ": 2109,
      "Ġà¤ķà¤°à¤µ": 2110,
      "à¤¨à¤ªà¤¤": 2111,
      "à¤ªà¤Ĺ": 2112,
      "Ġà¤ħà¤Ńà¤¯": 2113,
      "à¤£à¤®": 2114,
      "Ġà¤ķà¤³à¤µ": 2115,
      "ĠE": 2116,
      "Ġà¤ħà¤°à¤¬": 2117,
      "Ġà¤Ĺà¤¯": 2118,
      "à¤®à¤Ń": 2119,
      "à¤ľà¤ªà¤ķà¤¡": 2120,
      "Ġà¥¥": 2121,
      "Ġà¤¹à¤Łà¤µ": 2122,
      "Ġà¤ħà¤ªà¤¹à¤°à¤£": 2123,
      "à¤·à¤²à¤µ": 2124,
      "Ġà¤łà¤ª": 2125,
      "Ġà¤®à¤¯": 2126,
      "Ġà¤łà¤°à¤µà¤£": 2127,
      "Ġà¤ķà¤®à¤²": 2128,
      "Ġà¤®à¤ľà¤ķ": 2129,
      "Ġg": 2130,
      "à¤°à¤ķà¤Ł": 2131,
      "à¤Łà¤²à¤®à¤§": 2132,
      "Ġà¤®à¤£": 2133,
      "à¤ħà¤®": 2134,
      "à¤Ĩà¤¤": 2135,
      "à¤¤à¤¶": 2136,
      "à¤¤à¤Ĺ": 2137,
      "à¤£à¤ª": 2138,
      "tt": 2139,
      "âĢ¦]": 2140,
      "à¤¹à¤¯": 2141,
      "à¤¡à¤¶": 2142,
      "Ġ[âĢ¦]": 2143,
      "à¤¬à¤Īà¤²": 2144,
      "Ġà¤ĳà¤Ł": 2145,
      "Ġà¤ªà¤ķà¤¡à¤£": 2146,
      "à¤Ĺà¤ķ": 2147,
      "Ġà¤ħà¤®à¤²": 2148,
      "à¤ĺà¤ķ": 2149,
      "Ġà¤®à¤ķ": 2150,
      "Ġà¤¨à¤ľ": 2151,
      "à¤¸à¤Ń": 2152,
      "à¤Ĩà¤¯à¤Ł": 2153,
      "Ġà¤ķà¤®à¤¤à¤°à¤¤": 2154,
      "Ġà¤¸à¤¸": 2155,
      "Ġà¤¢à¤Ĺ": 2156,
      "11": 2157,
      "à¤ªà¤¶": 2158,
      "Ġà¤§à¤®": 2159,
      "à¤ĸà¤¦": 2160,
      "à¤ķà¤ł": 2161,
      "âĢĵ": 2162,
      "à¤¤à¤µà¤²": 2163,
      "Ġà¤¸à¤¤à¤°": 2164,
      "Ġà¤°à¤ļà¤²": 2165,
      "Ġà¥©à¥Ń": 2166,
      "Ġà¤«à¤²à¤ķ": 2167,
      "à¤²à¤ľ": 2168,
      "Ġà¤§à¤¨à¤Ĺà¤°": 2169,
      "à¤¹à¤±": 2170,
      "Ġà¤¦à¤¶à¤²à¤ķ": 2171,
      "Ġà¥«à¥¦à¥¦": 2172,
      "Ġà¤ªà¤°à¤³": 2173,
      "à¤¦à¤¦": 2174,
      "à¤¢à¤µà¤²": 2175,
      "à¤Ĭà¤¨à¤¹": 2176,
      "à¤ĺà¤¤": 2177,
      "Ġà¤¦à¤µ": 2178,
      "à¤Ĺà¤µà¤²": 2179,
      "Ġà¤¦à¤¯": 2180,
      "Ġà¤ıà¤µ": 2181,
      "à¤¹à¤¨à¤ļ": 2182,
      "ag": 2183,
      "à¤¶à¤®à¤§": 2184,
      "40": 2185,
      "à¤²à¤¡": 2186,
      "Ġà¤ĺà¤¸à¤°à¤²": 2187,
      "à¤ļà¤®à¤§": 2188,
      "à¤Ĩà¤ĺ": 2189,
      "Ġà¤ħà¤Łà¤²": 2190,
      "Ġà¤ªà¤°à¤Ńà¤£": 2191,
      "à¤«à¤²": 2192,
      "Ġ;": 2193,
      "25": 2194,
      "à¤Ńà¤§": 2195,
      "à¤·à¤µ": 2196,
      "à¤µà¤¡à¤°": 2197,
      "à¤¾...": 2198,
      "um": 2199,
      "à¤µà¤¨à¤¸à¤¤": 2200,
      "à¤µà¤°à¤¤": 2201,
      "à¤Ĩà¤ªà¤²": 2202,
      "Ġà¤īà¤ļà¤²à¤£": 2203,
      "à¤µà¤®": 2204,
      "Ġà¤Ĩà¤¯à¤¡": 2205,
      "Ġà¤®à¤¤à¤Ń": 2206,
      "17": 2207,
      "Ġà¤īà¤łà¤²": 2208,
      "Ġà¤ħà¤¡à¤µ": 2209,
      "Ġà¤Ĩà¤¯à¤Ł": 2210,
      "à¤¦à¤°à¤ļ": 2211,
      "Ġà¥§à¥¯à¥Ń": 2212,
      "à¤¬à¤°à¤ª": 2213,
      "à¤ıà¤Ł": 2214,
      "Ġà¤īà¤ĺà¤¡à¤£": 2215,
      "à¤ķà¤°à¤ļ": 2216,
      "Ġà¤ľà¤Ł": 2217,
      "em": 2218,
      "à¤łà¤¤": 2219,
      "Ġà¤¸à¤®à¤¤": 2220,
      "à¥ĭ?": 2221,
      "Ġà¤Ĩà¤ľà¤ªà¤°": 2222,
      "Ġ33": 2223,
      "Ġà¤ªà¤¨à¤µ": 2224,
      "à¤¥à¤¤": 2225,
      "à¤¯à¤µà¤§": 2226,
      "Ġà¤²à¤¢à¤µà¤£": 2227,
      "Ġà¤ķà¤£à¤ķ": 2228,
      "à¤°à¤®à¤¨": 2229,
      "Ġà¤µà¤ļà¤¨": 2230,
      "Ġà¤įà¤¡": 2231,
      "à¤¸à¤²à¤®": 2232,
      "à¤ħà¤¶": 2233,
      "à¤ĸà¤Ń": 2234,
      "Ġà¤ĥ": 2235,
      "Ġà¤¨à¤³": 2236,
      "à¤§à¤®": 2237,
      "à¤¯à¤®à¤µà¤°": 2238,
      "à¥§à¥«": 2239,
      "à¤¸à¤ħ": 2240,
      "à¤ıà¤¤": 2241,
      "Ġà¥¨à¥¦à¥§à¥«": 2242,
      "à¤ĩà¤¤à¤ķ": 2243,
      "à¤Ĭà¤ķ": 2244,
      "Ġà¤¬à¤¸à¤¸": 2245,
      "Ġà¤ľà¤³": 2246,
      "Ġà¤īà¤¤à¤°à¤£": 2247,
      "à¤¶à¤¨à¤®à¤§": 2248,
      "Ġà¤Ĺà¤¡à¤¦": 2249,
      "à¤£à¤µà¤²": 2250,
      "à¤¶à¤¸": 2251,
      "Âº": 2252,
      "ia": 2253,
      "à¤ıà¤²à¤ļ": 2254,
      "Ġà¥ªà¥«": 2255,
      "à¤Ĺà¤¹": 2256,
      "Ġà¤¯à¤ľà¤®": 2257,
      "Ġà¥©à¥¨": 2258,
      "and": 2259,
      "à¤ħà¤ĸ": 2260,
      "Ġà¤ıà¤ħ": 2261,
      "à¥§à¥®": 2262,
      "Ġà¤®à¤¤à¤®": 2263,
      "Ġà¤®à¤ķà¤°": 2264,
      "à¥ĩ...": 2265,
      "Ġ300": 2266,
      "Ġà¤ĺà¤¡à¤£": 2267,
      "ay": 2268,
      "ĠO": 2269,
      "Ġà¤¬à¤¨à¤µà¤¤": 2270,
      "à¤®à¤ĸ": 2271,
      "ot": 2272,
      "Ġà¤Ĩà¤µà¤ķ": 2273,
      "à¤ľà¤µà¤£": 2274,
      "Ġà¤¸à¤¹à¤®à¤¤": 2275,
      "16": 2276,
      "Ġà¤īà¤ªà¤ľ": 2277,
      "à¤ķà¤¥": 2278,
      "Ġà¤Ĩà¤¡à¤µ": 2279,
      "Ġà¤Ĺà¤µà¤¤": 2280,
      "',": 2281,
      "âĢĻâĢĻ": 2282,
      "ab": 2283,
      "Ġà¤Ĳà¤¨": 2284,
      "à¤ħà¤°à¤ļ": 2285,
      "à¤·à¤£à¤®": 2286,
      "à¤Ńà¤µà¤²": 2287,
      "Ġà¤¬à¤¦à¤¨": 2288,
      "à¤ªà¤¬": 2289,
      "à¤Ĩà¤ľ": 2290,
      "ak": 2291,
      "à¤Łà¤¹": 2292,
      "à¤ĩà¤Łà¤µà¤°": 2293,
      "Ġà¤¦à¤Ĺà¤¡à¤«": 2294,
      "Ġ48": 2295,
      "Ġà¤¤à¤²à¤µ": 2296,
      "Ġà¤¸à¤°à¤ļ": 2297,
      "Ġà¤ªà¤Łà¤ķà¤¨": 2298,
      "Ġà¤ĺà¤Łà¤¸": 2299,
      "à¤ķà¤ħà¤ª": 2300,
      "ĠFull": 2301,
      "à¤¨à¤ªà¤°": 2302,
      "he": 2303,
      "Ġà¤®à¤²à¤Ī": 2304,
      "Ġà¤¹à¤³à¤¦": 2305,
      "Ġà¤ĸà¤²": 2306,
      "Ġà¤µà¤¨à¤µ": 2307,
      "à¤Ĥ!": 2308,
      "Ġà¤ļà¤ķà¤®à¤ķ": 2309,
      "à¤Ĭà¤Ł": 2310,
      "Âºà¤¯": 2311,
      "Ġà¤Ĩà¤°à¤¤": 2312,
      "Ġà¤ıà¤¡": 2313,
      "ĠU": 2314,
      "à¤Īà¤ľ": 2315,
      "à¤ªà¤¦à¤ķ": 2316,
      "à¤¨à¤§à¤¨": 2317,
      "Ġà¤Īà¤¡": 2318,
      "à¤¶à¤¬": 2319,
      "Ġà¤¯à¤ķ": 2320,
      "Ġà¤Ĩà¤ľà¤ª": 2321,
      "Ġà¤«à¤¡à¤ķ": 2322,
      "Ġà¤¸à¤¯": 2323,
      "Ġà¤ħà¤«à¤µ": 2324,
      "Ġà¤Ĺà¤£à¤¨": 2325,
      "à¤ĺà¤®": 2326,
      "Ġà¤ıà¤°": 2327,
      "à¤§à¤¶à¤¤à¤ķ": 2328,
      "Ġà¤°à¤ĸà¤¡à¤²": 2329,
      "Ġ34": 2330,
      "à¤¨à¤ķà¤¡": 2331,
      "Ġà¤ĩà¤µ": 2332,
      "Ġà¤īà¤ªà¤°": 2333,
      "à¤¯à¤®à¤¸": 2334,
      "à¤ªà¤µà¤²": 2335,
      "à¥§à¥¨": 2336,
      "Ġà¤¥à¤ķà¤¬": 2337,
      "à¤¬à¤°à¤®à¤§": 2338,
      "Ġà¤µà¤³": 2339,
      "Ġà¤Ĩà¤Īà¤¨": 2340,
      "Ġà¤ĩà¤ķà¤¡": 2341,
      "Ġà¤ħà¤µà¤¶": 2342,
      "à¤¸à¤°à¤¤": 2343,
      "Ġ197": 2344,
      "ĠW": 2345,
      "Ġà¤ıà¤¨à¤¡": 2346,
      "Ġà¤ķà¤£à¤ķà¤µà¤²": 2347,
      "Ġà¤¨à¤µà¤²": 2348,
      "Ġà¤§à¤µà¤¨": 2349,
      "Ġà¤ļà¤°à¤£": 2350,
      "Ġà¤¸à¤¹à¤ľà¤ªà¤£": 2351,
      "à¤ªà¤µà¤£": 2352,
      "Ġà¤Ĩà¤¬": 2353,
      "à¤Ĺà¤µà¤£": 2354,
      "à¤²à¤Ĺà¤¤": 2355,
      "Ġà¤®à¤³": 2356,
      "à¤Ĩà¤°à¤¸": 2357,
      "Ġà¤«à¤µ": 2358,
      "Ġà¥¯à¥¦": 2359,
      "à¤¨à¤ľ": 2360,
      "à¤ıà¤Łà¤°": 2361,
      "Ġà¤Ĩà¤Īà¤²": 2362,
      "à¤¬à¤°à¤®": 2363,
      "Ġà¤ľà¤Ĺà¤¦": 2364,
      "à¤¹à¤¬": 2365,
      "à¤°à¤®à¤µ": 2366,
      "Ġ38": 2367,
      "Ġà¥©à¥¬": 2368,
      "à¤ļà¤®": 2369,
      "Ġà¤¯à¤µà¤¤": 2370,
      "Ġ75": 2371,
      "à¤ĵà¤ļ": 2372,
      "Ġà¤¤à¤¨": 2373,
      "Ġà¤¶à¤®": 2374,
      "//": 2375,
      "Ġà¤īà¤¡à¤µ": 2376,
      "im": 2377,
      "à¤¾),": 2378,
      "à¤°à¤ĺ": 2379,
      "Ġà¤¯à¤¹": 2380,
      "99": 2381,
      "Ġà¤¬à¤¸à¤ļ": 2382,
      "Ġà¤¸à¤®à¤ľà¤£": 2383,
      "à¤ľà¤µà¤Ł": 2384,
      "Ġà¤Ĩà¤¸à¤¨": 2385,
      "à¤µà¤¬": 2386,
      "à¥Ģ...": 2387,
      "à¤¨à¤ªà¤¦": 2388,
      "Ġà¤ľà¤¶": 2389,
      "Ġà¤łà¤°à¤µà¤¤": 2390,
      "à¤·à¤ľ": 2391,
      "Ġà¤łà¤¸": 2392,
      "à¤£à¤ªà¤¦à¤ķ": 2393,
      "://": 2394,
      "à¤Īà¤¬": 2395,
      "Ġà¤§à¤°à¤¤": 2396,
      "à¤Ĺà¤£à¤µ": 2397,
      "Ġà¥§à¥¯à¥¬": 2398,
      "Ġà¤°à¤ĺ": 2399,
      "à¤¸à¤ķà¤°": 2400,
      "à¤¨à¤£": 2401,
      "Ġà¥§à¥§à¥": 2402,
      "Ġà¤¬à¤¸à¤µà¤£": 2403,
      "Ġà¤®à¤ł": 2404,
      "Ġà¤ĵà¤Ł": 2405,
      "à¤ľà¤¹": 2406,
      "Ġà¤¹à¤¸à¤¤": 2407,
      "Ġà¤¦à¤£": 2408,
      "à¤Īà¤²à¤ļ": 2409,
      "Ġ`": 2410,
      "à¤«à¤¨": 2411,
      "Ġà¤ªà¤³à¤µ": 2412,
      "à¤®à¤ł": 2413,
      "Ġà¤²à¤ªà¤µ": 2414,
      "Ġà¤°à¤¡": 2415,
      "Ġà¤Ľà¤Ĺà¤¨": 2416,
      "à¤¨à¤§": 2417,
      "22": 2418,
      "iv": 2419,
      "à¤ľà¤¨à¤¶": 2420,
      "à¤¤à¤¯": 2421,
      "14": 2422,
      "à¤µà¤°à¤²": 2423,
      "Ġà¤īà¤¤à¤°à¤¤": 2424,
      "à¤¤à¤Ń": 2425,
      "Ġà¤Ľà¤³": 2426,
      "Ġhtt": 2427,
      "à¤²à¤°à¤ļ": 2428,
      "à¤¥à¤ª": 2429,
      "ore": 2430,
      "Ġà¥¨à¥¦à¥§à¥©": 2431,
      "à¤·à¤¬": 2432,
      "Ġà¤Īà¤µ": 2433,
      "Ġà¤Ĩà¤¯à¤Łà¤®": 2434,
      "Ġà¤Ĺà¤Łà¤¨": 2435,
      "Ġà¤ļà¤®à¤¤": 2436,
      "à¥ĩ),": 2437,
      "à¤¨à¤µà¤£": 2438,
      "à¤Ĩà¤°à¤¡": 2439,
      "Ġà¤°à¤£à¤µ": 2440,
      "à¤Łà¤Ĺ": 2441,
      "Ġà¤įà¤ķ": 2442,
      "Ġà¤¨à¤¸à¤£": 2443,
      "à¤ªà¤¥": 2444,
      "Ġà¤ķà¤°à¤¨": 2445,
      "Ġà¤Ĩà¤łà¤µà¤¡à¥Ł": 2446,
      "à¤ĺà¤£": 2447,
      "Ġà¤ĵà¤Ŀ": 2448,
      "à¤Ńà¤¯": 2449,
      "Ġà¤ķà¤®à¤ķ": 2450,
      "Ġà¤īà¤ªà¤Ĺ": 2451,
      "Ġ150": 2452,
      "Ġà¤¯à¤µà¤¤à¤®": 2453,
      "à¤¶à¤µà¤²": 2454,
      "Ġà¤¶à¤ªà¤¥à¤µ": 2455,
      "Ġà¤Ĳà¤ķà¤£": 2456,
      "à¤µà¤¡à¤¤": 2457,
      "ent": 2458,
      "à¥ĤâĢĻ": 2459,
      "Ġà¤²à¤²": 2460,
      "Ġ2013": 2461,
      "60": 2462,
      "à¤ªà¤¡à¤¤": 2463,
      "Ġà¤ªà¤¦à¤°": 2464,
      "Ġn": 2465,
      "Ġà¤Ĺà¤®à¤µ": 2466,
      "ec": 2467,
      "à¤¶à¤Ńà¤ķ": 2468,
      "ig": 2469,
      "Ġ42": 2470,
      "à¤ķà¤§": 2471,
      "ap": 2472,
      "Ġ55": 2473,
      "Ġà¤²à¤¤": 2474,
      "Ġà¤ªà¤°à¤¬": 2475,
      "Ġà¤Ĩà¤ľà¤ķ": 2476,
      "Ġà¤²à¤ĸà¤¨": 2477,
      "Ġà¤ıà¤®à¤Ĩà¤¯à¤¡": 2478,
      "à¤Ŀà¤²": 2479,
      "à¤¬à¤°à¤ªà¤°": 2480,
      "Ġà¤¹à¤¸à¤¨": 2481,
      "à¥Ģà¥¤": 2482,
      "à¥§à¥Ń": 2483,
      "Ġà¤ªà¤¬": 2484,
      "à¤¸à¤³à¤£": 2485,
      "à¤°à¤¸à¤®à¤ľ": 2486,
      "à¤Ĩà¤¯à¤¸": 2487,
      "Ġà¤ħà¤¸à¤¹": 2488,
      "à¤µà¤ĺ": 2489,
      "à¤¡à¤ĺ": 2490,
      "à¥ľ": 2491,
      "à¤£à¤£": 2492,
      "à¤Łà¤°à¤¸": 2493,
      "Ġà¤ĸà¤¬à¤°à¤¦": 2494,
      "Ġà¤ĵà¤¤à¤£": 2495,
      "Ġà¤Ĩà¤¡": 2496,
      "à¤ªà¤¡à¤ªà¤Ł": 2497,
      "à¤Ĺà¤ł": 2498,
      "à¥ĥà¤Ĥ": 2499,
      "Ġà¤ıà¤ķà¤µ": 2500,
      "à¤¸à¤®à¤µ": 2501,
      "Ġà¤ľà¤¤": 2502,
      "à¥ĩ..": 2503,
      "à¤ľà¤¦à¤°": 2504,
      "og": 2505,
      "à¤¯à¤Ŀ": 2506,
      "à¤ķà¤¬": 2507,
      "Ġà¤ıà¤ķà¤¸": 2508,
      "Ġà¥©à¥©": 2509,
      "Ġà¤¬à¤¨à¤£": 2510,
      "à¤µà¤®à¤§": 2511,
      "à¤ĵà¤µ": 2512,
      "à¤³à¤¯": 2513,
      "ID": 2514,
      "à¥¨à¥«": 2515,
      "à¥ĩà¥ĩ": 2516,
      "à¤ĺà¤Ł": 2517,
      "à¤¡à¤ªà¤£": 2518,
      "Ġin": 2519,
      "à¤¬à¤¡à¤¤": 2520,
      "Ġà¤Ńà¤°à¤Ńà¤°": 2521,
      "à¤ĵà¤¨": 2522,
      "ir": 2523,
      "Ġà¤Ĩà¤µà¤³": 2524,
      "Ġà¤§à¤¡à¤ª": 2525,
      "à¤ķà¤ĺà¤°": 2526,
      "Ġà¤Ŀà¤ª": 2527,
      "à¤Łà¤°à¤ª": 2528,
      "à¤²à¤ªà¤Ł": 2529,
      "Ġà¤ĵà¤®": 2530,
      "à¥¥": 2531,
      "Ġà¥¨à¥¦à¥§à¥¨": 2532,
      "à¤¶à¤¨à¤µà¤°": 2533,
      "ow": 2534,
      "Ġà¤ļà¤·à¤ķ": 2535,
      "à¤¤à¤°à¤ª": 2536,
      "à¤ıà¤®à¤ļ": 2537,
      "à¤²à¤¶": 2538,
      "Ġà¤Ĺà¤³à¤¤": 2539,
      "Ġà¤¸à¤°à¤¨": 2540,
      "Ġ65": 2541,
      "Ġà¤ľà¤¯à¤ª": 2542,
      "à¤·à¤Ń": 2543,
      "op": 2544,
      "Ġà¤ĵà¤ĺ": 2545,
      "13": 2546,
      "Ġà¤¬à¤¸à¤µà¤²": 2547,
      "ik": 2548,
      "Ġà¤¨à¤µà¤¨à¤µ": 2549,
      "Ġà¤¹à¤°à¤µà¤²": 2550,
      "Ġà¤ĵà¤¸": 2551,
      "ÂłÂłÂłÂłÂłÂłÂłÂł": 2552,
      "Ġ2012": 2553,
      "Ġà¥©à¥ª": 2554,
      "ĠÂ»": 2555,
      "à¤·à¤²": 2556,
      "Ġà¤ħà¤µà¤¤": 2557,
      "à¤µà¤¨à¤¶": 2558,
      "Ġà¤ĸà¤ľ": 2559,
      "à¤§à¤ª": 2560,
      "Ġà¤ĺà¤¨": 2561,
      "à¥§à¥§": 2562,
      "Ġà¤¬à¤Łà¤£": 2563,
      "à¤¬à¤§à¤¬": 2564,
      "à¤¯à¤®à¤¨": 2565,
      "ish": 2566,
      "Ġà¤ľà¤²à¤µ": 2567,
      "!!": 2568,
      "24": 2569,
      "à¥§à¥¬": 2570,
      "Ġà¤µà¤ľ": 2571,
      "ew": 2572,
      "Ġà¤ĸà¤±": 2573,
      "Ġà¤ĸà¤Ł": 2574,
      "Ġà¤¬à¤³à¤ķà¤Ł": 2575,
      "à¤¸à¤ķà¤Ł": 2576,
      "Ġà¤īà¤ªà¤®à¤¹": 2577,
      "Ġà¤¸à¤«à¤°à¤ļ": 2578,
      "Ġà¤ĵà¤ķ": 2579,
      "à¤ªà¤°à¤¸": 2580,
      "Ġà¤ķà¤¤": 2581,
      "Ġà¤§à¤¬à¤§à¤¬": 2582,
      "à¤ĺà¤¡à¤²": 2583,
      "Ġ''": 2584,
      "Ġà¤Ĺà¤¡à¤ļ": 2585,
      "\".": 2586,
      "à¤³à¤®": 2587,
      "à¤ħà¤Ĺ": 2588,
      "st": 2589,
      "ies": 2590,
      "à¤¡à¤°à¤ļ": 2591,
      "à¤Īà¤«": 2592,
      "Ġà¤Ĺà¤ľà¤°": 2593,
      "Ġà¤¨à¤µà¤ľ": 2594,
      "Ġà¤Ĩà¤·": 2595,
      "Ġà¤°à¤¬": 2596,
      "à¤Ĩà¤¡": 2597,
      "Ġà¤Ľà¤ª": 2598,
      "Ġà¤ķà¤¬à¤¡": 2599,
      "Ġà¤Ńà¤¡à¤ķ": 2600,
      "à¤Ĺà¤ªà¤¤": 2601,
      "à¤¾..": 2602,
      "à¤¨à¤ĸ": 2603,
      "Ġà¤ļà¤Łà¤ķ": 2604,
      "ut": 2605,
      "av": 2606,
      "à¤¦à¤°à¤²": 2607,
      "Ġà¤ªà¤µà¤¨": 2608,
      "à¤¸à¤¬à¤°": 2609,
      "21": 2610,
      "à¤¹à¤°à¤²": 2611,
      "à¤£à¤®à¤§": 2612,
      "Ġà¤īà¤¡à¤µà¤²": 2613,
      "Ġ400": 2614,
      "à¤ļà¤¹": 2615,
      "--------": 2616,
      "Ġà¤Ńà¤¡": 2617,
      "Ġà¤ªà¤°à¤ķ": 2618,
      "à¤ıà¤¸à¤¸": 2619,
      "Ġà¤ħà¤µà¤§": 2620,
      "45": 2621,
      "Ġà¤¦à¤£à¤ķ": 2622,
      "Ġe": 2623,
      "à¤ļà¤Ĺ": 2624,
      "Ġhttps": 2625,
      "à¤Ĭà¤°": 2626,
      "Ġà¥©à¥¦à¥¦": 2627,
      "Ġà¤Ĩà¤ĸà¤²": 2628,
      "à¥§à¥ª": 2629,
      "Ġà¤ĵà¤³à¤ĸà¤¤": 2630,
      "Ġà¤ĺà¤Łà¤²": 2631,
      "Ġà¤°à¤¹à¤¸": 2632,
      "of": 2633,
      "Ġà¤ªà¤¥": 2634,
      "Ġà¤īà¤£": 2635,
      "Ġà¤¦à¤¹à¤¶à¤¤": 2636,
      "Ġà¤¸à¤Ī": 2637,
      "ĠâĢº": 2638,
      "Ġà¤µà¤¸à¤¤": 2639,
      "Ġà¤µà¤¸à¤Ī": 2640,
      "Ġà¤°à¤ľà¤¨": 2641,
      "à¤¸à¤°à¤ļ": 2642,
      "Ġà¤ľà¤¯à¤¸": 2643,
      "Ġà¥ªà¥®": 2644,
      "Ġà¤Ĳà¤¸": 2645,
      "à¤¬à¤°à¤¨": 2646,
      "Ġà¤Ĩà¤¯à¤ķà¤°": 2647,
      "Ġà¤¨à¤µà¤µ": 2648,
      "à¤ķà¤µà¤¤": 2649,
      "Ġà¤ĩà¤Ł": 2650,
      "à¤ĸà¤Ł": 2651,
      "à¥Ī,": 2652,
      "Ġà¥Ńà¥«": 2653,
      "à¤ķà¤°à¤¨": 2654,
      "à¤ľà¤¡": 2655,
      "à¤²à¤«": 2656,
      "EO": 2657,
      "Ġà¥²": 2658,
      "à¤°à¤Ńà¤°": 2659,
      "nd": 2660,
      "à¤°à¤ªà¤Łà¤¸": 2661,
      "à¤¤à¤Ĺà¤¤": 2662,
      "Ġv": 2663,
      "à¤¯à¤¬à¤³": 2664,
      "à¤·à¤µà¤°": 2665,
      "Ġà¤Ńà¤Ĺà¤¤": 2666,
      "à¤¥à¤ļ": 2667,
      "à¥ĩà¤¼": 2668,
      "Ġà¤²à¤µà¤ļ": 2669,
      "Ġ39": 2670,
      "Ġà¤ĩà¤Łà¤²": 2671,
      "à¤īà¤¨à¤²": 2672,
      "à¤Ŀà¤µ": 2673,
      "Ġà¤ľà¤ªà¤£": 2674,
      "à¤Ļ": 2675,
      "Ġà¥§à¥¯à¥ª": 2676,
      "à¤ķà¤±": 2677,
      "à¤ľà¤ªà¤¤": 2678,
      "Ġà¤µà¤³à¤²": 2679,
      "Ġà¤ĵà¤ł": 2680,
      "Ġà¤Ĩà¤¯à¤«": 2681,
      "Ġà¤Ĳà¤¶": 2682,
      "Ġà¤¥à¤ķà¤²": 2683,
      "Ġà¤¤à¤Łà¤ķà¤°": 2684,
      "à¥ĩâĢĻ,": 2685,
      "Ġà¤ħà¤ªà¤¨": 2686,
      "à¤£à¤¬": 2687,
      "35": 2688,
      "à¤ĸà¤°à¤ļ": 2689,
      "Ġà¤¹à¤ª": 2690,
      "Ġà¤ĳà¤ª": 2691,
      "ĠĠĠĠĠĠĠĠĠĠĠĠĠĠĠĠ": 2692,
      "Ġà¤Ĩà¤¶à¤¯": 2693,
      "Ġà¤¬à¤¸à¤®à¤§": 2694,
      "ead": 2695,
      "à¤ıà¤«à¤ļ": 2696,
      "Ġà¤Ĩà¤°à¤Ł": 2697,
      "à¤¡à¤¹": 2698,
      "à¤¬à¤¤à¤¹": 2699,
      "à¥¨à¥¨": 2700,
      "Ġà¤Ĩà¤¦à¤®": 2701,
      "Ġ2011": 2702,
      "à¤łà¤ļ": 2703,
      "Ġà¤ıà¤¬": 2704,
      "Ġ44": 2705,
      "Ġà¤°à¤¥": 2706,
      "à¥ĭ!": 2707,
      "à¤Łà¤°à¤²": 2708,
      "Ġà¥¨à¥¦à¥§à¥§": 2709,
      "Ġà¤Ĺà¤³à¤«": 2710,
      "à¤¾âĢĻ,": 2711,
      "Ġà¤īà¤ķà¤¡": 2712,
      "à¤Ĩà¤¨": 2713,
      "à¤¦à¤¸": 2714,
      "Ġà¤ļà¤ª": 2715,
      "à¤īà¤²à¤Ł": 2716,
      "od": 2717,
      "à¤ıà¤®à¤Ł": 2718,
      "ĠâĢĻâĢĻ": 2719,
      "IDEO": 2720,
      "à¥ĢâĢĻ,": 2721,
      "à¤¸à¤¨à¤Ĺà¤°": 2722,
      "ev": 2723,
      "Ġ196": 2724,
      "est": 2725,
      "Ġ2009": 2726,
      "ub": 2727,
      "Ġà¤ªà¤°à¤«": 2728,
      "Ġà¤ĩà¤«": 2729,
      "Ġà¤®à¤¶à¤°": 2730,
      "à¥§à¥©": 2731,
      "Ġà¤¤à¤¹": 2732,
      "à¤Ĺà¤µà¤°": 2733,
      "Ġà¤ıà¤ľà¤¨": 2734,
      "ĠâĢ¢": 2735,
      "à¤¬à¤Īà¤®à¤§": 2736,
      "à¤ļà¤µà¤¤": 2737,
      "Ġà¤µà¤³à¤µ": 2738,
      "Ġà¤ķà¤°à¤®": 2739,
      "Ġà¤Ĩà¤°à¤¬": 2740,
      "Ġà¤īà¤łà¤µ": 2741,
      "à¤°à¤µà¤¡": 2742,
      "Ġà¥©à¥®": 2743,
      "Ġà¤ªà¤°à¤µà¤¡à¤£": 2744,
      "Ġcom": 2745,
      "à¤Ńà¤ª": 2746,
      "Ġà¤¹à¤Łà¤µà¤£": 2747,
      "à¥ĩ).": 2748,
      "Ġà¤ĵà¤³à¤ĸà¤£": 2749,
      "Ġà¤¤à¤¡à¤ľ": 2750,
      "Ġà¤ĺà¤¡à¤µà¤£": 2751,
      "Ġà¤µà¤³à¤¤": 2752,
      "Ġà¤Ĺà¤¤à¤µà¤°": 2753,
      "à¤¦à¤¯à¤µ": 2754,
      "Ġ:-": 2755,
      "à¤¡à¤¦": 2756,
      "ĠVIDEO": 2757,
      "à¥ĭ'": 2758,
      "Ġà¤Ńà¤ľà¤¨": 2759,
      "à¤Łà¤¨à¤ļ": 2760,
      "à¤µà¤ªà¤ķ": 2761,
      "à¤£à¤ķà¤°": 2762,
      "Ġ43": 2763,
      "Ġà¤ĳà¤¬": 2764,
      "à¤łà¤µà¤¤": 2765,
      "à¤µà¤ł": 2766,
      "à¤¸à¤Ĺà¤¡": 2767,
      "Ġà¤ħà¤¨à¤¨": 2768,
      "à¤·à¤ļ": 2769,
      "Ġà¤ĺà¤°à¤ķ": 2770,
      "à¤¸à¤°à¤ķà¤°": 2771,
      "à¤ĵà¤²": 2772,
      "Ġà¤°à¤£à¤¨": 2773,
      "à¥¯à¥¯": 2774,
      "Ġà¤¶à¤°à¤£": 2775,
      "à¤Īà¤²à¤µà¤°": 2776,
      "____": 2777,
      "Ġà¥«à¥«": 2778,
      "80": 2779,
      "Ġst": 2780,
      "à¤°à¤³à¤®à¤§": 2781,
      "Ġà¤®à¤¡à¤Ĺ": 2782,
      "Ġà¥ªà¥¨": 2783,
      "à¤½": 2784,
      "à¤Ńà¤³": 2785,
      "Ġà¤ªà¤¡à¤¸": 2786,
      "à¤ľà¤ªà¤µà¤°": 2787,
      "à¤¯à¤ªà¤¦à¤ķ": 2788,
      "Ġà¤Ŀà¤³à¤ķ": 2789,
      "Ġà¤īà¤®à¤Łà¤²": 2790,
      "à¤į": 2791,
      "à¤ıà¤¸à¤ļ": 2792,
      "Ġà¤Ĩà¤¤à¤¡": 2793,
      "à¤Ńà¤µà¤£": 2794,
      "Ġà¤¸à¤¹à¤²": 2795,
      "Ġà¤įà¤¸": 2796,
      "à¤¬à¤°à¤¤": 2797,
      "Ġà¤Ľà¤Ł": 2798,
      "Ġà¤Ńà¤¨": 2799,
      "à¥Ģ..": 2800,
      "à¤µà¤ªà¤³": 2801,
      "à¤«à¤°à¤¨": 2802,
      "23": 2803,
      "à¤¶à¤¤": 2804,
      "à¤µà¤ªà¤Ł": 2805,
      "Ġà¤¸à¤¦à¤¨": 2806,
      "Ġà¤¸à¤®à¤Ń": 2807,
      "Ġà¤¤à¤ªà¤ķ": 2808,
      "à¤ķà¤²à¤ļ": 2809,
      "Ġà¤²à¤¢à¤µà¤²": 2810,
      "Ġà¤ıà¤ķà¤®à¤¤": 2811,
      "à¤µà¤ľà¤£": 2812,
      "Ġ47": 2813,
      "à¤Īà¤Łà¤µà¤°": 2814,
      "Ġà¤¬à¤¤": 2815,
      "à¥ĩà¥¤": 2816,
      "Ġà¤īà¤²à¤Łà¤²": 2817,
      "à¤ĺà¤¡": 2818,
      "Ġ46": 2819,
      "à¤¦à¤µà¤£": 2820,
      "Ġ370": 2821,
      "à¤¸à¤³à¤¤": 2822,
      "Ġà¤µà¤Ĺà¤³à¤£": 2823,
      "à¤§à¤µà¤Ł": 2824,
      "à¤ıà¤¶à¤¨à¤ļ": 2825,
      "Ġà¤ħà¤µà¤°": 2826,
      "à¤Ĥ-": 2827,
      "Ġà¤ĳà¤¨": 2828,
      "à¥ªà¥¦": 2829,
      "ĠJ": 2830,
      "à¤°à¤¸à¤¹": 2831,
      "Ġà¤ĵà¤¡": 2832,
      "Ġà¤ħà¤ªà¤¡": 2833,
      "arat": 2834,
      "Ġà¤¦à¤°à¤¡": 2835,
      "à¤°à¤¸à¤°à¤£": 2836,
      "à¤¨à¤µà¤¤": 2837,
      "à¤ĩà¤ľ": 2838,
      "Ġà¤Ĩà¤¯à¤°": 2839,
      "Ġà¤ıà¤®à¤ıà¤®": 2840,
      "====": 2841,
      "Ġà¤Ĩà¤Ĺà¤³": 2842,
      "à¤ĵà¤®à¤§": 2843,
      "Ġà¤ªà¤Łà¤µ": 2844,
      "Ġà¥§à¥«à¥¦": 2845,
      "à¤µà¤³à¤£": 2846,
      "Ġ56": 2847,
      "Ġà¥¨à¥¦à¥¦à¥¯": 2848,
      "Ġà¤ħà¤µà¤®": 2849,
      "à¤¨à¤¸à¤°": 2850,
      "Ġà¤ªà¤ª": 2851,
      "ess": 2852,
      "Ġà¤ħà¤¨à¤ª": 2853,
      "à¤ľà¤µà¤¤": 2854,
      "Ġ]": 2855,
      "Ġ52": 2856,
      "à¤«à¤ķ": 2857,
      "à¤ħà¤°à¤®à¤§": 2858,
      "Ġà¥§à¥¯à¥«": 2859,
      "Ġr": 2860,
      "Ġà¤µà¤²": 2861,
      "Ġâ": 2862,
      "à¤¨à¤Ł": 2863,
      "à¤ıà¤²à¤®à¤§": 2864,
      "Ġà¥¨à¥¦à¥¨à¥¦": 2865,
      "Ġà¥¬à¥«": 2866,
      "Ġà¤¦à¤³à¤µ": 2867,
      "à¤°à¤¶à¤¸": 2868,
      "à¤¬à¤Īà¤¤à¤²": 2869,
      "Ġà¤ľà¤®à¤¤": 2870,
      "à¤Ńà¤¤": 2871,
      "Ġà¤µà¤°à¤³": 2872,
      "à¤¯à¤¨à¤¶": 2873,
      "à¤¤à¤ļà¤°": 2874,
      "à¤²à¤¢": 2875,
      "à¤°à¤ªà¤ķ": 2876,
      "Ġà¤ľà¤¬à¤°": 2877,
      "à¤ªà¤ªà¤¤": 2878,
      "Ġ250": 2879,
      "à¥ĭ)": 2880,
      "Ġà¤¥à¤ķà¤µ": 2881,
      "à¤ľà¤µà¤³à¤ļ": 2882,
      "à¤Ĺà¤°à¤®": 2883,
      "ant": 2884,
      "à¤£à¤¹": 2885,
      "Ġà¤¦à¤°à¤¬": 2886,
      "à¤Ĩà¤®à¤ļ": 2887,
      "****": 2888,
      "à¤¶à¤¨à¤°": 2889,
      "à¤ļà¤²à¤¨": 2890,
      "Ġà¤¬à¤¬": 2891,
      "Ġà¤īà¤¡à¤¤": 2892,
      "Ġ49": 2893,
      "ks": 2894,
      "à¤ķà¤ķà¤²": 2895,
      "Ġà¤Ńà¤¤": 2896,
      "à¤Ńà¤®": 2897,
      "à¤Īà¤ĵ": 2898,
      "Ġà¤īà¤ªà¤¦": 2899,
      "Ġà¤¸à¤¹à¤¯": 2900,
      "à¤ļà¤¡": 2901,
      "à¤ħà¤°à¤®à¤¨": 2902,
      "à¥ĭ;": 2903,
      "Ġà¤ļà¤µà¤¦": 2904,
      "à¤¦à¤¤à¤µ": 2905,
      "à¤ļà¤°à¤²": 2906,
      "Ġà¤ıà¤°à¤µ": 2907,
      "à¤Ĺà¤§": 2908,
      "Ġà¤įà¤ª": 2909,
      "Ġà¤ħà¤³": 2910,
      "Ġà¤¯à¤¥": 2911,
      "à¤Ńà¤µà¤¨": 2912,
      "à¤¢à¤µà¤¤": 2913,
      "à¤¯à¤¨à¤²": 2914,
      "à¤£à¤ĺ": 2915,
      "à¤ıà¤®à¤ª": 2916,
      "Ġà¤ķà¤®à¤³": 2917,
      "à¤ªà¤¦à¤°": 2918,
      "Ġà¤¨à¤®à¤¸": 2919,
      "Ġà¤ħà¤ªà¤²": 2920,
      "à¤ĩà¤«": 2921,
      "à¤ķà¤°à¤²": 2922,
      "ĠX": 2923,
      "Ġà¤īà¤²à¤Ĺ": 2924,
      "Ġà¤¨à¤ķà¤³à¤¤": 2925,
      "à¤³à¤®à¤§": 2926,
      "à¤ªà¤°à¤µ": 2927,
      "Ġà¤īà¤łà¤µà¤²": 2928,
      "Ġà¤²à¤¢à¤²": 2929,
      "à¤ļà¤ªà¤¤": 2930,
      "à¤¶à¤Ń": 2931,
      "Ġà¤Ĩà¤ĸà¤£": 2932,
      "Ġà¤īà¤¤à¤°à¤µ": 2933,
      "Ġà¤¨à¤²": 2934,
      "Ġà¤µà¤¸à¤²": 2935,
      "à¤¸à¤¦à¤°": 2936,
      "à¤Łà¤²à¤ļ": 2937,
      "à¤Ĩà¤ªà¤£": 2938,
      "Ġ2010": 2939,
      "Ġà¤¤à¤³à¤£": 2940,
      "Ġà¤ļà¤¢à¤²": 2941,
      "à¤¬à¤®à¤§": 2942,
      "à¤Ĩà¤¯à¤ª": 2943,
      "à¤Ĩà¤¯à¤¡": 2944,
      "/-": 2945,
      "Ġà¤¨à¤µà¤±": 2946,
      "à¤µà¤¬à¤³": 2947,
      "Ġà¤īà¤ķà¤³à¤£": 2948,
      "à¤ľà¤¯à¤ķ": 2949,
      "à¤Łà¤ķà¤ļ": 2950,
      "Ġà¤ļà¤®à¤ķà¤¦": 2951,
      "à¥¨à¥§": 2952,
      "Ġre": 2953,
      "Ġà¤ĩà¤¯à¤¤": 2954,
      "Ġ194": 2955,
      "Ġ54": 2956,
      "Ġ195": 2957,
      "70": 2958,
      "à¤¹à¤ª": 2959,
      "à¤īà¤²": 2960,
      "<<": 2961,
      "à¤ıà¤¸à¤ıà¤¸": 2962,
      "à¤¡à¤¨à¤®à¤§": 2963,
      "Ġà¤¨à¤Ĺà¤°à¤ªà¤°": 2964,
      "''": 2965,
      "à¤°à¤£à¤¤": 2966,
      "Ġà¤īà¤®à¤Ł": 2967,
      "à¤¯à¤¶à¤¸": 2968,
      "ter": 2969,
      "Ġà¤ĺà¤¡à¤µà¤²": 2970,
      "à¤¬à¤µà¤¤": 2971,
      "Ġà¤ĩà¤¸à¤®": 2972,
      "th": 2973,
      "Ġà¤Ĺà¤µà¤¸": 2974,
      "Ġ2000": 2975,
      "Ġà¥¨à¥¦à¥§à¥¦": 2976,
      "à¤īà¤¸": 2977,
      "Ġà¤°à¤¬à¤°": 2978,
      "Ġà¥ªà¥ª": 2979,
      "à¤Ĭà¤¨à¤²": 2980,
      "Ġ64": 2981,
      "à¤¡à¤°à¤²": 2982,
      "à¤¨à¤¸à¤¶": 2983,
      "à¤Ŀà¤®": 2984,
      "à¤ıà¤µà¤¢": 2985,
      "Ġà¤ķà¤¸à¤°à¤¤": 2986,
      "à¤°à¤ļà¤²": 2987,
      "à¤¨à¤¯à¤Ń": 2988,
      "Ġà¤§à¤¡à¤ªà¤¡": 2989,
      "à¤µà¤Ĺà¤¡": 2990,
      "arathi": 2991,
      "Ġ99": 2992,
      "Ġà¤Ńà¤°à¤§": 2993,
      "à¤¬à¤Ĺ": 2994,
      "Ġà¤¸à¤Ł": 2995,
      "Ġà¥ªà¥¦à¥¦": 2996,
      "ation": 2997,
      "Ġ2008": 2998,
      "Ġà¤¨à¤Ł": 2999,
      "Ġà¥©à¥¯": 3000,
      "à¤°à¤¤à¤°à¤¤": 3001,
      "à¤³à¤Ĺà¤£": 3002,
      "Ġà¤Ĩà¤ī": 3003,
      "ly": 3004,
      "Ġà¤ĺà¤¸": 3005,
      "à¤ıà¤®à¤ıà¤¸": 3006,
      "Ġà¥ŀ": 3007,
      "Ġà¤¦à¤¡à¤ªà¤£": 3008,
      "Ġà¤¦à¤¸à¤°": 3009,
      "à¤ķà¤®à¤¤": 3010,
      "à¤ĺà¤µ": 3011,
      "Ġà¤Ĩà¤Ĭà¤Ł": 3012,
      "Ġà¤Ĺà¤¸": 3013,
      "28": 3014,
      "à¤°à¤ľà¤¨": 3015,
      "Ġ41": 3016,
      "Ġà¤īà¤ªà¤¸à¤Ń": 3017,
      "Ġà¤ĸà¤ļ": 3018,
      "Ġà¤«à¤¸à¤µ": 3019,
      "à¤¶à¤¨à¤¨": 3020,
      "à¤ĸà¤ļ": 3021,
      "Ġà¤Ĩà¤Īà¤µà¤¡": 3022,
      "26": 3023,
      "à¤ĵà¤ª": 3024,
      "Ġà¤ıà¤ļà¤¡": 3025,
      "Ġà¤ĵà¤°à¤¡": 3026,
      "Ġà¤ķà¤¸à¤¬": 3027,
      "Ġà¤®à¤Ĺà¤°": 3028,
      "à¤³à¤ªà¤Ł": 3029,
      "à¤¦à¤Ń": 3030,
      "Ġà¤Ĺà¤µà¤³": 3031,
      "Ġà¤Łà¤³à¤²": 3032,
      "Ġà¤īà¤¦à¤°": 3033,
      "Ġà¤Ĩà¤°à¤ª": 3034,
      "Ġà¤ĺà¤°à¤«": 3035,
      "à¤¶à¤¨à¤¸": 3036,
      "à¤¸à¤¨à¤²": 3037,
      "Ġà¤ķà¤°à¤ª": 3038,
      "Ġà¤ªà¤¸à¤°à¤¤": 3039,
      "Ġà¥¨à¥¦à¥¦à¥®": 3040,
      "à¤Ĭà¤ļ": 3041,
      "à¤ĵà¤¤": 3042,
      "à¤®à¤ªà¤£": 3043,
      "39": 3044,
      "à¤Ĩà¤²": 3045,
      "Ġà¤®à¤²à¤®": 3046,
      "Ġà¤ĩà¤¤à¤°à¤¹": 3047,
      "Ġà¤ļà¤®": 3048,
      "Ġà¤ĩà¤¬": 3049,
      "à¤Ńà¤¨": 3050,
      "Ġà¤²à¤Łà¤ķ": 3051,
      "à¤µà¤¯à¤ķ": 3052,
      "à¤¬à¤Īà¤¸à¤¹": 3053,
      "Ġà¥ªà¥©": 3054,
      "Ġà¤¨à¤°à¤¸": 3055,
      "à¤ľà¤³": 3056,
      "Ġà¤®à¤¦à¤¨": 3057,
      "à¤Ĭà¤¦": 3058,
      "Ġ58": 3059,
      "27": 3060,
      "à¤¸à¤°à¤ª": 3061,
      "âĢ¦.": 3062,
      "Ġà¤¡à¤¬à¤²": 3063,
      "Ġà¤īà¤ķà¤³à¤¤": 3064,
      "à¤Ĺà¤²à¤ļ": 3065,
      "Ġà¤Ńà¤Ĺ": 3066,
      "Ġà¤¨à¤µà¤µà¤°": 3067,
      "Ġà¤Ĩà¤°à¤¸": 3068,
      "Ġà¤ļà¤·": 3069,
      "Ġà¤īà¤ĺà¤¡à¤¤": 3070,
      "oc": 3071,
      "Ġà¤ķà¤³à¤¸": 3072,
      "Ġà¤ķà¤ļà¤±": 3073,
      "Ġà¤¶à¤µà¤µ": 3074,
      "Ġà¤ħà¤¯à¤¶à¤¸": 3075,
      "à¤Ĭà¤¯": 3076,
      "Ġà¤Ĩà¤¯à¤¤": 3077,
      "à¤ıà¤ı": 3078,
      "Ġà¤ıà¤ķà¤ľ": 3079,
      "Ġ85": 3080,
      "à¤°à¤ķà¤ļ": 3081,
      "à¤¥à¤¶": 3082,
      "à¤Ĭà¤¨à¤ļ": 3083,
      "Ġ57": 3084,
      "ishes": 3085,
      "Ġà¤ĩà¤·": 3086,
      "200": 3087,
      "à¤Łà¤ķà¤¨": 3088,
      "Ġà¤ľà¤²à¤¤à¤°à¤£": 3089,
      "à¥¬à¥¦": 3090,
      "Ġà¤¤à¤µ": 3091,
      "bs": 3092,
      "Ġà¤«à¤²à¤Łà¤£": 3093,
      "à¤¶à¤ľ": 3094,
      "à¤¾âĢĿ": 3095,
      "Ġ51": 3096,
      "Ġà¤īà¤ķà¤¡à¤²": 3097,
      "à¤īà¤ª": 3098,
      "Ġa": 3099,
      "à¥ģ-": 3100,
      "à¤¦à¤¬": 3101,
      "Ġà¤ħà¤¸à¤®": 3102,
      "Ġà¤Ķà¤ªà¤ļ": 3103,
      "à¤Ĩà¤ķ": 3104,
      "à¤¯à¤ĺà¤Łà¤¨": 3105,
      "Ġà¥«à¥¨": 3106,
      "Ġà¤ķà¤³à¤£": 3107,
      "Ġà¤ķà¤¡à¤ķà¤¡": 3108,
      "à¤ķà¤°à¤¦": 3109,
      "Ġà¤ıà¤ķà¤ª": 3110,
      "à¤¤à¤¸à¤°": 3111,
      "à¤¡à¤µà¤¤": 3112,
      "à¥Īà¤Ĥà¥¤": 3113,
      "Ġà¤Ŀà¤°": 3114,
      "Ġà¤Ĩà¤ªà¤£à¤ļ": 3115,
      "à¤ħà¤¤": 3116,
      "Ġà¤¯à¤·": 3117,
      "à¤¹à¤°à¤ļ": 3118,
      "à¤ķà¤°à¤°": 3119,
      "à¤¶à¤ķà¤°": 3120,
      "à¤Ĺà¤°à¤ļ": 3121,
      "Ġà¤ªà¤ļà¤¨": 3122,
      "Ġà¤µà¤°à¤¦": 3123,
      "à¤°à¤£à¤µ": 3124,
      "Ġà¤¹à¤°à¤µ": 3125,
      "ip": 3126,
      "Ġà¤°à¤ļ": 3127,
      "ĠÂłĠ": 3128,
      "à¤Łà¤ĸ": 3129,
      "Ġà¤µà¤¡à¤Ĺ": 3130,
      "Ġ72": 3131,
      "à¥©à¥«": 3132,
      "ep": 3133,
      "Ġà¤¬à¤¸à¤ª": 3134,
      "à¤¹à¤¦": 3135,
      "Ġ53": 3136,
      "Ġà¤¯à¤ľ": 3137,
      "à¤Īà¤°": 3138,
      "ĠY": 3139,
      "Ġà¤Ĩà¤¯à¤Ĩà¤¯à¤Ł": 3140,
      "Ġà¥¨à¥¦à¥¦à¥¦": 3141,
      "Ġà¤ķà¤¢": 3142,
      "à¤¯à¤°à¤ļ": 3143,
      "à¤¿:": 3144,
      "à¤µà¤ķà¤±": 3145,
      "ha": 3146,
      "Ġà¥ªà¥Ń": 3147,
      "Ġà¤¸à¤®à¤ķ": 3148,
      "Ġà¤®à¤¯à¤¤": 3149,
      "Ġà¤¨à¤¯à¤¨": 3150,
      "Ġà¤¡à¤¹": 3151,
      "Ġà¤²à¤¹à¤°": 3152,
      "à¤ıà¤¡": 3153,
      "Ġà¤°à¤£à¤¬": 3154,
      "Ġà¤ļà¤¢à¤µà¤²": 3155,
      "à¤°à¤¸à¤Ń": 3156,
      "à¤Ĺà¤£à¤¨": 3157,
      "à¤¨à¤¤à¤°": 3158,
      "Ġà¤ļà¤¢à¤¤": 3159,
      "Ġà¤ķà¤®à¤°": 3160,
      "Ġà¤ľà¤Ĺà¤¨": 3161,
      "à¤¬à¤²à¤ķ": 3162,
      "Ġà¤ķà¤³à¤µà¤²": 3163,
      "à¤²à¤ķà¤²": 3164,
      "à¥ĢâĢĿ": 3165,
      "Ġà¤¹à¤Łà¤ķ": 3166,
      "Ġà¤²à¤¯": 3167,
      "Ġà¤Ĩà¤ªà¤Ł": 3168,
      "Ġà¤ľà¤¯à¤¦": 3169,
      "Ġà¤«à¤¡": 3170,
      "Ġà¤¹à¤°à¤²": 3171,
      "Ġà¤Ńà¤²à¤¤": 3172,
      "à¤ĺà¤Łà¤ķ": 3173,
      "Ġdishes": 3174,
      "iz": 3175,
      "Ġ600": 3176,
      "à¤ĵà¤¸": 3177,
      "à¤³à¤ķà¤¤": 3178,
      "90": 3179,
      "à¤®à¤ķà¤°": 3180,
      "Ġà¤ľà¤¨à¤¹": 3181,
      "Ġà¥ªà¥¬": 3182,
      "Ġà¤ĵà¤¢à¤²": 3183,
      "Ġà¤¸à¤®à¤µ": 3184,
      "com": 3185,
      "à¤¯à¤Ĺà¤°": 3186,
      "à¤ĺà¤²": 3187,
      "Ġà¤Ĩà¤Ŀà¤®": 3188,
      "à¥¨à¥ª": 3189,
      "Ġà¤ªà¤Łà¤¤": 3190,
      "Ġà¤°à¤¡à¤¤": 3191,
      "Ġà¥ªà¥¯": 3192,
      "à¥ĩâĢĿ": 3193,
      "à¤¿-": 3194,
      "Ġà¤Ĩà¤°à¤¡": 3195,
      "à¤°à¤µà¤¸": 3196,
      "à¤ªà¤°à¤¹": 3197,
      "Ġà¤ļà¤¯": 3198,
      "Ġà¤ľà¤®à¤µ": 3199,
      "à¤µà¤Ī": 3200,
      "Ġà¤¸à¤°à¤ķà¤¤": 3201,
      "uc": 3202,
      "Ġà¤ªà¤¦à¤Ń": 3203,
      "à¤¸à¤¶": 3204,
      "Ġà¤ıà¤¶": 3205,
      "à¤¯à¤¨à¤ļ": 3206,
      "à¤ĵà¤®": 3207,
      "Ġà¤¦à¤³à¤£": 3208,
      "Ġà¤īà¤°à¤£": 3209,
      "ĠRead": 3210,
      "Ġà¤ħà¤łà¤°": 3211,
      "à¤ĸà¤¨à¤¨": 3212,
      "à¤ķà¤²à¤®à¤§": 3213,
      "Ġà¤ķà¤¡à¤µ": 3214,
      "Ġk": 3215,
      "Ġ120": 3216,
      "à¤£à¤¦": 3217,
      "à¤°à¤®à¤¶": 3218,
      "Ġà¤Ĺà¤¡à¤¬à¤¡": 3219,
      "Ġà¤īà¤¸à¤³à¤²": 3220,
      "Ġà¥«à¥¬": 3221,
      "qu": 3222,
      "gh": 3223,
      "Ġà¤®à¤Ł": 3224,
      "Ġà¤¹à¤¯": 3225,
      "ated": 3226,
      "ĠCh": 3227,
      "à¤ªà¤ļà¤¯": 3228,
      "à¤Ńà¤¦": 3229,
      "Ġà¤ªà¤°à¤¤à¤£": 3230,
      "Ġà¤īà¤²à¤Ĺà¤¡": 3231,
      "Ġà¤Ńà¤°à¤µ": 3232,
      "Ġà¤Ķà¤ļ": 3233,
      "Ġà¤ĵà¤³à¤ĸà¤ªà¤¤": 3234,
      "à¤°à¤Ĺà¤£": 3235,
      "Ġà¤ľà¤¯à¤¶": 3236,
      "Ġà¤ĸà¤¬à¤°": 3237,
      "à¤°à¤®à¤¸": 3238,
      "Ġà¤Ĺà¤£à¤µ": 3239,
      "à¤¯à¤²à¤Ł": 3240,
      "Ġà¤ħà¤ķà¤¬à¤°": 3241,
      "Ġà¤ĵà¤¤": 3242,
      "à¤ľà¤¨à¤ļ": 3243,
      "Ġà¤ħà¤µà¤ľà¤¡": 3244,
      "Ġà¤¸à¤°à¤¸à¤ķà¤Ł": 3245,
      "Ġà¤¹à¤¡à¤ª": 3246,
      "75": 3247,
      "à¥į,": 3248,
      "Ġà¤«à¤¸à¤²": 3249,
      "à¤¶à¤ķà¤¤": 3250,
      "à¤ıà¤¨à¤¯": 3251,
      "à¤ĤâĢĻ": 3252,
      "à¤²à¤ķà¤¤": 3253,
      "Ġof": 3254,
      "à¤¸à¤®à¤¸": 3255,
      "Ġà¤ľà¤ªà¤²": 3256,
      "à¤¬à¤µà¤°": 3257,
      "ud": 3258,
      "à¤¸à¤§": 3259,
      "Ġà¤ªà¤°à¤¤à¤¤": 3260,
      "à¤ĥ,": 3261,
      "ist": 3262,
      "à¤°à¤¬à¤³": 3263,
      "Ġà¤ıà¤²à¤Īà¤¡": 3264,
      "à¤«à¤ļ": 3265,
      "Ġà¤¤à¤¹à¤ķ": 3266,
      ",\"": 3267,
      "Ġà¤Ĺà¤ļ": 3268,
      "à¤¸à¤°à¤ķ": 3269,
      "à¥Ĥ?": 3270,
      "Ġà¤ħà¤Ĺà¤°": 3271,
      "Ġà¤¢à¤ķà¤²à¤£": 3272,
      "à¥ĩà¤Ĥ,": 3273,
      "Ġà¤²à¤ªà¤²": 3274,
      "Ġ63": 3275,
      "à¥Ģ).": 3276,
      "Ġà¤ªà¤³à¤¤": 3277,
      "à¤µà¤¡à¤ķ": 3278,
      "Ġà¤ªà¤°à¤¤à¤«": 3279,
      ",.": 3280,
      "à¤ıà¤¨à¤ľ": 3281,
      "Ġà¤Ĩà¤¤à¤²": 3282,
      "Ġà¤¦à¤Ĺ": 3283,
      "Ġà¤Ĺà¤Ĺà¤¨": 3284,
      "ĠĠĠ": 3285,
      "à¤ªà¤°à¤Ĺ": 3286,
      "à¤ľà¤ªà¤¸": 3287,
      "à¤¹à¤¶": 3288,
      "Ġà¤ªà¤°à¤¶": 3289,
      "Ġ..": 3290,
      "Ġà¤¤à¤Łà¤¸": 3291,
      "à¥Ģà¤Ĥ.": 3292,
      "ĠÂłĊ": 3293,
      "ok": 3294,
      "sk": 3295,
      "Ġà¤Ńà¤¡à¤ķà¤²": 3296,
      "à¤Ĩà¤Ī": 3297,
      "Ġà¤Ĩà¤ªà¤£à¤¹": 3298,
      "Ġà¤ħà¤¥": 3299,
      "à¤ķà¤°à¤®": 3300,
      "ang": 3301,
      "Ġ95": 3302,
      "à¤ªà¤¡à¤£": 3303,
      "Ġà¤¹à¤²à¤µà¤£": 3304,
      "à¤¤à¤¨à¤ª": 3305,
      "à¤¿à¤ĥ": 3306,
      "à¤¯à¤¡à¤°": 3307,
      "Ġà¤ªà¤¸à¤°": 3308,
      "à¤°à¤ĸà¤°": 3309,
      "Ġà¤¸à¤®à¤²": 3310,
      "Ġà¤ħà¤Ŀ": 3311,
      "Ġà¥«à¥ª": 3312,
      "à¤¹à¤¨à¤¹": 3313,
      "à¤¯à¤¨à¤²à¤®à¤§": 3314,
      "Ġà¤¬à¤Ĺ": 3315,
      "les": 3316,
      "à¤µà¤Łà¤ªà¤°": 3317,
      "Ġà¤¬à¤°à¤¸": 3318,
      "à¥ĩ/": 3319,
      "Ġà¤¸à¤¬à¤¸": 3320,
      "à¤Ĩà¤ł": 3321,
      "Ġà¤īà¤ļà¤²à¤¤": 3322,
      "à¤·à¤¶": 3323,
      "à¤¸à¤Ł": 3324,
      "Ġà¤¨à¤Ĺà¤°à¤µ": 3325,
      "Ġà¤īà¤®à¤°": 3326,
      "Ġà¤¸à¤¡": 3327,
      "Ġà¤²à¤¢à¤µà¤¤": 3328,
      "Ġà¤®à¤¦à¤°": 3329,
      "à¤Ńà¤Ł": 3330,
      "Ġà¤¸à¤¹à¤µ": 3331,
      "à¥¨à¥©": 3332,
      "33": 3333,
      "Ġà¤ķà¤±": 3334,
      "Ġ66": 3335,
      "Ġ2007": 3336,
      "Ġ67": 3337,
      "à¤ĩà¤ª": 3338,
      "Ġà¤ķà¤²à¤°": 3339,
      "à¤ªà¤ķà¤°": 3340,
      "Ġà¤Ĩà¤ľà¤®": 3341,
      "à¤¸à¤¸à¤¹": 3342,
      "à¤ıà¤«à¤¸": 3343,
      "à¥į.": 3344,
      "à¤¹à¤Ĺà¤¡": 3345,
      "à¤ıà¤®à¤®à¤§": 3346,
      "à¤°à¤ªà¤Łà¤Ĺ": 3347,
      "à¤ļà¤µà¤°": 3348,
      "à¤ķà¤£à¤ļ": 3349,
      "Ġà¤ĸà¤£": 3350,
      "har": 3351,
      "à¤ħà¤°à¤¸": 3352,
      "Ġà¤įà¤¨": 3353,
      "à¤¤à¤°à¤£à¤ļ": 3354,
      "Ġà¤ĸà¤°à¤ļ": 3355,
      "à¥ªà¥«": 3356,
      "à¤Īà¤¨à¤ļ": 3357,
      "âĢĻ.": 3358,
      "à¤µà¤²à¤¨": 3359,
      "à¤Ĺà¤¬": 3360,
      "Ġà¤ļà¤¢à¤£": 3361,
      "Ġà¤µà¤Ĺà¤³à¤²": 3362,
      "Ġà¤Ŀà¤Łà¤ªà¤Ł": 3363,
      "Ġà¤ªà¤Łà¤ķà¤¥": 3364,
      "ide": 3365,
      "Ġ\".": 3366,
      "à¤¹à¤Ń": 3367,
      "à¤¾à¤¾": 3368,
      "ww": 3369,
      "à¤¦à¤Ĺà¤¡": 3370,
      "à¤ıà¤¸à¤Ĩà¤¯": 3371,
      "29": 3372,
      "à¤ĸà¤µà¤Ł": 3373,
      "Ġ68": 3374,
      "à¤Ĺà¤¤à¤ļ": 3375,
      "à¥įâĢįâĢĮ": 3376,
      "Ġà¤Ĩà¤µà¤°à¤£": 3377,
      "Ġà¤²à¤¡": 3378,
      "Ġà¤Ŀà¤³à¤ķà¤£": 3379,
      "Ġà¥©à¥Ńà¥¦": 3380,
      "Ġ&": 3381,
      "Ġà¤¹à¤Łà¤µà¤²": 3382,
      "à¤µà¤ľà¤¯": 3383,
      "Ġà¤¦à¤°à¤®à¤¹": 3384,
      "à¤Ĺà¤ľà¤¨": 3385,
      "ob": 3386,
      "Ġà¥¨à¥«à¥¦": 3387,
      "à¤Ķ": 3388,
      "Ġà¤īà¤ªà¤¸à¤°à¤ª": 3389,
      "à¤Ĺà¤ķà¤°": 3390,
      "à¤¶à¤¤à¤ķ": 3391,
      "Ġà¤¬à¤²à¤ķ": 3392,
      "Ġà¤¬à¤ľà¤°": 3393,
      "Ġà¤¸à¤ķà¤²": 3394,
      "Ġ59": 3395,
      "à¤¢à¥Ł": 3396,
      "à¤¨à¤¸à¤¹": 3397,
      "Ġà¤¦à¤£à¤¦à¤£": 3398,
      "Ġà¤ħà¤ľà¤¬": 3399,
      "Ġà¤ĺà¤¸à¤°": 3400,
      "à¤§à¤¡": 3401,
      "ews": 3402,
      "Ġà¤ķà¤®à¤ľ": 3403,
      "Ġ1000": 3404,
      "ash": 3405,
      "Ġà¤ĺà¤¶": 3406,
      "Ġà¤¡à¤Ŀà¤¨": 3407,
      "à¤ļà¤²à¤ķà¤°": 3408,
      "Ġà¤ĺà¤£": 3409,
      "à¥ĩ,âĢĻ": 3410,
      "à¤ªà¤ª": 3411,
      "à¤ľà¤¯à¤¸": 3412,
      "à¤Ĩà¤°à¤Ł": 3413,
      "à¤µà¤§à¤°": 3414,
      "à¥®à¥¦": 3415,
      "Ġà¤¤à¤Łà¤¬": 3416,
      "à¤ªà¤£à¤¨": 3417,
      "à¥¨à¥Ń": 3418,
      "Ġà¤Ĩà¤ªà¤¸": 3419,
      "à¤Īà¤µà¤°": 3420,
      "à¤£à¤µà¤£": 3421,
      "une": 3422,
      "à¤¢à¤¤à¤ļ": 3423,
      "Ġà¤¹à¤®à¤ĸ": 3424,
      ");": 3425,
      "up": 3426,
      "à¥Į-": 3427,
      "à¤Łà¤¨à¤®à¤§": 3428,
      "Ġà¤¯à¤®": 3429,
      "à¤ķà¤ķà¤°": 3430,
      "à¤ĺà¤ļ": 3431,
      "Ġà¤µà¤³à¤¸": 3432,
      "Ġ800": 3433,
      "Ġà¤īà¤¤à¤°à¤µà¤²": 3434,
      "Ġà¤Ĩà¤Īà¤¸": 3435,
      "à¤²à¤ªà¤°": 3436,
      "ÂłĠ": 3437,
      "32": 3438,
      "à¤¬à¤®": 3439,
      "Ġà¤µà¤·": 3440,
      "Ġà¤ĩà¤°à¤«": 3441,
      "ya": 3442,
      "à¤¼à¥ĩ": 3443,
      "Ġà¤īà¤ªà¤ħà¤§": 3444,
      "à¤ħà¤ķ": 3445,
      "ST": 3446,
      "if": 3447,
      "à¤¸à¤ªà¤£": 3448,
      "Ġà¥Ńà¥¨": 3449,
      "à¤Łà¤µà¤¸": 3450,
      "Ġà¤Īà¤®": 3451,
      "à¤ıà¤¬": 3452,
      "Ġà¤ľà¤ķ": 3453,
      "Ġ2005": 3454,
      "à¤ªà¤±": 3455,
      "Ġà¥ªà¥§": 3456,
      "Ġà¤ıà¤®à¤ıà¤®à¤Ĩà¤°à¤¡": 3457,
      "à¤Ĺà¤°à¤£": 3458,
      "Ġà¤Īà¤¸": 3459,
      "à¤¶à¤µà¤¤": 3460,
      "Ġà¥«à¥§": 3461,
      "Ġà¤®à¤°à¤¤": 3462,
      "Ġà¤ıà¤¨à¤Ĩà¤°à¤¸": 3463,
      "à¤¾à¤Ĥà¤Ĥ": 3464,
      "34": 3465,
      "Ġà¤¸à¤¤à¤¤à¤ļ": 3466,
      "à¤µà¤¨à¤ļ": 3467,
      "à¤¹à¤£à¤²": 3468,
      "Ġà¥¬à¥ª": 3469,
      "à¤Łà¤°à¤®": 3470,
      "Ġà¤Ĺà¤£à¤°": 3471,
      "Ġà¤Ĺà¤¢": 3472,
      "à¤¡à¤Ľ": 3473,
      "Ġà¤¨à¤µà¤¸": 3474,
      "à¤łà¤¬à¤³": 3475,
      "Ġ2004": 3476,
      "à¤ıà¤¸à¤ķ": 3477,
      "Ġà¤¹à¤°à¤Ń": 3478,
      "Ġà¤°à¤«": 3479,
      "Ġà¤īà¤ľà¤¨": 3480,
      "à¤ħà¤ľ": 3481,
      "Ġà¤¤à¤³à¤²": 3482,
      "à¤¡à¤ķà¤¡": 3483,
      "Ġà¤Ŀà¤²à¤ķ": 3484,
      "Ġà¤¸à¤°à¤¬à¤¤": 3485,
      "Ġà¤ĸà¤³à¤¬à¤³à¤ľà¤¨à¤ķ": 3486,
      "Ġà¤ĺà¤¸à¤°à¤¤": 3487,
      "Ġà¤ķà¤¤à¤°": 3488,
      "Ġà¤ıà¤¸à¤¬": 3489,
      "Ġà¤¬à¤°à¤ĸ": 3490,
      "à¥¨à¥¬": 3491,
      "à¤ķà¤°à¤ª": 3492,
      "à¤°à¤Ĺà¤°": 3493,
      "à¥Ĥ)": 3494,
      "Ġà¥®à¥«": 3495,
      "à¤°à¤ªà¤¡": 3496,
      "65": 3497,
      "Ġà¤¤à¤Ĺ": 3498,
      "à¤ŀà¤¤": 3499,
      "à¤¤à¤®à¤ľ": 3500,
      "Ġ78": 3501,
      "ine": 3502,
      "à¥ĭ\"": 3503,
      "Ġà¤īà¤®à¤Łà¤¤": 3504,
      "Ġà¤ķà¤Łà¤ķ": 3505,
      "Ġà¤īà¤§à¤³": 3506,
      "Ġà¤ıà¤ħà¤°à¤Ł": 3507,
      "Ġà¤ĸà¤Ĺ": 3508,
      "à¤¯à¤®à¤¯": 3509,
      "Ġ77": 3510,
      "Ġà¤Ŀà¤¡à¤ª": 3511,
      "ĠZ": 3512,
      "à¤¯à¤§": 3513,
      "à¤ķà¤¯": 3514,
      "à¤Łà¤¡": 3515,
      "Ġà¤łà¤ªà¤ķ": 3516,
      "à¤²à¤¬à¤°": 3517,
      "Ġà¤¸à¤¶à¤¸": 3518,
      "à¤µà¤µà¤¤": 3519,
      "à¤¯à¤²à¤²": 3520,
      "Ġà¥«à¥Ń": 3521,
      "Ġà¤Ĺà¤¨": 3522,
      "à¤ĳà¤ķ": 3523,
      "Ġà¤ĩà¤ļà¤²à¤ķà¤°": 3524,
      "Ġà¤ħà¤ªà¤¤": 3525,
      "à¤¯à¤¤à¤ķ": 3526,
      "Ġà¤ļà¤¢à¤µ": 3527,
      "Ġà¤ıà¤®à¤¬": 3528,
      "à¤®à¤¸à¤Ń": 3529,
      "à¥¨à¥®": 3530,
      "Ġà¥«à¥®": 3531,
      "Ġà¤¹à¤°à¤¯": 3532,
      "à¤ıà¤¸à¤ıà¤¨": 3533,
      "Ġà¤ľà¤¨à¤°": 3534,
      "à¤ıà¤¸à¤ıà¤®à¤Ł": 3535,
      "38": 3536,
      "Ġà¤¨à¤Ĺà¤°à¤®à¤§": 3537,
      "Ġà¤²à¤ł": 3538,
      "Ġà¤ªà¤¹à¤²": 3539,
      "Ġ@": 3540,
      "à¥Ĥ'": 3541,
      "Ġ69": 3542,
      "à¤¨à¤Ĺà¤°à¤®à¤§": 3543,
      "à¤²à¤¬à¤ļ": 3544,
      "à¤Łà¤µà¤¡": 3545,
      "Ġà¥¯à¥¯": 3546,
      "our": 3547,
      "ind": 3548,
      "Ġà¤ķà¤µà¤ļ": 3549,
      "à¤Łà¤ªà¤°": 3550,
      "à¤³à¤Ĺà¤²": 3551,
      "Ġà¤īà¤ªà¤Ń": 3552,
      "Ġ62": 3553,
      "ill": 3554,
      "à¤¯à¤ķà¤¡": 3555,
      "à¤Łà¤¨à¤°": 3556,
      "à¥ħà¤ģ": 3557,
      "ðŁ": 3558,
      "Ġà¤ľà¤²à¤¯": 3559,
      "à¤¤à¤°à¤ķ": 3560,
      "à¤ªà¤°à¤ļ": 3561,
      "à¤ªà¤ķà¤²": 3562,
      "à¥ĭ:": 3563,
      "ĠMore": 3564,
      "à¤°à¤¤à¤°": 3565,
      "Ġà¤¢à¤ķà¤²à¤²": 3566,
      "à¤¸à¤ĺ": 3567,
      "Ġà¥¨à¥¦à¥¦à¥Ń": 3568,
      "ma": 3569,
      "37": 3570,
      "55": 3571,
      "à¤°à¤¶à¤ķ": 3572,
      "Ġà¤ĸà¤Łà¤ķ": 3573,
      "à¤¯à¤ķà¤²à¤µà¤°": 3574,
      "à¤¯à¤«à¤²": 3575,
      "Ġà¤¨à¤¤": 3576,
      "ate": 3577,
      "Ġà¤ļà¤Ł": 3578,
      "Ġà¤¿": 3579,
      "Ġà¥§à¥¦à¥¦à¥¦": 3580,
      "Ġà¤¨à¤°à¤ķ": 3581,
      "Ġà¤ľà¤Ĺà¤ľ": 3582,
      "à¤·à¤ªà¤£": 3583,
      "Ġà¤²à¤ĺà¤µ": 3584,
      "Ġà¤ĵà¤¢à¤£": 3585,
      "à¤Īà¤²à¤®à¤§": 3586,
      "à¤®à¤ķà¤°à¤£": 3587,
      "Ġà¤ĩà¤®à¤°": 3588,
      "à¤²à¤¥": 3589,
      "ĠÐ": 3590,
      "à¤®à¤¨à¤¸": 3591,
      "ai": 3592,
      "Ġ74": 3593,
      "à¤¾).": 3594,
      "Ġ$": 3595,
      "Ġà¤¤à¤¡à¤ķ": 3596,
      "Ġà¤ľà¤¸à¤ª": 3597,
      "Ġà¤īà¤ªà¤ª": 3598,
      "à¤Ĺà¤³à¥Ł": 3599,
      "36": 3600,
      "à¤¨à¤°à¤ļ": 3601,
      "à¤ķà¤°à¤µ": 3602,
      "à¤°à¤«à¤³": 3603,
      "Ġà¤Ĩà¤ķà¤²à¤¨": 3604,
      "à¤¤à¤°à¤²": 3605,
      "Ġà¤ķà¤°à¤¦": 3606,
      "à¤ĺà¤¡à¤£": 3607,
      "à¤¡à¤¨à¤ļ": 3608,
      "Ġà¤ıà¤«à¤Ĩà¤¯": 3609,
      "Ġà¤Ĳà¤¨à¤µ": 3610,
      ",âĢĻ": 3611,
      "à¤£à¤¬à¤¤": 3612,
      "Ġà¤īà¤ĺà¤¡à¤ªà¤£": 3613,
      "Ġà¤ķà¤®à¤µ": 3614,
      "à¤¦à¤ķà¤°": 3615,
      "à¤ľà¤¯à¤¨": 3616,
      "à¤Ĺà¤²à¤¨": 3617,
      "à¤ĵà¤°à¤¡": 3618,
      "Ġà¤Ĳà¤°à¤£": 3619,
      "Ġà¤ªà¤°à¤ª": 3620,
      "à¤ļà¤ªà¤¦": 3621,
      "ĠInd": 3622,
      "à¤µà¤ĸ": 3623,
      "Ġà¤īà¤¡à¤µà¤£": 3624,
      "à¤¡à¤°à¤µà¤°": 3625,
      "à¤§à¤µà¤°": 3626,
      "Ġà¤Ĭà¤¨": 3627,
      "Ġà¤¸à¤Ĺà¤³à¥Ł": 3628,
      "Ġà¤¬à¤¨à¤¸": 3629,
      "à¥Ńà¥¦": 3630,
      "Ġà¤ĩà¤¸à¤ķ": 3631,
      "à¤³à¤ªà¤°": 3632,
      "à¤Łà¤¶": 3633,
      "Ġà¥«à¥©": 3634,
      "Ġà¤ªà¤¸à¤°à¤µ": 3635,
      "à¤²à¤¸à¤°": 3636,
      "Ġà¤Ŀà¤³à¤ķà¤²": 3637,
      "à¤¹à¤°à¤®à¤§": 3638,
      "à¤ľà¤ªà¤µ": 3639,
      "Ġ2006": 3640,
      "ï¿½ï¿½ï¿½": 3641,
      "Ġ700": 3642,
      "Ġ76": 3643,
      "all": 3644,
      "Ġto": 3645,
      "à¤°à¤Łà¥Ł": 3646,
      "à¤¹à¤¢": 3647,
      "Ġà¤®à¤Łà¤£": 3648,
      "à¤ķà¤²à¤ķ": 3649,
      "à¤Łà¤Ńà¤°": 3650,
      "Ġ88": 3651,
      "Ġà¤¬à¤ķà¤°": 3652,
      "à¤ķà¤«": 3653,
      "Ġà¤Ĺà¤ł": 3654,
      "à¤Ĩà¤¯à¤²": 3655,
      "à¥ŀ": 3656,
      "à¤Ńà¤°à¤¤": 3657,
      "à¤°à¤ľà¤¨à¤¨": 3658,
      "ex": 3659,
      "Ġà¤Ĩà¤¡à¤¨": 3660,
      "à¤µà¤³à¤²": 3661,
      "à¤®à¤ļà¤°": 3662,
      "à¤µà¤°à¤£à¤ª": 3663,
      "à¤Łà¤ħà¤ª": 3664,
      "à¤Ŀà¤¡": 3665,
      "à¤³à¤Ĺà¤¤": 3666,
      "à¤¯à¤±": 3667,
      "Ġà¤¤à¤Ł": 3668,
      "Ġ84": 3669,
      "à¤²à¤¨à¤ķà¤°": 3670,
      "31": 3671,
      "Ġ98": 3672,
      "Ġà¤ļà¤¡": 3673,
      "Ġà¤Ńà¤°à¤ĺ": 3674,
      "Ġà¤ıà¤®à¤Ĩà¤¯à¤ıà¤®à¤ļ": 3675,
      "à¤¨à¤Ĺà¤¡": 3676,
      "Ġà¤Ĺà¤Ŀà¤²": 3677,
      "à¤ĤâĢ¦": 3678,
      "Ġà¤¦à¤¡à¤²": 3679,
      "2018": 3680,
      "Ã·": 3681,
      "à¤®à¤ľà¤²": 3682,
      "à¤ľà¤«": 3683,
      "Ġà¥¬à¥¬": 3684,
      "à¤Īà¤ªà¤²": 3685,
      "Ġà¤įà¤£": 3686,
      "Ġà¤¬à¤¢": 3687,
      "Ġà¤Ĩà¤ļà¤°": 3688,
      "à¤¥à¤ªà¤£": 3689,
      "à¤¾(": 3690,
      "à¤¸à¤²à¤Ĺ": 3691,
      "Ġà¤¤à¤Ĺà¤¡": 3692,
      "Ġà¥¨à¥¦à¥¦à¥«": 3693,
      "Ġà¥¨à¥¦à¥¦à¥ª": 3694,
      "Ġà¤¸à¤¨à¤¦": 3695,
      "à¤ıà¤¸à¤ª": 3696,
      "Ġà¤īà¤¤à¤°à¤µà¤£": 3697,
      "à¤²à¤Ĺà¤¤à¤ļ": 3698,
      "à¤Łà¤ķà¤¡": 3699,
      "Ġà¤ħà¤²à¤Ĺ": 3700,
      "à¤Ĩà¤¶": 3701,
      "ct": 3702,
      "Ġà¤Ĺà¤®à¤¤": 3703,
      "à¤Ĩà¤¯à¤ı": 3704,
      "ont": 3705,
      "à¤°à¤³à¤ļ": 3706,
      "ĠPune": 3707,
      "ive": 3708,
      "Ġà¤ľà¤¯à¤ķ": 3709,
      "à¤ıà¤¸à¤Ī": 3710,
      "Ġà¤¸à¤°à¤¤": 3711,
      "Ġà¤ıà¤®à¤ª": 3712,
      "à¤¹à¤¨à¤§": 3713,
      "ast": 3714,
      "à¤Łà¤ķà¤®à¤§": 3715,
      "Ġà¤ªà¤¤à¤¸": 3716,
      "à¤Łà¤£à¤ķà¤°": 3717,
      "Ġà¤ĸà¤²à¤¨": 3718,
      "à¤®à¤ķà¤¤": 3719,
      "à¤¶à¤¨à¤¶": 3720,
      "Ġthe": 3721,
      "à¤ªà¤¤à¤°": 3722,
      "à¤¯à¤ªà¤°": 3723,
      "Ġà¤Ĩà¤¢à¤³à¤£": 3724,
      "à¥Ģà¤¼": 3725,
      "Ġà¤¤à¤«": 3726,
      "Ġà¤ħà¤¥à¤ķ": 3727,
      "Ġà¤§à¤¡à¤ķà¤²": 3728,
      "Ġà¤¸à¤¹à¤ľà¤¤": 3729,
      "ough": 3730,
      "à¤Ĩà¤¦": 3731,
      "Ġà¥¬à¥¦à¥¦": 3732,
      "Ġà¤¬à¤¬à¤¨": 3733,
      "Ġà¤Ĺà¤Łà¤µ": 3734,
      "à¤£à¤°": 3735,
      "à¤łà¤ªà¤£": 3736,
      "Ġà¤ľà¤¯à¤µ": 3737,
      "à¤¶à¤¹à¤°": 3738,
      "Ġà¤ľà¤¯à¤ĺ": 3739,
      "Ġà¥¬à¥Ń": 3740,
      "à¤·à¤¹": 3741,
      "Ġà¤ıà¤¨à¤¸": 3742,
      "Ġ08": 3743,
      "Ġ180": 3744,
      "ard": 3745,
      "49": 3746,
      "à¤ıà¤Ĺ": 3747,
      "Ġà¥¯à¥«": 3748,
      "à¤ªà¤ķà¤¤": 3749,
      "Ġà¤ķà¤°à¤¡": 3750,
      "Ġà¤īà¤¡à¤£": 3751,
      "à¤°à¤Ĺà¤²": 3752,
      "à¥¨à¥¯": 3753,
      "Ġà¤ĩà¤¤à¤°à¤¤": 3754,
      "Ġ86": 3755,
      "ort": 3756,
      "Ġ01": 3757,
      "à¤¨à¤Ńà¤°à¤ª": 3758,
      "Ġà¥§à¥¯à¥©": 3759,
      "à¤¨à¤«": 3760,
      "ons": 3761,
      "Ġà¥¬à¥©": 3762,
      "à¤¦à¥Ł": 3763,
      "Ġà¤¸à¤¶à¤ķ": 3764,
      "Ġà¥§à¥¨à¥¦": 3765,
      "Ġsp": 3766,
      "Ġà¤īà¤§à¤³à¤£": 3767,
      "à¤¸à¤ªà¤Ł": 3768,
      "à¤ĸà¤°à¤ª": 3769,
      "à¤¡à¤ķà¤ª": 3770,
      "Ġ09": 3771,
      "Ġà¤ľà¤Ĺà¤²": 3772,
      "à¤®à¤ĺ": 3773,
      "à¤ĭ": 3774,
      "à¤¾à¤¼": 3775,
      "Ġà¤®à¤Łà¤¨": 3776,
      "à¤ĳà¤«": 3777,
      "Ġà¤¬à¤¡à¤Ĺ": 3778,
      "Ġ71": 3779,
      "Ġà¤Ĩà¤®à¤Ł": 3780,
      "Ġà¤ħà¤¸à¤®à¤°": 3781,
      "Ġà¤īà¤łà¤¤": 3782,
      "Ġà¤¸à¤«à¤°": 3783,
      "Ġà¤ļà¤Łà¤£": 3784,
      "Ġà¤ıà¤«à¤Ĩà¤°à¤ª": 3785,
      "Ġà¤«à¤£à¤¸": 3786,
      "à¤«à¤¸à¤«": 3787,
      "à¤¬à¤Īà¤ķà¤¡": 3788,
      "Ġà¤¹à¤¸à¤²": 3789,
      "Ġ05": 3790,
      "à¤Īà¤Łà¤ļ": 3791,
      "Ġà¤¤à¤°à¤¤à¤°": 3792,
      "Ġà¤«à¤¤": 3793,
      "à¤Īà¤®à¤§": 3794,
      "à¤®à¤¨à¤Ĺà¤°": 3795,
      "à¤¯à¤¤à¤¨": 3796,
      "Ġà¤ħà¤ĸà¤¤": 3797,
      "Ġà¤ķà¤¡à¤§": 3798,
      "Ġ07": 3799,
      "Ġà¤°à¤¯à¤¤": 3800,
      "à¤¤à¤ķà¤£": 3801,
      "à¤¹à¤ļà¤£": 3802,
      "à¤¸à¤«à¤°": 3803,
      "Ġj": 3804,
      "Ġà¤ľà¤¯à¤²à¤²": 3805,
      "ans": 3806,
      "Ġà¤°à¤¤à¤¨": 3807,
      "Ġà¤ĺà¤¨à¤¤": 3808,
      "Ġà¤ĸà¤¡à¤¤à¤°": 3809,
      "Ġ06": 3810,
      "à¤Ńà¤µà¤µ": 3811,
      "Ġà¤®à¤Łà¤ķ": 3812,
      "Ġà¤µà¤³à¤µà¤£": 3813,
      "Ġx": 3814,
      "à¤°à¤µà¤¯": 3815,
      "Ġà¤īà¤°à¤¤": 3816,
      "à¤°à¤®à¤ļ": 3817,
      "Ġà¤ĸà¤ļà¤²": 3818,
      "Ġà¤Ŀà¤Ĺ": 3819,
      "à¤¯à¤¦à¤°": 3820,
      "Ġà¤ªà¤Ĺà¤¡": 3821,
      "ĠÂ°": 3822,
      "Ġà¥«à¥¯": 3823,
      "Ġy": 3824,
      "à¥īà¤ģ": 3825,
      "à¤¬à¤Īà¤¹": 3826,
      "à¤¸à¤®à¤¨": 3827,
      "Ġà¤¸à¤¦à¤°à¤ļ": 3828,
      "à¤Ĥ;": 3829,
      "Ġà¤ķà¤µà¤Ł": 3830,
      "Ġà¤ĭà¤£": 3831,
      "à¤ķà¤Ĺ": 3832,
      ">>>>": 3833,
      "48": 3834,
      "à¤ĳà¤¨": 3835,
      "Ġà¥¬à¥®": 3836,
      "Ġà¤¸à¤ľà¤µ": 3837,
      "Ġà¤Ĩà¤Łà¤ª": 3838,
      "Ġà¤ħà¤²à¤°": 3839,
      "Ġà¤°à¤¹à¤¦": 3840,
      "Ġà¤īà¤ªà¤¹": 3841,
      "Ġ),": 3842,
      "Ġà¤¶à¤²": 3843,
      "à¤ļà¤ªà¤£": 3844,
      "à¤¸à¤¨à¤ļ": 3845,
      "Ġà¤ķà¤µà¤¡": 3846,
      "----------------": 3847,
      "Ġà¤¨à¤¥": 3848,
      "Ġà¤įà¤²à¤°": 3849,
      "Ġà¤²à¤Ĺà¤¬à¤Ĺ": 3850,
      "Ġà¤¬à¤¢à¤¤": 3851,
      "Ġà¥¨à¥¦à¥¦à¥¬": 3852,
      "Ġà¤īà¤łà¤µà¤£": 3853,
      "Ġà¤Ĩà¤ľà¤µà¤°à¤ļ": 3854,
      "Ġar": 3855,
      "Ġà¤Ĩà¤ķà¤¸": 3856,
      "à¤µà¤¨à¤ķ": 3857,
      "Ġà¤ªà¤¡à¤Ŀà¤¡": 3858,
      "Ġà¤ĭà¤·à¤Ń": 3859,
      "Ġà¤ķà¤ªà¤®à¤§": 3860,
      "Ġun": 3861,
      "Ġà¤ħà¤ľà¤®": 3862,
      "Ġà¤ħà¤Łà¤²à¤¬": 3863,
      "Ġ61": 3864,
      "Ġ73": 3865,
      "à¤¦à¤ĸ": 3866,
      "Ġà¤²à¤ĸà¤¨à¤Ĭ": 3867,
      "Ġà¤Ĩà¤µà¤¡à¤£": 3868,
      "à¤µà¤¶à¤ķ": 3869,
      "à¤Łà¤Ł": 3870,
      "Ġà¤Ĩà¤¦à¤²": 3871,
      "ĠÂłĠÂłĠÂłĠÂłĠÂłĠÂł": 3872,
      "à¤Ĭà¤³": 3873,
      "Ġà¤µà¤°à¤¤": 3874,
      "à¤°à¤¹à¤ľà¤°": 3875,
      "à¤¹à¤²à¤ªà¤®": 3876,
      "end": 3877,
      "à¤½à¤½": 3878,
      "Ġ%": 3879,
      "ĠÂłĠÂłĠÂłĠÂłĠÂłĠÂłĠÂłĠÂłĠÂłĠÂłĠÂłĠÂłĠÂłĠÂłĠÂłĠÂłĠÂłĠÂłĠÂłĠÂłĠÂłĠÂłĠÂłĠÂłĠÂłĠÂłĠÂłĠÂłĠÂłĠÂłĠÂłĠÂł": 3880,
      "Ġà¤¸à¤¡à¤ķ": 3881,
      "Ġà¤Ĺà¤ľà¤¬": 3882,
      "Ġà¤ĺà¤°à¤Ł": 3883,
      "à¤µà¤°à¤¨": 3884,
      "Ġà¤®à¤§à¤®": 3885,
      "Ġ97": 3886,
      "à¥Ģ(": 3887,
      "à¥Ńà¥«": 3888,
      "Ġà¤ıà¤ħà¤°à¤²": 3889,
      "à¤Īà¤ķà¤ļ": 3890,
      "Ġà¤µà¤³à¤µà¤²": 3891,
      "Ġà¤ľà¤Ĺà¤ª": 3892,
      "Ġth": 3893,
      "à¤°à¤£à¤¹": 3894,
      "à¤ıà¤¶": 3895,
      "à¤Łà¤²à¤°": 3896,
      "Ġà¤¹à¤°à¤Ńà¤°": 3897,
      "Ġsh": 3898,
      "Ġà¤īà¤ľà¤³": 3899,
      "Ġ96": 3900,
      "Ġà¥®à¥¦à¥¦": 3901,
      "ideo": 3902,
      "à¤ıà¤¨à¤ª": 3903,
      "à¤Ĩà¤¯à¤ķà¤¡": 3904,
      "Ġà¤ıà¤¸à¤ıà¤®à¤ıà¤¸": 3905,
      "à¥Ĥ:": 3906,
      "Ġà¤¹à¤¬": 3907,
      "Ġà¤¡à¤®": 3908,
      "à¤ľà¤µà¤¡": 3909,
      "à¤µà¤¸à¤®": 3910,
      "à¤¬à¤Īà¤¸": 3911,
      "Ġ04": 3912,
      "Ġ||": 3913,
      "à¤¤à¤Ł": 3914,
      "à¤¤à¤ªà¤¦": 3915,
      "à¤ªà¤°à¤®": 3916,
      "à¤¯à¤Ŀà¤°": 3917,
      "Ġdough": 3918,
      "Ġà¤Ĩà¤®à¤¨": 3919,
      "à¤Łà¤°à¤Ł": 3920,
      "ost": 3921,
      "Ġi": 3922,
      "Ġà¤ĵà¤ª": 3923,
      "Ġà¤ħà¤¡à¤µà¤²": 3924,
      "à¥įà¤Ĥ": 3925,
      "Ġà¤¬à¤¸à¤¨": 3926,
      "Ġà¤įà¤®": 3927,
      "Ġà¤ľà¤³à¤ľ": 3928,
      "Ġà¤ıà¤¨à¤ª": 3929,
      "Ġà¤¹à¤²à¤Ĺà¤°": 3930,
      "Ġà¤ľà¤¨à¤¨": 3931,
      "Ġà¥¯à¥®": 3932,
      "Ġ1999": 3933,
      "à¤°à¤µà¤ļà¤¨": 3934,
      "à¥¨à¥¦à¥¦": 3935,
      "Ġ350": 3936,
      "500": 3937,
      "à¤°à¤µà¤ªà¤¦": 3938,
      "à¤¾\",": 3939,
      "à¤¯à¤®à¤®à¤§": 3940,
      "Ġà¤ķà¤°à¤®à¤£": 3941,
      "à¤¯à¤ļà¤ķ": 3942,
      "Ġà¤Ĺà¤¤à¤µ": 3943,
      "à¤ªà¤¨à¤¦": 3944,
      "Ġà¥Ńà¥©": 3945,
      "à¤¤à¤¬à¤¦": 3946,
      "Ġà¤¹à¤¡à¤ªà¤¸à¤°": 3947,
      "Ġ87": 3948,
      "05": 3949,
      "Ġà¤¹à¤°à¤£": 3950,
      "Ġà¤ħà¤²à¤ķ": 3951,
      "Ġher": 3952,
      "Ġà¤ľà¤¨à¤Ĺà¤£à¤¨": 3953,
      "Ġà¥Ńà¥®": 3954,
      "à¤µà¤§à¤Ĺ": 3955,
      "Ġà¤Ńà¤¸": 3956,
      "à¤°à¤®à¤¦": 3957,
      "Ġà¤¸à¤µà¤°": 3958,
      "à¤ħà¤¸à¤²": 3959,
      "à¤¦à¤µà¤¤": 3960,
      "ce": 3961,
      "à¤ıà¤¨à¤ı": 3962,
      "Ġà¤¹à¤¤à¤¬à¤²": 3963,
      "Ġà¤ķà¤³à¤µà¤£": 3964,
      "à¤¥à¤¡": 3965,
      "à¤·à¤¯à¤°": 3966,
      "à¤°à¤°à¤ķ": 3967,
      "à¤ļà¤°à¤ļ": 3968,
      "ĠNews": 3969,
      "à¤¯à¤²à¤°": 3970,
      "Ġà¤°à¤£à¤§": 3971,
      "à¤¸à¤¨à¤¨": 3972,
      "Ġà¤ķà¤µà¤ł": 3973,
      "à¥¯à¥¦": 3974,
      "Ġà¤īà¤ķà¤³": 3975,
      "ell": 3976,
      "Ġà¤¬à¤¹à¤°": 3977,
      "Ġà¤ªà¤Łà¤µà¤°": 3978,
      "Ġ125": 3979,
      "Ġà¤īà¤¦à¤°à¤¨": 3980,
      "à¤¹à¤ļà¤µ": 3981,
      "à¤¸à¤Ńà¤°": 3982,
      "Ġà¤ħà¤¡à¤µà¤£": 3983,
      "Ġà¤īà¤«": 3984,
      "Ġà¤Ńà¤Ĺà¤¤à¤¸": 3985,
      "ka": 3986,
      "Ġà¤īà¤łà¤£": 3987,
      "Ġà¤¬à¤¸à¤µà¤°": 3988,
      "Ġà¤ļà¤£": 3989,
      "Ġà¤Ķà¤¤": 3990,
      "Ġà¥Ńà¥Ń": 3991,
      "Ġ89": 3992,
      "à¤ļà¤ªà¤°": 3993,
      "à¤ıà¤¸à¤ı": 3994,
      "'.": 3995,
      "??": 3996,
      "Ġà¤ħà¤¸à¤¦": 3997,
      "Ġand": 3998,
      "à¤µà¤Ĺà¤£": 3999,
      "à¤¬à¤°à¤µà¤°": 4000,
      "à¤²à¤Ŀ": 4001,
      "à¤īà¤Ł": 4002,
      "Ġà¤īà¤¬": 4003,
      "à¤¥à¤µà¤°": 4004,
      "à¤§à¤°à¤£": 4005,
      "Ġà¤ľà¤³à¤ľà¤³": 4006,
      "eb": 4007,
      "ity": 4008,
      "Ġà¤²à¤ľ": 4009,
      "Ġ03": 4010,
      "Ġà¤ĺà¤¨à¤ķ": 4011,
      "ins": 4012,
      "à¤ĵà¤ķ": 4013,
      "à¤ľà¤ķà¤¤": 4014,
      "à¤³à¤°": 4015,
      "à¤¯à¤°à¤¨": 4016,
      "à¤¯à¤²à¤ļ": 4017,
      "ĠSt": 4018,
      "Ġà¤ªà¤¸à¤°à¤µà¤£": 4019,
      "Ġà¤¸à¤ķà¤¤": 4020,
      "Ġà¤Ĩà¤ªà¤ķ": 4021,
      "Ġà¥¬à¥¨": 4022,
      "Ġ79": 4023,
      "à¤¶à¤¨à¤¹": 4024,
      "========": 4025,
      "à¤¡à¤ªà¤Ł": 4026,
      "Ġà¤ħà¤ĺ": 4027,
      "à¤³à¤¹": 4028,
      "à¤ķà¤¸à¤¤": 4029,
      "ries": 4030,
      "à¤¯à¤¯à¤¨": 4031,
      "à¤ĳà¤°": 4032,
      "Ġà¤°à¤®à¤£": 4033,
      "à¤¤à¤°à¤®": 4034,
      "ĉĊ": 4035,
      "Ġà¤¦à¤¡à¤ª": 4036,
      "à¤Łà¤ķà¤±": 4037,
      "Ġà¤īà¤¨à¤ķ": 4038,
      "Ġà¤¬à¤±à¤¯": 4039,
      "Ġà¤ıà¤¨à¤°": 4040,
      "Ġà¤Ĩà¤ļà¤°à¤£": 4041,
      "Ġà¤¦à¤ª": 4042,
      "à¤ıà¤¤à¤¨": 4043,
      "Ġà¤ıà¤«à¤Ĩà¤¯à¤Ĩà¤°": 4044,
      "à¤·à¤ķà¤ªà¤¦": 4045,
      "44": 4046,
      "à¤³à¤Ń": 4047,
      "Ġà¥Ńà¥¦à¥¦": 4048,
      "à¤Ĺà¤¤à¤ª": 4049,
      "ss": 4050,
      "Ġà¤®à¤¤à¤ª": 4051,
      "Ġex": 4052,
      "Â»": 4053,
      "Ġ>>>": 4054,
      "à¤Ĩà¤Ĭà¤Ł": 4055,
      "à¤ĸà¤ªà¤£": 4056,
      "à¤Ĭà¤¥": 4057,
      "Ġà¤¬à¤¬à¤¨à¤°": 4058,
      "Ġà¤ıà¤¸à¤Ĩà¤¯à¤Ł": 4059,
      "Ġà¤¸à¤®à¤¯": 4060,
      "Ġà¤§à¤¸": 4061,
      "ĠIndia": 4062,
      "Ġà¤¹à¤°à¤Ńà¤ľà¤¨": 4063,
      "à¤¯à¤Łà¤¨à¤¸": 4064,
      "à¤µà¤ªà¤¦": 4065,
      "à¤¬à¤Īà¤µà¤°": 4066,
      "à¤ıà¤ª": 4067,
      "ats": 4068,
      "à¤¨à¤µà¤ľ": 4069,
      "à¤ľà¤ķà¤¡": 4070,
      "Ġà¤ħà¤ªà¤¹": 4071,
      "Ġà¤ĩà¤¨à¤ķ": 4072,
      "à¤²à¤ķà¤¡": 4073,
      "umb": 4074,
      "Ġ2002": 4075,
      "à¤Ĺà¤Ĺ": 4076,
      "à¤Łà¤°à¤µ": 4077,
      "à¥Ģà¤Ĥ,": 4078,
      "Ġà¤īà¤Ĺà¤®": 4079,
      "à¤µà¤·": 4080,
      "à¤¦à¤µà¤¨": 4081,
      "à¤Īà¤¦": 4082,
      "à¤¤à¤°à¤ľ": 4083,
      "Ġà¤ıà¤ķà¤¬": 4084,
      "à¤¨à¤¤à¤®": 4085,
      "Ġ2003": 4086,
      "Ġà¤ľà¤¨à¤®": 4087,
      "Ġà¤«à¤°à¤¶": 4088,
      "Ġà¤¹à¤³à¤¹à¤³": 4089,
      "à¥ĩ(": 4090,
      "à¤µà¤ĸà¤°": 4091,
      "47": 4092,
      "à¤ļà¤µà¤Ł": 4093,
      "Ġà¤ıà¤«à¤¡": 4094,
      "à¤§à¤¹": 4095,
      "à¤·à¤°à¤¤": 4096,
      "à¤ĸà¤ª": 4097,
      "Ġà¤±": 4098,
      "à¤¤à¤¨à¤µ": 4099,
      "à¤¤à¤ľà¤®": 4100,
      "Ġà¤Ĩà¤¯à¤ı": 4101,
      "Ġà¤µà¤£à¤µ": 4102,
      "Ġà¤¤à¤¬à¤²": 4103,
      "à¥Ģ',": 4104,
      "Ġ110": 4105,
      "à¤¤à¤ķà¤²": 4106,
      "Ġà¥Ńà¥ª": 4107,
      "à¤µà¤¸à¤ķà¤°": 4108,
      "Ġà¤īà¤¸à¤³": 4109,
      "Ġà¤ıà¤ħà¤°à¤µ": 4110,
      "à¤¤à¤¤à¤§": 4111,
      "Ġà¤ĵà¤¤à¤²": 4112,
      "Ġà¤ħà¤Łà¤ķà¤ª": 4113,
      "à¤Łà¤µà¤²": 4114,
      "à¤µà¤Ľà¤¤": 4115,
      "à¤¦à¤²à¤¹": 4116,
      "à¤¾',": 4117,
      "Ġ\"\"": 4118,
      "à¤°à¤¨à¤Ĺà¤°": 4119,
      "à¥ĩà¥į": 4120,
      "à¤ļà¤°à¤£": 4121,
      "Ġ02": 4122,
      "100": 4123,
      ":-": 4124,
      "à¤ĳà¤¸": 4125,
      "à¥ĭâĢ¦": 4126,
      "à¤µà¤³à¤¤": 4127,
      "à¤¬à¤ľ": 4128,
      "à¤·à¤£à¤Ńà¤°": 4129,
      "ry": 4130,
      "Ð¾": 4131,
      "à¤¹à¤ķà¤°": 4132,
      "Ġà¤ħà¤Łà¤²à¤ľ": 4133,
      "Ġà¤ķà¤±à¤£": 4134,
      "à¤¢à¤±": 4135,
      "à¤°à¤³à¤ķ": 4136,
      "Ġà¥¬à¥¯": 4137,
      "à¤°à¤ķà¤±": 4138,
      "à¥©à¥ª": 4139,
      "Ġà¤Ĩà¤¤à¤®à¤§": 4140,
      "à¤Łà¤²à¤®": 4141,
      "à¤ľà¤Ńà¤µà¤¨": 4142,
      "Ġ92": 4143,
      "à¤¯à¤ĸà¤³": 4144,
      "à¤¹à¤°à¤¨": 4145,
      "Ġà¥§à¥¯à¥¯à¥¯": 4146,
      "Ġis": 4147,
      "Ġà¤¨à¤¬": 4148,
      "Ġà¤°à¤ļà¤£": 4149,
      "à¤ħà¤ļ": 4150,
      "Ġà¤ħà¤ķà¤²": 4151,
      "Ġï¿½ï¿½ï¿½ï¿½": 4152,
      "Ġà¤¥à¤Ł": 4153,
      "à¤Ĩà¤Ĺ": 4154,
      "Ġà¤Ľà¤¡": 4155,
      "eg": 4156,
      "à¤łà¤¸": 4157,
      "ea": 4158,
      "Ġmore": 4159,
      "à¥Ĥ\"": 4160,
      "Ġà¤ªà¤¸à¤°à¤£": 4161,
      "à¤Łà¥Łà¤µà¤§": 4162,
      "ĠIP": 4163,
      "à¥įà¤¾": 4164,
      "à¤Ĥà¤Ĥ": 4165,
      "Ġà¤¹à¤°à¤ª": 4166,
      "Ġà¤¡à¤ļ": 4167,
      "à¤¡à¤³à¤ķà¤°": 4168,
      "Ġà¥®à¥ª": 4169,
      "Ġà¤ĵà¤¹": 4170,
      "Ġà¤ĵà¤¢à¤µà¤²": 4171,
      "ous": 4172,
      "à¤ıà¤¸à¤¬": 4173,
      "à¤¹à¤ļà¤¤": 4174,
      "Ġ94": 4175,
      "Ġà¤ĺà¤¨à¤ķà¤ļà¤°": 4176,
      "77": 4177,
      "Ġà¤Ĺà¤¡à¤¹": 4178,
      "Ġà¤ľà¤¨à¤ķ": 4179,
      "à¤¬à¤°à¤ł": 4180,
      "Ġà¤ıà¤®à¤Ł": 4181,
      "Ġà¥Ńà¥¬": 4182,
      "Ġ82": 4183,
      "Ġà¤µà¤°à¤µà¤°": 4184,
      "Ġà¤¹à¤¸à¤£": 4185,
      "à¤°à¤ķà¤£": 4186,
      "ÃŃ": 4187,
      "ome": 4188,
      "Ġà¤®à¤£à¤ķ": 4189,
      "++": 4190,
      "à¤·à¤£à¤¹": 4191,
      "à¤ĳà¤ªà¤°": 4192,
      "az": 4193,
      "à¤¤à¤¤à¤³": 4194,
      "à¤°à¤¤à¤ļ": 4195,
      "Ġà¤īà¤§à¤³à¤²": 4196,
      "Ġà¤Ńà¤ľ": 4197,
      "à¤Ĺà¤¤à¤ľ": 4198,
      "Ġà¤Ńà¤¦": 4199,
      "Ġà¤ªà¤¦à¤ªà¤¥": 4200,
      "Ġà¤Ļ": 4201,
      "à¤Ĩà¤¯à¤µ": 4202,
      "à¥©à¥©": 4203,
      "Ġà¤®à¤²à¤ķ": 4204,
      "à¤¬à¤¶": 4205,
      "Ġà¤¸à¤Īà¤¦": 4206,
      "à¤¨à¤¬à¤°": 4207,
      "********": 4208,
      "à¤§à¤¤à¤¶": 4209,
      "à¤Łà¤°à¤«": 4210,
      "à¤¬à¤¦à¤¬": 4211,
      "88": 4212,
      "Ġà¤ħà¤¨à¤°": 4213,
      "ass": 4214,
      "à¤®à¤¡": 4215,
      "Ġ81": 4216,
      "à¤¼à¥Ģ": 4217,
      "à¤¦à¤ķà¤¤": 4218,
      "Ġà¤¸à¤ľà¤µà¤£": 4219,
      "à¤°à¤£à¤¤à¤¯": 4220,
      "Ġà¤¨à¤Ĺà¤°à¤ļ": 4221,
      "Ġà¤¶à¤¹à¤°à¤µ": 4222,
      "à¤ļà¤µà¤¡à¤®à¤§": 4223,
      "Ġà¤Ĩà¤Ĭ": 4224,
      "à¤Ńà¤Ĺ": 4225,
      "ey": 4226,
      "à¤Ńà¤°à¤£": 4227,
      "à¤ĸà¤¬à¤°": 4228,
      "Ġà¤®à¤¹à¤°": 4229,
      "à¤Ĩà¤¯à¤ıà¤¸": 4230,
      "à¤²à¤ĺ": 4231,
      "Ġà¤¦à¤¬à¤¦à¤¬": 4232,
      "à¤¬à¤Īà¤¨": 4233,
      "Ġà¤ķà¤«": 4234,
      "à¤Ĺà¤¤à¤¤": 4235,
      "à¤ľà¤ĺà¤°": 4236,
      "ug": 4237,
      ".)": 4238,
      "Ġà¤īà¤®à¤Łà¤µà¤²": 4239,
      "à¤Łà¤µà¤£": 4240,
      "Ġà¤²à¤ĸ": 4241,
      "Ġà¤ıà¤®à¤Ĩà¤¯à¤ıà¤®": 4242,
      "à¥©à¥¨": 4243,
      "à¥¬à¥«": 4244,
      "ÂłÂłĠ": 4245,
      "pp": 4246,
      "à¤¨à¤Īà¤ļ": 4247,
      "à¤Ĩà¤µ": 4248,
      "Ġà¤«à¤³à¤¬": 4249,
      "________": 4250,
      "à¤Īà¤ķà¤°": 4251,
      "à¤ĵà¤µà¤°": 4252,
      "à¤®à¤¯à¤¤": 4253,
      "à¤²à¤®à¤¡à¤²": 4254,
      "Ġà¤¸à¤ªà¤¨": 4255,
      "à¤Łà¤ķà¤ķ": 4256,
      "à¤£à¤µà¤°": 4257,
      "Ġà¤ĩà¤Ĺà¤¤à¤ª": 4258,
      "à¤¨à¤²à¤ļ": 4259,
      "Ġà¥§à¥¨à¥«": 4260,
      "à¤ķà¤Łà¤²": 4261,
      "à¤µà¤°à¤¸": 4262,
      "Ġà¥Ńà¥§": 4263,
      "Ġà¤ıà¤®à¤ıà¤¸": 4264,
      "Ġ).": 4265,
      "Ġà¤ľà¤łà¤°": 4266,
      "à¤£à¤ľ": 4267,
      "à¤¦à¤µà¤¡": 4268,
      "Ġà¤¦à¤«": 4269,
      "à¤®à¤°à¤¸": 4270,
      "à¤ĺà¤¡à¤¤": 4271,
      "à¤Ĺà¤¢": 4272,
      "Ġà¤¹à¤°à¤®": 4273,
      "à¤°à¤µà¤³": 4274,
      "Ġà¤ħà¤®à¤°à¤¨": 4275,
      "à¤ķà¤Ń": 4276,
      "à¤¶à¤µà¤°": 4277,
      "Ġà¤ıà¤®à¤¸": 4278,
      "à¤ĩà¤¨à¤ļ": 4279,
      "Ġà¤ľà¤¯à¤°": 4280,
      "à¤Ĥ...": 4281,
      "à¤Ĥ'": 4282,
      "Ġà¤¸à¤®à¤Ŀ": 4283,
      "Ġ83": 4284,
      "Full": 4285,
      "Ġà¥®à¥®": 4286,
      "Ġà¤¹à¤²à¤µà¤²": 4287,
      "Ġà¤¦à¤³à¤£à¤µà¤³à¤£": 4288,
      "Ġà¤Ĩà¤¦à¤³à¤²": 4289,
      "à¤¯à¤¤à¤¦": 4290,
      "à¤¨à¤°à¤²": 4291,
      "Ġà¤®à¤¥": 4292,
      "Ġà¤ľà¤®à¤£": 4293,
      "à¤¸à¤¦à¤¸": 4294,
      "à¥Ģ\",": 4295,
      "à¤¨à¤Ĭ": 4296,
      "à¤¡à¤ªà¤¤": 4297,
      "Ġà¤µà¤¯à¤¸": 4298,
      "Ġà¤Ĩà¤łà¤µà¤¡à¤¯": 4299,
      "ars": 4300,
      "à¤°à¤ł": 4301,
      "Ġà¤®à¤Ĺà¤ļ": 4302,
      "à¤°à¤¤à¤µ": 4303,
      "ph": 4304,
      "à¤®à¤ªà¤°": 4305,
      "Ġà¥¨à¥¦à¥¦à¥¨": 4306,
      "Ġà¤ıà¤¸à¤ª": 4307,
      "à¤¥à¤¤à¤ľ": 4308,
      "Ġ2001": 4309,
      "à¤²à¤°à¤®à¤§": 4310,
      "Ġà¤ªà¤°à¤ľ": 4311,
      "Ġà¤®à¤³à¤®à¤³": 4312,
      "Ġon": 4313,
      "Ġà¤ľà¤ªà¤¤": 4314,
      "ĠÂ«": 4315,
      "Ġà¤Ĩà¤ľà¤°": 4316,
      "à¤Ĺà¤³à¤¸": 4317,
      "ber": 4318,
      "à¤¬à¤±": 4319,
      "Ġà¤ªà¤°à¤µà¤¡à¤¤": 4320,
      "Ġà¤īà¤¦à¤ĺ": 4321,
      "Ġà¤®à¤¦à¤¤à¤¨": 4322,
      "Ġ93": 4323,
      "Ġà¤Ĺà¤Ī": 4324,
      "à¤¤à¤ķà¤®": 4325,
      "à¤¸à¤ªà¤°": 4326,
      "à¤µà¤°à¤®à¤§": 4327,
      "à¤°à¤¦à¤ķ": 4328,
      "Ġà¤ľà¤³à¤¤": 4329,
      "Ġ130": 4330,
      "art": 4331,
      "à¤°à¤ķà¤¨": 4332,
      "à¤¸à¤®à¤°": 4333,
      "à¥«à¥«": 4334,
      "à¤°à¤¸à¤¦": 4335,
      "Ġà¤Ĩà¤¯à¤¬": 4336,
      "à¤Ĺà¤Ŀ": 4337,
      "Ġà¤ªà¤Łà¤¨": 4338,
      "à¤ħà¤°à¤¬": 4339,
      "Ġà¤Ĩà¤ĩà¤¸": 4340,
      "à¤Īà¤ıà¤®": 4341,
      "Ġà¤īà¤Ńà¤¯": 4342,
      "ĠIn": 4343,
      "à¤§à¤Ĺ": 4344,
      "à¤°à¤Ńà¤ķ": 4345,
      "à¥ĪâĢĻ": 4346,
      "Ġà¤ħà¤¡à¤ķà¤£": 4347,
      "95": 4348,
      "Ġà¤ĸà¤¡à¤ķà¤µ": 4349,
      "à¤°à¤°à¤¥": 4350,
      "Ġà¤ĺà¤¡à¤µà¤¤": 4351,
      "Ġà¤ªà¤ķà¤¡à¤¤": 4352,
      "à¤ıà¤ļà¤¡": 4353,
      "à¤§à¤¨à¤¸": 4354,
      "à¤Ĺà¤¨à¤®à¤¤": 4355,
      "à¤ªà¤³à¤Ĺ": 4356,
      "à¤¹à¤µà¤°": 4357,
      "à¤ĸà¤¹": 4358,
      "Ġà¤ªà¤Łà¤£": 4359,
      "à¤¡à¤§": 4360,
      "à¤¡à¤ķà¤ªà¤®à¤§": 4361,
      "46": 4362,
      "Ġà¤ĵà¤¶": 4363,
      "Ġà¤ĳà¤Īà¤²": 4364,
      "à¤®à¤ķà¤¥": 4365,
      "Ġ91": 4366,
      "Ġà¤łà¤£à¤ķ": 4367,
      "Ġà¤ħà¤µà¤¨": 4368,
      "Ġà¥®à¥¬": 4369,
      "Ġà¤Ĩà¤¯à¤ķ": 4370,
      "85": 4371,
      "Ġà¥§à¥¯à¥¯à¥¦": 4372,
      "à¤Ĥ..": 4373,
      "à¤ľà¤ªà¤¶": 4374,
      "BI": 4375,
      "Ġà¥§à¥¯à¥¦": 4376,
      "Ġà¤ĵà¤¸à¤°à¤²": 4377,
      "Ġà¥¬à¥§": 4378,
      "Ġà¤ıà¤ħà¤°à¤ª": 4379,
      "Ġ<<": 4380,
      "à¤°à¤¤à¤®": 4381,
      "Ġà¤Ĭà¤¤": 4382,
      "ack": 4383,
      "à¤¢à¤³": 4384,
      "Ġà¤ħà¤¨à¤²": 4385,
      "Ġà¤īà¤ķà¤²": 4386,
      "à¤ħà¤µ": 4387,
      "ĠMarathi": 4388,
      "à¤¸à¤¤à¤°": 4389,
      "2019": 4390,
      "à¤¤à¤ĸ": 4391,
      "à¤¡à¤°à¤¸": 4392,
      "Ġà¤Ŀà¤¡à¤¤": 4393,
      "Ġà¤Ńà¤°à¤®à¤¸": 4394,
      "à¤ķà¤¸à¤¨": 4395,
      "à¤¦à¤¡": 4396,
      "Ġà¤®à¤¡à¤ķ": 4397,
      "à¤µà¤£à¤ķ": 4398,
      "Ġà¤¬à¤Łà¤¨": 4399,
      "à¤¸à¤°à¤®à¤§": 4400,
      "à¥Ģ)-": 4401,
      "à¥ĩ',": 4402,
      "à¤¨à¤Ńà¤µà¤¨": 4403,
      "Ġà¤¦à¤¡": 4404,
      "Ġà¤īà¤Łà¤£": 4405,
      "Ġà¤®à¤®": 4406,
      "ef": 4407,
      "à¤ļà¤ĸ": 4408,
      "à¤ľà¤ķà¤²": 4409,
      "à¤²à¤ªà¤¤": 4410,
      "ted": 4411,
      "Ġà¤ĸà¤ªà¤µ": 4412,
      "à¤¤à¤µà¤°": 4413,
      "à¤ıà¤¸à¤¨": 4414,
      "Ġà¤Ĺà¤Łà¤¬": 4415,
      "à¤Ĭà¤£": 4416,
      "à¤³à¤¬": 4417,
      "Ġà¤Ńà¤¯à¤Ń": 4418,
      "à¥Ĥ!": 4419,
      "Ð°": 4420,
      "Ġà¤¸à¤°à¤ķà¤²": 4421,
      "à¤Ĩà¤¯à¤ıà¤®": 4422,
      "Ġà¤°à¤®à¤ľ": 4423,
      "à¤¹à¤³à¥Ł": 4424,
      "ÂłÂłÂł": 4425,
      "Ġà¥®à¥Ń": 4426,
      "Ġà¥¨à¥¦à¥¦à¥©": 4427,
      "Ġà¤ħà¤µà¤¯à¤µà¤¦": 4428,
      "à¤īà¤°": 4429,
      "Ġà¤ĸà¤¡à¤¬à¤¡": 4430,
      "Ġà¤Ĩà¤¯à¤ıà¤¸": 4431,
      "à¤µà¤¤à¤ļ": 4432,
      "à¥ĭ..": 4433,
      "à¤ªà¤§": 4434,
      "Ġà¥¯à¥¬": 4435,
      "Ġà¤ħà¤«à¤²": 4436,
      "à¤Ĺà¤³à¤¯": 4437,
      "à¤¯à¤Łà¤°": 4438,
      "Ġà¤Ńà¤°à¤µà¤£": 4439,
      "à¤«à¤Ł": 4440,
      "oy": 4441,
      "à¤¨à¤Ĺà¤°à¤ļ": 4442,
      "Ġà¤īà¤¡à¤µà¤¤": 4443,
      "Ġà¤Ĩà¤µà¤³à¤²": 4444,
      "Ġà¤ķà¤Ŀ": 4445,
      "42": 4446,
      "Ġà¤Ŀà¤ķ": 4447,
      "à¤Īà¤¶": 4448,
      "Ġà¤¶à¤¬à¤°": 4449,
      "à¤¯à¤¦à¤²": 4450,
      "Ġà¤īà¤²à¤¥": 4451,
      "Ġà¤Ĩà¤¢à¤³à¤°": 4452,
      "Ġà¤ķà¤³à¤ª": 4453,
      "à¥ĭà¥ĩ": 4454,
      "à¤Łà¤°à¤ķà¤¡": 4455,
      "à¤®à¤¤à¤¦": 4456,
      "Ġà¤¬à¤Ĺà¤²": 4457,
      "à¤²à¤ķà¤Ł": 4458,
      "à¤ħà¤¹": 4459,
      "Ġà¤Ĺà¤¬": 4460,
      "à¤¯à¤®à¤¬": 4461,
      "ens": 4462,
      "Ġà¤Ĩà¤ªà¤ļ": 4463,
      "Ġà¤ĵà¤¢à¤¤": 4464,
      "Ġ1500": 4465,
      "AA": 4466,
      "Ġà¤¦à¤«à¤¨": 4467,
      "Ġà¥®à¥¯": 4468,
      "à¤ıà¤¨à¤¡": 4469,
      "Ġà¤īà¤¸à¤ķ": 4470,
      "à¤īà¤¡": 4471,
      "à¤ķà¤°à¤®à¤§": 4472,
      "Ġà¤Ĩà¤³à¤¶": 4473,
      "Ġà¤ıà¤¨à¤ıà¤¸": 4474,
      "à¤¢à¤µà¤³": 4475,
      "):": 4476,
      "43": 4477,
      "Ġà¤ªà¤¡à¤³à¤ķà¤°": 4478,
      "à¤ıà¤¨à¤¬": 4479,
      "09": 4480,
      "Ġà¤Ĩà¤ľà¤¤": 4481,
      "Ġà¤¸à¤ľà¤²": 4482,
      "Ġà¤¯à¤¤": 4483,
      "08": 4484,
      "Ġà¤Ĩà¤¤à¤·à¤¬": 4485,
      "row": 4486,
      "à¥ĭ...": 4487,
      "Ġà¤Ĩà¤¯à¤²": 4488,
      "ors": 4489,
      "à¤ıà¤¨à¤ıà¤¸": 4490,
      "à¤ĩà¤²à¤ļ": 4491,
      "Ġà¤ļà¤ªà¤²": 4492,
      "à¥©à¥¬": 4493,
      "à¤°à¤®à¤¹": 4494,
      "à¤°à¤«à¤Łà¤ķ": 4495,
      "Ġà¥¯à¥ª": 4496,
      "Ġà¤ıà¤ķà¤µà¤Łà¤²": 4497,
      "Ġà¤¤à¤±": 4498,
      "ĠĠĠĠĠĠĠĠĠĠĠĠĠĠĠĠĠĠĠĠĠĠĠĠĠĠĠĠĠĠĠĠ": 4499,
      "Ġà¤ľà¤®à¤µà¤²": 4500,
      "ÂłÂłĊ": 4501,
      "Ġà¤ħà¤¨à¤®": 4502,
      "à¤ĩà¤¨à¤°": 4503,
      "Ġà¥¯à¥Ń": 4504,
      "Ðµ": 4505,
      "à¤°à¤ĺà¤°": 4506,
      "à¤µà¤ļà¤¨": 4507,
      "à¤ķà¤ħ": 4508,
      "Ġà¤ļà¤ªà¤³": 4509,
      "ÂłĠÂłĠÂłĠÂłĠÂłĠÂłĠÂłĠÂłĠÂł": 4510,
      "à¥Ĥà¤ģ": 4511,
      "Ð¤": 4512,
      "Ġà¤«à¤°à¤¹": 4513,
      "à¤ķà¤ķà¤¡": 4514,
      "Ġà¤ªà¤¦à¤¯": 4515,
      "à¤¦à¤ªà¤£": 4516,
      "Ġà¤¤à¤¦": 4517,
      "Ġà¤ĸà¤µ": 4518,
      "ain": 4519,
      "à¤¸à¤Ĩà¤ĺ": 4520,
      "Ġà¤ªà¤£à¤¨": 4521,
      "Ġà¤¦à¤¶à¤°à¤¥": 4522,
      "ial": 4523,
      "Ġà¤²à¤¬": 4524,
      "Ġà¥¨à¥¦à¥¦à¥§": 4525,
      "à¤ıà¤Łà¤°à¤®à¤§": 4526,
      "à¤¤à¤µà¤µ": 4527,
      "66": 4528,
      "à¤Ĩà¤ªà¤ļ": 4529,
      "à¤¤à¤°à¤¦": 4530,
      ")-": 4531,
      "Ġà¤Łà¤ªà¤°": 4532,
      "à¤°à¤®à¤ª": 4533,
      "à¤¬à¤ķà¤°": 4534,
      "Ġà¤ļà¤Łà¤ķà¤¨": 4535,
      "Ġà¥©à¥«à¥¦": 4536,
      "à¤µà¤¤à¤°": 4537,
      "à¤Ĭà¤¬": 4538,
      "à¤ħà¤°à¤²": 4539,
      "à¤¶à¤µà¤£": 4540,
      "à¥ĩ....": 4541,
      "à¥ĩ,.": 4542,
      "à¤ļà¤Ń": 4543,
      "Ġà¤¬à¤³à¤ľ": 4544,
      "Ġ1990": 4545,
      "Ġ105": 4546,
      "à¤Ľà¤¡": 4547,
      "Ġà¤¨à¤¡": 4548,
      "à¤µà¤¸à¤¹": 4549,
      "ox": 4550,
      "Ġà¤Īà¤¦": 4551,
      "Ġà¤°à¤¡à¤£": 4552,
      "Ġà¤īà¤¥à¤³": 4553,
      "Ġà¤ĺà¤Łà¤¤": 4554,
      "Ġà¤¸à¤ªà¤¶": 4555,
      "Ġà¤Ĭà¤¸à¤¤": 4556,
      "Ġà¤īà¤¦à¤Ĺ": 4557,
      "à¤¹à¤¨à¤¤à¤³": 4558,
      "Ġà¤¸à¤ľà¤µà¤²": 4559,
      "à¤¬à¤²à¤ļ": 4560,
      "à¤¬à¤°à¤¡": 4561,
      "à¤¶à¤ĸà¤¬à¤°": 4562,
      "à¥©à¥Ń": 4563,
      "Ġà¤ħà¤¡à¤¸à¤°": 4564,
      "à¤°à¤£à¤¯": 4565,
      "à¤¯à¤²à¤¯": 4566,
      "Ġà¤¤à¤³à¤µ": 4567,
      "à¤µà¤¨à¤®": 4568,
      "à¤µà¤¨à¤¸": 4569,
      "à¤°à¤¸à¤®": 4570,
      "Ġà¤ªà¤ļ": 4571,
      "Ġà¤ķà¤®à¤²à¤¨": 4572,
      "Ġà¤ıà¤ļà¤Ĩà¤¯à¤µ": 4573,
      "à¤°à¤Ĺà¤³": 4574,
      "Ġà¤ľà¤²à¤¦à¤Ĺà¤¤": 4575,
      "06": 4576,
      "à¤°à¤¬à¤¦à¤²": 4577,
      "âĢĿ,": 4578,
      "à¤°à¤£à¤ļ": 4579,
      "II": 4580,
      "Ġà¤ªà¤°à¤ĸà¤¡": 4581,
      "à¤ĸà¤ķà¤°": 4582,
      "à¤µà¤¸à¤ħà¤ĸ": 4583,
      "à¤ķà¤Łà¤µà¤°": 4584,
      "à¥ģà¥į": 4585,
      "Ġà¤¤à¤ªà¤®": 4586,
      "07": 4587,
      "à¤³à¤ªà¤£": 4588,
      "Ġà¤Ĩà¤Ĺà¤°": 4589,
      "Ġà¤®à¤¨à¤Ĺà¤Ł": 4590,
      "Ġà¤ĸà¤ª": 4591,
      "à¤ĸà¤¸": 4592,
      "ĠâĢĭ": 4593,
      "uk": 4594,
      "Ġà¤ķà¤³à¤ķà¤³": 4595,
      "Ġà¤¬à¤Łà¤°": 4596,
      "Ġà¤ľà¤¡à¤£": 4597,
      "Ġà¤ľà¤¯à¤¦à¤¤": 4598,
      "Ġà¤ľà¤¸à¤ľà¤¸": 4599,
      "à¤®à¤ľà¤¨": 4600,
      "Ġà¤¦à¤¹à¤¨": 4601,
      "à¤Ŀà¤ļ": 4602,
      "à¥«à¥Ń": 4603,
      "à¤ľà¤²à¤Ĺ": 4604,
      "Ġà¤ıà¤ķà¤¸à¤®": 4605,
      "SS": 4606,
      "oll": 4607,
      "Ġà¤Ĺà¤µà¤¸à¤£": 4608,
      "Ġà¤Ĩà¤¯à¤ıà¤ıà¤¸": 4609,
      "à¤ıà¤¸à¤Ĩà¤°": 4610,
      "à¥©à¥§": 4611,
      "ath": 4612,
      "à¤°à¤¡à¤²": 4613,
      "Ġà¤¡à¤²": 4614,
      "Ġà¤¬à¤¡à¤¤à¤°": 4615,
      "à¥©à¥®": 4616,
      "Ġ1998": 4617,
      "ĠSh": 4618,
      "ĠPM": 4619,
      "à¥Ģ,âĢĻ": 4620,
      "ĠRs": 4621,
      "Ġ900": 4622,
      "orm": 4623,
      "Ġà¤ľà¤²à¤ª": 4624,
      "56": 4625,
      "der": 4626,
      "à¤¯à¤®à¤²": 4627,
      "Ġà¤¦à¤®à¤Ľ": 4628,
      "Ġà¤°à¤¹à¤®": 4629,
      "à¤³à¤¸à¤°": 4630,
      "Ġà¤¸à¤¨à¤°": 4631,
      "Ġà¤¨à¤µà¤¶": 4632,
      "Ġà¤īà¤²à¤Ĺà¤¡à¤²": 4633,
      "à¤Łà¤¸à¤¹": 4634,
      "Ġpro": 4635,
      "pl": 4636,
      "à¤ıà¤®à¤ıà¤ļ": 4637,
      "Ġà¤ħà¤ľà¤°": 4638,
      "à¤¸à¤µà¤¡": 4639,
      "Ġmarathi": 4640,
      "Ġà¤¸à¤ľà¤Ĺ": 4641,
      "à¤°à¤¦à¤¯": 4642,
      "Ġà¥§à¥®à¥¦": 4643,
      "Ġà¥®à¥¨": 4644,
      "à¤īà¤Ŀà¤°": 4645,
      "ib": 4646,
      "à¤¬à¤°à¤£": 4647,
      "Ġ140": 4648,
      "Ġà¤īà¤łà¤µà¤¤": 4649,
      "à¤łà¤³": 4650,
      "Ġà¤Ĺà¤¡à¤ķ": 4651,
      "à¤īà¤ļ": 4652,
      "Ġà¤Ĩà¤¦à¤°à¤£": 4653,
      "à¤§à¤µà¤¨": 4654,
      "Ġà¤®à¤¦à¤¤à¤ķ": 4655,
      "ank": 4656,
      "Ġch": 4657,
      "Ġà¤¬à¤¡à¤¬à¤¡": 4658,
      "à¤¹à¤Ĺ": 4659,
      "Ġ108": 4660,
      "à¤¯à¤«à¤³": 4661,
      "Ġà¤ªà¤£à¤¤": 4662,
      "à¤¯à¤ķà¤²à¤ļ": 4663,
      "Ġà¤¦à¤¡à¤ªà¤¶": 4664,
      "Ġà¤ķà¤²à¤¶": 4665,
      "à¤¥à¤¹": 4666,
      "Ġà¤ļà¤¹à¤²": 4667,
      "à¤ļà¤ķà¤°": 4668,
      "ich": 4669,
      "à¤¤à¤¨à¤ļ": 4670,
      "à¤¾à¤ĤâĢĻ": 4671,
      "Ġà¤Ŀà¤Ĺà¤¡": 4672,
      "à¤ıà¤®à¤Ĩà¤°à¤¡": 4673,
      "à¤¡à¤Ī": 4674,
      "à¤¸à¤Ĺà¤³": 4675,
      "Ġà¤¤à¤³à¤®à¤³": 4676,
      "à¤ľà¤®à¤¹": 4677,
      "Ġà¤µà¤¨à¤ķ": 4678,
      "Ġà¤ľà¤¨à¤®à¤¤": 4679,
      "Ġà¤Ķà¤·": 4680,
      "à¤¥à¤¸à¤¹": 4681,
      "à¤²à¤°à¤¨": 4682,
      "à¤ĸà¤ªà¤¤": 4683,
      "Ġà¥Ńà¥¯": 4684,
      "à¤ľà¤ªà¤ª": 4685,
      "Ġà¤ļà¤²à¤¤": 4686,
      "olog": 4687,
      "Ġà¤¨à¤Łà¤²": 4688,
      "ets": 4689,
      "Ġà¤¨à¤°à¤®": 4690,
      "ina": 4691,
      ".\"": 4692,
      "à¤¼à¤¾à¤Ĥ": 4693,
      "à¤ªà¤ľà¤¨à¤ķ": 4694,
      "Ġà¥§à¥«à¥¦à¥¦": 4695,
      "Ġà¤¤à¤¡à¤«": 4696,
      "Ġà¤ĸà¤®": 4697,
      "à¤ķà¤µà¤¸": 4698,
      "à¤ħà¤¡": 4699,
      "Ġà¤ıà¤ķà¤ķ": 4700,
      "à¤°à¤Ĺà¤¡": 4701,
      "Ġà¤ıà¤µà¤¢à¥Ł": 4702,
      "à¥ģà¥ģ": 4703,
      "à¤¦à¤¯à¤°": 4704,
      "Ġà¥¯à¥¨": 4705,
      "Ġà¤ĳà¤«à¤¸": 4706,
      "Ġà¤īà¤Ĺà¤µà¤£": 4707,
      "Ġà¤īà¤ªà¤¶": 4708,
      "Ġà¤ķà¤¥à¤¨": 4709,
      "à¤·à¤¯à¤ļ": 4710,
      "à¤Ĭà¤ªà¤£": 4711,
      "à¤¦à¤¶à¤¹": 4712,
      "à¤¯à¤°à¤¸à¤ļ": 4713,
      "à¤ķà¤ķà¤³": 4714,
      "Ġà¤ķà¤µà¤³": 4715,
      "à¤¸à¤Ĺà¤¡à¤®à¤§": 4716,
      "Ġ160": 4717,
      "Ġà¥§à¥¯à¥®à¥¦": 4718,
      "Ġà¤ļà¤¨": 4719,
      "à¤ħà¤¹à¤®": 4720,
      "Ġà¤ªà¤¸à¤°à¤µà¤²": 4721,
      "Ġ1995": 4722,
      "à¤ħà¤°à¤µ": 4723,
      "Ġà¤¸à¤¶": 4724,
      "à¤°à¤®à¤§à¤²": 4725,
      "à¤µà¤°à¤ķ": 4726,
      "57": 4727,
      "Ġà¤¨à¤µà¤ĸ": 4728,
      "à¤¡à¤¸à¤°": 4729,
      "à¤µà¤²à¤²": 4730,
      "à¤¾à¤ĥ": 4731,
      "à¤ħà¤£": 4732,
      "Ġà¤¹à¤¶": 4733,
      "Ġà¤ħà¤µà¤Ĺà¤¤": 4734,
      "med": 4735,
      "ÂłÂłÂłÂłÂłÂłÂłÂłÂłÂłÂłÂłÂłÂłÂłÂł": 4736,
      "à¤²à¤ĸà¤¤": 4737,
      "Ġà¤ħà¤¥à¤°": 4738,
      "Ġà¤°à¤£à¤¦": 4739,
      "à¤¦à¤¨à¤µà¤¨": 4740,
      "01": 4741,
      "à¤¡à¤£à¤ķà¤°": 4742,
      "Ġà¤ķà¤Ī": 4743,
      "à¤ľà¤°à¤¨": 4744,
      "67": 4745,
      "à¤²à¤§": 4746,
      "tra": 4747,
      "Ġà¤ĵà¤¨": 4748,
      "à¥ħà¤¾": 4749,
      "à¤ĳà¤²": 4750,
      "à¤ĵà¤¢": 4751,
      "à¤¬à¤ª": 4752,
      "à¤°à¤¸à¤ļ": 4753,
      "ith": 4754,
      "zh": 4755,
      "à¤Łà¤°à¤ªà¤°": 4756,
      "à¤¤à¤°à¤ªà¤¤": 4757,
      "à¤¡à¤°à¤¨": 4758,
      "Ġ1996": 4759,
      "Ġà¤ķà¤ªà¤²": 4760,
      "à¤®à¤ķà¤¡": 4761,
      "à¤łà¤Ńà¤°": 4762,
      "à¤¨à¤µà¤¨": 4763,
      "Ġ000": 4764,
      "Ġà¤ıà¤®à¤ıà¤ļ": 4765,
      "à¤Īà¤¨à¤Ĺà¤°": 4766,
      "Ġà¤¬à¤³à¤ľà¤¬à¤°": 4767,
      "à¤¨à¤µà¤¡": 4768,
      "à¤¨à¤¸à¤®": 4769,
      "à¤ħà¤ķà¤°": 4770,
      "Ġà¤ļà¤¢à¤µà¤£": 4771,
      "ian": 4772,
      "41": 4773,
      "Ġà¤ĺà¤¨à¤¦": 4774,
      "AT": 4775,
      "à¤·à¤£à¤ļ": 4776,
      "Ġà¤¹à¤³à¤µ": 4777,
      "à¥ĩ,\"": 4778,
      "Ġà¤ĸà¤¦": 4779,
      "à¤ķà¤¸à¤¹à¤Ń": 4780,
      "ents": 4781,
      "à¤Łà¤¸à¤°": 4782,
      "Ġà¤¸à¤°à¤²": 4783,
      "Ġà¤«à¤¤à¤µ": 4784,
      "à¤µà¤¤à¤¯": 4785,
      "Ġà¥¯à¥©": 4786,
      "SC": 4787,
      "à¤ªà¤µà¤¤": 4788,
      "orn": 4789,
      "à¤ĩà¤¤": 4790,
      "à¥Ģà¤ĥ": 4791,
      "à¤«à¤µ": 4792,
      "pd": 4793,
      "à¤³à¤¦": 4794,
      "ions": 4795,
      "Ġà¤ıà¤«à¤¸": 4796,
      "Ġà¥§à¥§à¥¦": 4797,
      "à¤®à¤¦à¤°": 4798,
      "ach": 4799,
      "à¤¿à¥į": 4800,
      "Ġà¤¦à¤¯à¤¨": 4801,
      "à¥Ģ,.": 4802,
      "à¤¦à¤°à¤µ": 4803,
      "Ġà¥§à¥¯à¥¯à¥«": 4804,
      "à¤ļà¤¦à¤°à¤®": 4805,
      "rim": 4806,
      "à¤Īà¤ĺ": 4807,
      "à¤Łà¤¨à¤ªà¤Ł": 4808,
      "à¤ħà¤¬": 4809,
      "Ġà¤ªà¤²à¤Ł": 4810,
      "ĠĠĠĠĠĠĠ": 4811,
      "à¤Łà¤²à¤µà¤°": 4812,
      "à¤¯à¤¬à¤²": 4813,
      "à¤¨à¤ķà¤ªà¤£": 4814,
      "à¤ĩà¤Łà¤ļ": 4815,
      "à¤§à¤¸": 4816,
      "à¤Ĩà¤ļ": 4817,
      "Ġà¥§à¥¯à¥¯à¥®": 4818,
      "à¤Ĩà¤°à¤ļ": 4819,
      "à¤µà¤³à¤Ł": 4820,
      "Ġà¤ķà¤łà¤¡": 4821,
      "à¥ªà¥®": 4822,
      "ams": 4823,
      "à¤µà¤Ńà¤ķ": 4824,
      "Ġà¤¬à¤ļà¤¤à¤Ĺà¤Ł": 4825,
      "à¤«à¤ĸ": 4826,
      "à¤¸à¤¯": 4827,
      "Ġà¤®à¤ĸ": 4828,
      "Ġà¤¹à¤°à¤¤": 4829,
      "à¤¤à¤°à¤ľà¤®": 4830,
      "à¤µà¤±": 4831,
      "à¤ļà¤ľà¤£": 4832,
      "à¤µà¤¨à¤Ĺ": 4833,
      "Ħĸ": 4834,
      "à¤¿Ã·": 4835,
      "Ġà¤ļà¤¢à¤īà¤¤": 4836,
      "à¤®à¤¸à¤¨": 4837,
      "Ġà¤ķà¤¯": 4838,
      "à¤®à¤«": 4839,
      "Ġà¥®à¥§": 4840,
      "age": 4841,
      "à¤°à¤ľà¤µà¤³": 4842,
      "ric": 4843,
      "Ġà¤ĵà¤°à¤¡à¤¤": 4844,
      "à¤°à¤ªà¤³": 4845,
      "à¤¯à¤µà¤¤": 4846,
      "à¤¶à¤Ŀ": 4847,
      "à¤Ĭà¤¸à¤«": 4848,
      "ure": 4849,
      "Ġà¤ķà¤Ń": 4850,
      "ush": 4851,
      "à¤¤à¤°à¤¨": 4852,
      "à¤ªà¤°à¤®à¤§": 4853,
      "à¤²à¤ķà¤°à¤ļ": 4854,
      "Ġà¤¬à¤¬à¤²": 4855,
      "à¤¨à¤¸à¤¨": 4856,
      "Ġà¤§à¤°à¤£à¤Ĺ": 4857,
      "à¤°à¤¤à¤ľ": 4858,
      "Ġà¤ħà¤²à¤Ĺà¤¦": 4859,
      "à¥ªà¥Ń": 4860,
      "Ġà¤ķà¤ªà¤ļ": 4861,
      "Ġà¤īà¤Ĺà¤µà¤¤": 4862,
      "bit": 4863,
      "Ġà¤ķà¤¹à¤°": 4864,
      ".âĢĿ": 4865,
      "OS": 4866,
      "âĢĶ": 4867,
      "Ġà¤ĳà¤«à¤²": 4868,
      "à¤ĵà¤Ĺ": 4869,
      "Ġcar": 4870,
      "Ġà¤µà¤Łà¤µ": 4871,
      "AR": 4872,
      "à¤ľà¤¨à¤²": 4873,
      "à¤Łà¤°à¤¹": 4874,
      "à¤īà¤®": 4875,
      "à¤ĩà¤¥": 4876,
      "à¤ĩà¤²à¤µà¤°": 4877,
      "83": 4878,
      "Ġà¤µà¤¶": 4879,
      "Ġà¤¶à¤µ": 4880,
      "à¤ĳà¤¨à¤²": 4881,
      "Ġà¤·à¤¡": 4882,
      "Ġà¤µà¤¨à¤Ĺ": 4883,
      "Ġà¤¨à¤ķà¤²": 4884,
      "à¤ĸà¤²à¤¨": 4885,
      "52": 4886,
      "Ġan": 4887,
      "à¤¬à¤Łà¥Ł": 4888,
      "Ġà¤Łà¤ļ": 4889,
      "Ġà¤¸à¤ªà¤ķ": 4890,
      "à¤ľà¤¯à¤ļ": 4891,
      "Ġà¤°à¤®à¤²": 4892,
      "à¤ĩà¤²à¤®à¤§": 4893,
      "Ġà¤ıà¤Ĺ": 4894,
      "Ġà¥®à¥©": 4895,
      "ie": 4896,
      "Ġà¤¬à¤¶": 4897,
      "Ġà¤µà¤²à¤¯": 4898,
      "Ġà¤Ńà¤°à¤ķ": 4899,
      "ĠĠĠĠĠĠĠĠĠ": 4900,
      "à¤ļà¤ķà¤Ł": 4901,
      "Ġà¤ĵà¤®à¤°": 4902,
      "Ġà¤Ĩà¤¸à¤®": 4903,
      "Ġà¤µà¤¦": 4904,
      "Ġ--": 4905,
      "à¤¡à¤®à¤§à¤²": 4906,
      "à¤°à¤§à¤¨": 4907,
      "Ġà¤¹à¤£à¤®": 4908,
      "à¤Ĩà¤īà¤Ł": 4909,
      "Ġà¤ħà¤¦à¤²": 4910,
      "Ġà¤ķà¤°à¤ķà¤°": 4911,
      "86": 4912,
      "Ġ1991": 4913,
      "Ġà¤ħà¤µà¤¤à¤°à¤²": 4914,
      "à¤¹à¤£à¤µ": 4915,
      "à¤¦à¤°à¤®à¤§": 4916,
      "à¤Łà¤ľ": 4917,
      "à¤ıà¤¶à¤¨à¤¨": 4918,
      "Ġ{": 4919,
      "à¤¬à¤²à¤µà¤°": 4920,
      "Ġà¤Ĩà¤ĸà¤¤": 4921,
      "Ġà¤ĵà¤²à¤¸à¤°": 4922,
      "ff": 4923,
      "Ġ1980": 4924,
      "ah": 4925,
      "Ġà¤Ŀà¤¹": 4926,
      "Ġà¥¯à¥§": 4927,
      "97": 4928,
      "Ġà¤ıà¤¸à¤¯": 4929,
      "à¥įâĢĻ": 4930,
      "\":": 4931,
      "à¤Ŀà¤µà¤£": 4932,
      "ĠâĢ¦.": 4933,
      "Ġà¤Ĳà¤°": 4934,
      "Ġà¤¡à¤°": 4935,
      "Ġà¤īà¤Ĺà¤µà¤²": 4936,
      "ym": 4937,
      "Ġà¤®à¤¹à¤®": 4938,
      "Ġà¤¨à¤¯à¤¨à¤°à¤®": 4939,
      "Ġà¤ıà¤ķà¤ľà¤£": 4940,
      "Ġà¤ħà¤Łà¤³": 4941,
      ",,": 4942,
      "Ġà¤ıà¤ķà¤²": 4943,
      "Ġà¤ªà¤°à¤µà¤¡": 4944,
      "à¤¯à¤¤à¤ļ": 4945,
      "à¤ħà¤°à¤µà¤°": 4946,
      "Ġà¤ħà¤¹à¤®à¤¦à¤¨": 4947,
      "aw": 4948,
      "à¤ªà¤²à¤ļ": 4949,
      "Ġà¤¤à¤°à¤£": 4950,
      "à¤ľà¤°à¤ļ": 4951,
      "Ġà¤Ĩà¤µà¤°à¤¤": 4952,
      "Ġà¤¸à¤¬à¤ķ": 4953,
      "Ġà¤ĩà¤Ĺ": 4954,
      "Ġà¤ĺà¤°à¤¬": 4955,
      "Ġà¤ĩà¤¯à¤°": 4956,
      "Ġlies": 4957,
      "à¤¾,âĢĻ": 4958,
      "à¤µà¤¨à¤¦": 4959,
      "gle": 4960,
      "Ð¸": 4961,
      "à¤ľà¤ľ": 4962,
      "Ġà¤¤à¤³à¤ĺà¤°": 4963,
      "Ġà¤ªà¤łà¤£": 4964,
      "à¥®à¥«": 4965,
      "à¤¸à¤®à¤§à¤²": 4966,
      "Ġà¤²à¤Ĺà¤¦": 4967,
      "à¤¡à¤¸à¤¹": 4968,
      "ys": 4969,
      "à¤ħà¤³": 4970,
      "à¤Ĺà¤£à¤ªà¤¤": 4971,
      "Ġà¤¸à¤Ĺ": 4972,
      "Ġà¤ªà¤³à¤µà¤²": 4973,
      "à¥ĩ.)": 4974,
      "Ġà¤ľà¤ł": 4975,
      "Ġà¤²à¤Ĺà¤¤à¤ļ": 4976,
      "ress": 4977,
      "Ġ-.": 4978,
      "Ġà¥§à¥©à¥¦": 4979,
      "Ġà¤ıà¤²à¤¸": 4980,
      "à¤Ĭà¤¡": 4981,
      "els": 4982,
      "à¤¸à¤¹à¤ľ": 4983,
      "ĠĠĠĠĠĠĠĠĠĠĠĠĠĠĠĠĠĠĠĠĠĠĠĠĠĠĠĠĠĠĠĠĠĠĠĠĠĠĠ": 4984,
      "goo": 4985,
      "à¤¹à¤¨à¤¸": 4986,
      "Ġ!!": 4987,
      "Ġà¤¬à¤Ľà¤¡": 4988,
      "à¤²à¤ĺà¤°à¤®à¤§": 4989,
      "Ġà¤²à¤ªà¤µà¤²": 4990,
      "à¤ķà¤£à¤®": 4991,
      "à¤ķà¤°à¤¶": 4992,
      "Ġà¤ªà¤¥à¤¦": 4993,
      "igh": 4994,
      "Ġà¤Ĩà¤°à¤¶": 4995,
      "à¤Ĺà¤«": 4996,
      "à¥ĩà¥ĩ.": 4997,
      "Ġà¤Ĺà¤ľà¤¬à¤ľà¤²": 4998,
      "out": 4999,
      "Ġ1992": 5000,
      "à¤ľà¤¯à¤¦": 5001,
      "à¤µà¤¸à¤°": 5002,
      "96": 5003,
      "à¤£à¤¤à¤£": 5004,
      "à¤¯à¤¨à¤Ĺà¤°": 5005,
      "Ġà¤Ĺà¤°à¤ľà¤ļ": 5006,
      "à¤¸à¤°à¤¸": 5007,
      "à¤Ĭà¤¸à¤®à¤§": 5008,
      "à¤°à¤¬à¤°": 5009,
      "Ġ1993": 5010,
      "ek": 5011,
      "à¥ĩ,âĢĿ": 5012,
      "à¤«à¤¸": 5013,
      "ment": 5014,
      "Ġam": 5015,
      "53": 5016,
      "Ġà¤¬à¤Ĺà¤¦": 5017,
      "Ġà¤īà¤ĸ": 5018,
      "à¥«à¥¦à¥¦": 5019,
      "ust": 5020,
      "ĠâĦĸ": 5021,
      "à¤ıà¤¸à¤ıà¤¸à¤Ĩà¤°": 5022,
      "ĠAl": 5023,
      "à¤¹à¤Ł": 5024,
      "Ġà¤ıà¤®à¤¡": 5025,
      "à¤¸à¤°à¤¶": 5026,
      "à¤·à¤¦à¤°": 5027,
      "à¤ħà¤°à¤¨": 5028,
      "à¤§à¤³à¤²": 5029,
      "à¤Ĭà¤¸à¤ļ": 5030,
      "à¤µà¤§à¤¨": 5031,
      "Ġherbs": 5032,
      "Ġà¤Ĩà¤³à¤¸": 5033,
      "Ġà¤īà¤¸à¤¨": 5034,
      "Ġà¤ħà¤Ĺà¤¤": 5035,
      "Ġà¤īà¤²à¤Ĺà¤¡à¤£": 5036,
      "Ġà¤¸à¤®à¤Ĺ": 5037,
      "Ġà¥§à¥¯à¥¯à¥©": 5038,
      "ĠUS": 5039,
      "à¤ľà¤Ń": 5040,
      "à¤Ĺà¤¨à¤Ĺà¤°": 5041,
      "à¤§à¤¡à¤ķ": 5042,
      "Ġà¤ıà¤¨à¤ľ": 5043,
      "à¤ªà¤°à¤«": 5044,
      "à¤Ĺà¤£à¤ĺ": 5045,
      "à¤¸à¤¨à¤¹": 5046,
      "à¤ıà¤¸à¤ıà¤¨à¤ıà¤²": 5047,
      "one": 5048,
      "à¤³à¤ĺ": 5049,
      "à¤«à¤¡à¤ķ": 5050,
      "à¤Ĩà¤°à¤ıà¤¸": 5051,
      "sky": 5052,
      "ĠðŁ": 5053,
      "à¥Ĥ;": 5054,
      "à¤Ĺà¤¤à¤¦": 5055,
      "87": 5056,
      "à¥ĩ,'": 5057,
      "à¤·à¤£à¤¸": 5058,
      "ND": 5059,
      "Ġà¤¨à¤Ĺà¤£": 5060,
      "à¥¯à¥«": 5061,
      "à¤²à¤¦à¤¸": 5062,
      "à¤°à¤Ĭà¤°": 5063,
      "à¤ķà¤¸à¤ķ": 5064,
      "à¤¯à¤¦à¤³": 5065,
      "à¤ķà¤¡à¥Ł": 5066,
      "Ġà¤Ĺà¤£à¤²": 5067,
      "Ġfor": 5068,
      "its": 5069,
      "Ġà¤¥à¤°à¤¥": 5070,
      "Ġà¤ħà¤ªà¤ª": 5071,
      "Ġà¤ħà¤¨à¤¸": 5072,
      "Ġà¤¤à¤³à¤®à¤ľà¤²": 5073,
      "Ġà¤¬à¤²à¤µ": 5074,
      "à¥ªà¥ª": 5075,
      "à¤ªà¤°à¤ķ": 5076,
      "à¤ĩà¤¤à¤°": 5077,
      "à¤¯à¤¤à¤¶": 5078,
      "à¤Ĩà¤°à¤ı": 5079,
      "à¤¡à¤¨à¤°": 5080,
      "CC": 5081,
      "à¤·à¤µà¤²": 5082,
      "Ġà¤¬à¤¹à¤°à¤²": 5083,
      "ĠVideo": 5084,
      "GB": 5085,
      "ink": 5086,
      "Ġà¤¤à¤°à¤¹": 5087,
      "Ġà¤Īà¤°": 5088,
      "ED": 5089,
      "ong": 5090,
      "Ġà¤Ĩà¤¸à¤°": 5091,
      "à¥ĩ\",": 5092,
      "à¤¨à¤¸à¤²": 5093,
      "Ġà¤¤à¤¸à¤ļ": 5094,
      "à¤ªà¤Łà¤²": 5095,
      "Ġà¤ªà¤Łà¤¸": 5096,
      "ram": 5097,
      "ĠQ": 5098,
      "Ġà¤Ķà¤¸": 5099,
      "erries": 5100,
      "à¤Ĥ)": 5101,
      "à¥Ģ):": 5102,
      "ĠUpd": 5103,
      "Ġà¤ķà¤®à¤¬": 5104,
      "03": 5105,
      "04": 5106,
      "Ġ\",": 5107,
      "à¤°à¤ĸà¤ª": 5108,
      "à¤²à¤ķà¤°à¤¨": 5109,
      "Ġà¤łà¤³à¤ķà¤ªà¤£": 5110,
      "Ġà¤īà¤°à¤ķ": 5111,
      "Ġ450": 5112,
      "Ġà¤ħà¤¡à¤ķà¤¤": 5113,
      "Ġà¤įà¤ªà¤²": 5114,
      "02": 5115,
      "Ġà¤Ĺà¤¡à¤Ĺ": 5116,
      "Ġà¤¸à¤¹à¤¨à¤¶": 5117,
      "Ġà¤Ĺà¤£à¤ªà¤¤à¤°": 5118,
      "à¤¡à¤°à¤°": 5119,
      "Ġpl": 5120,
      "Ġà¥§à¥¯à¥¯à¥§": 5121,
      "à¤¸à¤į": 5122,
      "ical": 5123,
      "à¤·à¤£à¤ķ": 5124,
      "98": 5125,
      "à¤Ĩà¤°à¤¬": 5126,
      "Ġà¤ľà¤¡à¤£à¤ĺà¤¡à¤£": 5127,
      "âĢĭ": 5128,
      "Ġà¤Ĺà¤ı": 5129,
      "Ġà¥§à¥¯à¥¯à¥¬": 5130,
      "ect": 5131,
      "Ġà¤¨à¤µà¤¦": 5132,
      "Ġ1200": 5133,
      "à¤µà¤²à¤ķà¤°": 5134,
      "Ġà¤Ĩà¤īà¤Ł": 5135,
      "54": 5136,
      "à¥ħ.": 5137,
      "à¤¤à¤«": 5138,
      "à¤°à¤µà¤¨": 5139,
      "à¤ªà¤¨à¤µ": 5140,
      "ÑĤ": 5141,
      "ÂłĠÂłĠÂł": 5142,
      "Ġà¤²à¤ªà¤µà¤£": 5143,
      "Ġen": 5144,
      "Ġà¤ĸà¤£à¤ĸà¤£": 5145,
      "Ġ....": 5146,
      "à¤ĵà¤¹": 5147,
      "à¤Īà¤Ĺ": 5148,
      "Ġor": 5149,
      "à¤°à¤¬à¤¦": 5150,
      "à¤¨à¤µà¤Ł": 5151,
      "ari": 5152,
      "Ġà¤Ĺà¤¡à¥Ł": 5153,
      "Ġà¤ĵà¤°à¤¡à¤²": 5154,
      "Ġà¤²à¤Ĺà¤¤": 5155,
      "Ġà¤¨à¤¨": 5156,
      "Ġà¤ıà¤¨à¤Ĩà¤¯": 5157,
      "à¤¡à¤®à¤¨": 5158,
      "à¤¶à¤°à¤¦": 5159,
      "à¤°à¤ķà¤®": 5160,
      "Ġà¤µà¤°à¤£": 5161,
      "HO": 5162,
      "Ġà¤ĸà¤µà¤¯": 5163,
      "ates": 5164,
      "app": 5165,
      "à¤¨à¤°à¤¨": 5166,
      "à¤Ĩà¤®à¤¦": 5167,
      "à¤µà¤²à¤Ĺ": 5168,
      "à¥®à¥®": 5169,
      "Ġà¤¸à¤³": 5170,
      "à¤¸à¤²à¤ļ": 5171,
      "à¤Ķà¤°": 5172,
      "à¤ķà¤¸à¤¨à¤¶": 5173,
      "à¤Ľà¤ª": 5174,
      "à¤§à¤¨à¤Ĺ": 5175,
      "Ġà¤µà¤°à¤ļà¤¢": 5176,
      "à¤ªà¤ľ": 5177,
      "à¤Ĩà¤°à¤Ĩà¤¯": 5178,
      "58": 5179,
      "Ġà¤¸à¤¬à¤¬": 5180,
      "à¤¯à¤īà¤¤": 5181,
      "à¤¦à¤¯à¤¸": 5182,
      "à¥©à¥¯": 5183,
      "over": 5184,
      "abad": 5185,
      "à¤¨à¤Īà¤¤": 5186,
      "aj": 5187,
      "à¤ªà¤Łà¤£": 5188,
      "à¤¹à¤°à¤¹": 5189,
      "Ġà¤ĩà¤¡": 5190,
      "Ġà¤ħà¤Ĺà¤°à¤µ": 5191,
      "à¤Ńà¤¸": 5192,
      "Ġà¤ĸà¤¤à¤ª": 5193,
      "à¤¯à¤®à¤°": 5194,
      "à¥Ĭ": 5195,
      "à¤Īà¤Ŀ": 5196,
      "à¤ķà¤Łà¤¤": 5197,
      "à¥į-": 5198,
      "à¥ĩà¤¾": 5199,
      "à¤¡à¤ķà¤³": 5200,
      "Ġà¤īà¤²à¤Ĺà¤¡à¤¤": 5201,
      "à¥«à¥¬": 5202,
      "umbai": 5203,
      "à®": 5204,
      "ĠTh": 5205,
      "à¤¤à¤°à¤£à¤¨": 5206,
      "à¤ļà¤¬": 5207,
      "Ġà¤¯à¤²": 5208,
      "à¤¨à¤®à¤§à¤²": 5209,
      "ï¿½ï¿½ï¿½ï¿½ï¿½": 5210,
      "Ġà¤µà¤¤à¤¨": 5211,
      "Ġà¤ıà¤²à¤¬": 5212,
      "à¤ĩà¤ªà¤²": 5213,
      "Ġà¤ħà¤¨à¤Ń": 5214,
      "à¤Ĭà¤¦à¤ļ": 5215,
      "Ġà¤Ķà¤Ł": 5216,
      "à¤¾\".": 5217,
      "à¤ķà¤¸à¤¹": 5218,
      "ny": 5219,
      "Ġà¤Īà¤¦à¤ļ": 5220,
      "Ġà¤ªà¤²à¤Łà¤µ": 5221,
      "Ġcr": 5222,
      "à¤ıà¤®à¤ıà¤²": 5223,
      "à¤²à¤¬à¤®à¤§": 5224,
      "Ġà¥§à¥¯à¥¯à¥¨": 5225,
      "oogle": 5226,
      "Ġà¤¬à¤¸à¤µà¤¤": 5227,
      "à¤¶à¤Ł": 5228,
      "Ġà¤¬à¤³à¤ķ": 5229,
      "Ġ>>>>": 5230,
      "à¤Īà¤²à¤¨": 5231,
      "à¤ĸà¤ł": 5232,
      "à¤Łà¤¸à¤¨": 5233,
      "à¤¸à¤²à¤¤": 5234,
      "imp": 5235,
      "Ġà¤īà¤®à¤¦": 5236,
      "à¤µà¤¦à¤°": 5237,
      "à¤¦à¤ľ": 5238,
      "âĢ¢": 5239,
      "Ġ220": 5240,
      "à¤¶à¤Ĺ": 5241,
      "Ġà¤ħà¤¡à¤ķà¤µ": 5242,
      "Ġà¤Ńà¤°à¤¦": 5243,
      "à¤ķà¤Łà¤ļ": 5244,
      "à¤®à¤¦à¤ļ": 5245,
      "Ġà¤®à¤²à¤®à¤ªà¤Ł": 5246,
      "ĠUpdated": 5247,
      "à¤°à¤®à¤ķà¤¤": 5248,
      "à¤²à¤µà¤¡": 5249,
      "Ġ2022": 5250,
      "à¥ªà¥¨": 5251,
      "à¤¾....": 5252,
      "Ġà¤¸à¤Ĺà¤³à¤¯": 5253,
      "Ġà¤ľà¤¬à¤¡": 5254,
      "à¤Łà¤°à¤¬": 5255,
      "à¥¬à¥¬": 5256,
      "Ġà¤·à¤¡à¤¯": 5257,
      "à¥Ńà¥Ń": 5258,
      "Ġà¤ıà¤²à¤Ĩà¤¯à¤¸": 5259,
      "à¤ľà¤±": 5260,
      "à¥ĩ.âĢĿ": 5261,
      "à¥§à¥§à¥": 5262,
      "64": 5263,
      "Ġà¤¸à¤ĸà¤²": 5264,
      "Ġà¤µà¤¨à¤®": 5265,
      "Ġà¤ĩà¤¡à¤²": 5266,
      "Ġà¤ªà¤µà¤Ī": 5267,
      ",'": 5268,
      "à¥Ľ": 5269,
      "Ġà¥§à¥ªà¥¦": 5270,
      "Ġà¥§à¥¦à¥«": 5271,
      "Ġà¤µà¤¨à¤ĸ": 5272,
      "à¤ªà¤ªà¤°": 5273,
      "ĠÂłÂł": 5274,
      "51": 5275,
      "Ġà¤ıà¤ıà¤¨": 5276,
      "68": 5277,
      "Ġà¥§à¥¬à¥¦": 5278,
      "Ġà¤¬à¤§": 5279,
      "Ġà¤Ŀà¤³à¤ķà¤¤": 5280,
      "Ġà¤Ĩà¤īà¤Łà¤²": 5281,
      "Ġà¤Ŀà¤Ł": 5282,
      "Ġà¤ıà¤®à¤ľ": 5283,
      "à¤°à¤ķà¤®à¤§": 5284,
      "Ġà¤¸à¤«à¤²": 5285,
      "Ġà¤īà¤ªà¤ķà¤°": 5286,
      "à¤ľà¤¨à¤¸": 5287,
      "te": 5288,
      "à¤®à¤Ŀ": 5289,
      "Ġà¤ľà¤¡à¤²": 5290,
      "Ġà¤°à¤®à¤¤": 5291,
      "à¤²à¤°à¤²": 5292,
      "à¤Ĺà¤®à¤°": 5293,
      "à¤¡à¤ªà¤²": 5294,
      "à¤Ĩà¤°à¤ıà¤«": 5295,
      "Ġbe": 5296,
      "à¤µà¤°à¤¦": 5297,
      "72": 5298,
      "cl": 5299,
      "ings": 5300,
      "à¤¹à¤²à¤ļ": 5301,
      "Ġà¤Ĩà¤¤à¤ļ": 5302,
      "à¤¤à¤®à¤°": 5303,
      "à¤µà¤¢à¥Ł": 5304,
      "Ġà¤¬à¤¨à¤ķà¤°": 5305,
      "ook": 5306,
      "Ġà¤Ĩà¤Īà¤¬": 5307,
      "........": 5308,
      "Ġ1997": 5309,
      "act": 5310,
      "à¤¡à¤ħà¤³": 5311,
      "rac": 5312,
      "69": 5313,
      "à¤¹à¤ļà¤µà¤£": 5314,
      "à¤ıà¤¸à¤Īà¤ļ": 5315,
      "Ġà¤ķà¤¬à¤°": 5316,
      "Ġà¤ĺà¤°à¤®": 5317,
      "Ġà¤Ľà¤¬": 5318,
      "à¤£à¤¶": 5319,
      "Ġà¤«à¤°à¤¸": 5320,
      "Ġà¤®à¤²à¤¬": 5321,
      "à¤¹à¤²à¤ªà¤°": 5322,
      "62": 5323,
      "ãģ": 5324,
      "Ġà¤ħà¤¸à¤Ń": 5325,
      "à¤°à¤®à¤°": 5326,
      "à¤ķà¤²à¤®": 5327,
      "Ġà¤ķà¤£à¤ĸà¤°": 5328,
      "59": 5329,
      "Ġà¤®à¤¡": 5330,
      "à¤¥à¤®à¤§": 5331,
      "à¤ľà¤Ĺà¤¡": 5332,
      "à¤µà¤ªà¤°": 5333,
      "Ġà¤ĩà¤¨à¤ª": 5334,
      "à¥ĩ.\"": 5335,
      "à¤°à¤®à¤¤à¤µ": 5336,
      "Ġà¤ªà¤³à¤£": 5337,
      "Ġà¤ĵà¤¢à¤µ": 5338,
      "à¥¯à¥¬": 5339,
      "ele": 5340,
      "Ġà¤Īà¤ª": 5341,
      "Ġà¤§à¤¡à¤ªà¤¡à¤¤": 5342,
      "âĢľ": 5343,
      "Ġà¤¹à¤°à¤ªà¤²": 5344,
      "Ġà¥¯à¥¦à¥¦": 5345,
      "à¤µà¤¨à¤Ĺà¤°": 5346,
      "à¤Ľà¤²": 5347,
      "yp": 5348,
      "Ġà¤ħà¤ªà¤¶à¤¬": 5349,
      "à¤¹à¤°à¤®": 5350,
      "à¥ªà¥¬": 5351,
      "Ġà¤¡à¤Ŀà¤¨à¤Ńà¤°": 5352,
      "Ġà¤ħà¤ľà¤Ĺà¤°": 5353,
      "Ġco": 5354,
      "à¤¤à¤ķÂºà¤¯": 5355,
      "Ġà¤ĺà¤¬à¤°": 5356,
      "à¤¶à¤¨à¤®": 5357,
      "RC": 5358,
      "à¤¨à¤¬à¤¦": 5359,
      "à¤ĭà¤¤": 5360,
      "ft": 5361,
      "li": 5362,
      "à¤Īà¤¡à¤ļ": 5363,
      "Ġà¤ĳà¤ĩà¤²": 5364,
      "à¤Łà¤®à¤¨": 5365,
      "Ġà¤µà¤¨à¤ª": 5366,
      "Ġà¤¹à¤°à¤®à¤¨à¤ª": 5367,
      "à¤¯à¤ķà¤ļ": 5368,
      "à¤Īà¤ķà¤µà¤°": 5369,
      "ge": 5370,
      "Ġà¤¤à¤¸à¤¤à¤¸": 5371,
      "à¥¯à¥®": 5372,
      "à¤Ĩà¤°à¤®à¤§": 5373,
      "Ġà¤įà¤¡à¤®": 5374,
      "à¤¸à¤¡": 5375,
      "ĠLok": 5376,
      "300": 5377,
      "à¤ªà¤Ĺà¤¡": 5378,
      "Ġà¤®à¤¨à¤§à¤°à¤£": 5379,
      "Ġà¤¹à¤°à¤µà¤¤": 5380,
      "à¤·à¤¯à¤¨": 5381,
      "à¤Ĺà¤°à¤ķ": 5382,
      "à¤ıà¤¸à¤ıà¤«": 5383,
      "à¤²à¤°à¤µà¤°": 5384,
      "Ġà¤¨à¤Ĺà¤°à¤°à¤ļà¤¨": 5385,
      "à¤«à¤°à¤¸": 5386,
      "à¤µà¤ĺà¤°": 5387,
      "ata": 5388,
      "Ñģ": 5389,
      "à¤µà¤³à¤¸à¤°": 5390,
      "à¤¦à¤¨à¤ķ": 5391,
      "Ġà¥§à¥¦à¥®": 5392,
      "Ġ170": 5393,
      "Ġà¤ıà¤¸à¤¸": 5394,
      "Ġà¤ħà¤¨à¤¨à¤¸": 5395,
      "Ġà¤®à¤µ": 5396,
      "Ġà¤®à¤³à¤²": 5397,
      "Ġà¤ļà¤®à¤ķà¤£": 5398,
      "à¤°à¤Ĺà¤Ł": 5399,
      "à¤Ĺà¤°à¤ª": 5400,
      "Ġà¤Ĩà¤¡à¤®": 5401,
      "Ġà¤µà¤ļà¤ķ": 5402,
      "à¤¤à¤¨à¤¶": 5403,
      "Ġà¤ķà¤²à¤¹": 5404,
      "Ġà¤įà¤²": 5405,
      "Ġà¤ĵà¤®à¤ª": 5406,
      "à¤²à¤¸à¤ļ": 5407,
      "Ġà¤īà¤ķà¤³à¤²": 5408,
      "Ġà¤¡à¥Ł": 5409,
      "harash": 5410,
      "à¤Ĩà¤¸": 5411,
      "Ġà¤ħà¤¡à¤²": 5412,
      "Ġà¤¦à¤²à¤¦à¤²": 5413,
      "Ġà¤¡à¤Ĺà¤²": 5414,
      "Ġà¤®à¤Ĺà¤¦": 5415,
      "Ġà¤ªà¤¤à¤§": 5416,
      "à¤ıà¤®à¤ı": 5417,
      "à¤Ĺà¤°à¤²": 5418,
      "ĠâĢĮ": 5419,
      "à¤Ĩà¤°à¤ķ": 5420,
      "400": 5421,
      "Ġà¤ļà¤ªà¤°": 5422,
      "à¥Ģ....": 5423,
      "ult": 5424,
      "à¤ĩà¤°": 5425,
      "à¥Ŀ": 5426,
      "à¤¯à¤®à¤Ĺà¤¤": 5427,
      "à¤«à¤£": 5428,
      "à¤¹à¤ĸ": 5429,
      "Ġà¥§à¥¯à¥ªà¥Ń": 5430,
      "enn": 5431,
      "Ġà¥§à¥¨à¥¦à¥¦": 5432,
      "ĠYou": 5433,
      "ĠAn": 5434,
      "Ġ1994": 5435,
      "à¤°à¤¯à¤¸": 5436,
      "Ġà¤¦à¤²à¤µ": 5437,
      "à¤¶à¤¨à¤ķ": 5438,
      "à¤®à¤¶à¤¹": 5439,
      "eal": 5440,
      "à¤¡à¤²à¤µà¤°": 5441,
      "à¤ľà¤ķà¤°": 5442,
      "ino": 5443,
      "Ġà¤ħà¤²à¤µ": 5444,
      "à¤Ŀà¤Ĺ": 5445,
      "ÑĢ": 5446,
      "à¤²à¤°à¤ķ": 5447,
      "IC": 5448,
      "à¤¥à¤¦": 5449,
      "MS": 5450,
      "Ð½": 5451,
      "Ġà¤¸à¤ķà¤¸": 5452,
      "à¤¯à¤¨à¤¨": 5453,
      "io": 5454,
      "Ġà¤ĺà¤°à¤ª": 5455,
      "Ġà¤įà¤¥à¤²": 5456,
      "ÂłĠÂłĠÂłĠÂłĠÂłĠÂłĠÂłĠÂłĠÂłĠÂłĠÂłĠÂłĠÂłĠÂłĠÂłĠÂłĠÂł": 5457,
      "à¥§à¥¦à¥¦": 5458,
      "Ġle": 5459,
      "à¤²à¤Ńà¤Ń": 5460,
      "à¤Łà¤°à¤¦": 5461,
      "rom": 5462,
      "à¤¤à¤µà¤¤": 5463,
      "Ġà¥§à¥Ńà¥¦": 5464,
      ".....": 5465,
      "Ġà¤Ńà¤°à¤¡": 5466,
      "Ġà¤ĸà¤°à¤ª": 5467,
      "Ġberries": 5468,
      "Ġà¤Ńà¤°à¤µà¤²": 5469,
      "à¥į/": 5470,
      "Ġà¤Ĺà¤°à¤¬": 5471,
      "Ġz": 5472,
      "à¤ıà¤¨à¤¸": 5473,
      "Ġà¤¤à¤Łà¤°à¤ķ": 5474,
      "Ġà¤ıà¤®à¤ıà¤²": 5475,
      "Ġ144": 5476,
      "Ġà¤µà¤£": 5477,
      "à¤ıà¤°": 5478,
      "à¤¾âĢ¦.": 5479,
      "à¤°à¤¸à¤ª": 5480,
      "Ġà¤łà¤ķ": 5481,
      "à¤²à¤¸à¤¹": 5482,
      "à¤°à¤£à¤®": 5483,
      "ĠGo": 5484,
      "78": 5485,
      "Ġà¤¸à¤°à¤µ": 5486,
      "ĠHome": 5487,
      "Ġà¤ľà¤²à¤ķ": 5488,
      "Ġà¤ľà¤Ĺà¤µ": 5489,
      "Ġà¤§à¤¨à¤¶": 5490,
      "Ġà¤Ĺà¤Łà¤¶": 5491,
      "à¥ĩâĢĻ.": 5492,
      "à¤ĵà¤°": 5493,
      "Ġ(-": 5494,
      "Ġà¤ħà¤ķà¤¸": 5495,
      "Ġà¤¸à¤¹à¤ª": 5496,
      "à¤¤à¤ķà¤¥": 5497,
      "ism": 5498,
      "Ġà¤«à¤¸à¤µà¤²": 5499,
      "lo": 5500,
      "Ġal": 5501,
      "Ġà¤īà¤²à¤Łà¤¸": 5502,
      "Ġà¤ħà¤®à¤¨": 5503,
      "à¤¤à¤®à¤¸": 5504,
      "à¤Ĩà¤¯à¤®à¤§": 5505,
      "Ġsc": 5506,
      "à¤ħà¤Ĺà¤¦": 5507,
      "à¤ĺà¤³à¤²": 5508,
      "91": 5509,
      "Ġro": 5510,
      "à¤ĩà¤¸à¤µà¤°": 5511,
      "ail": 5512,
      "Ġà¥§à¥¯à¥¬à¥¦": 5513,
      "à¤¸à¤Łà¤¤": 5514,
      "à¤¡à¤¨à¤²": 5515,
      "Ġà¤¬à¤µ": 5516,
      "Ġà¤°à¤ļà¤¤": 5517,
      "à¤®à¤¶à¤¤": 5518,
      "à¤Łà¤¨à¤¨": 5519,
      "Ġà¤ħà¤°à¤£": 5520,
      "à¤ļà¤Ĺà¤£": 5521,
      "Ġà¤¤à¤°à¤«": 5522,
      "Ġà¤ħà¤¬à¤ķ": 5523,
      "erm": 5524,
      "Ġà¥§à¥¯à¥Ńà¥§": 5525,
      "Ġà¤¸à¤¬à¤¨": 5526,
      "Ġà¤«à¤ľ": 5527,
      "à¤¨à¤²à¤µà¤°": 5528,
      "Ġà¤§à¤µà¤¨à¤¨": 5529,
      "Ġà¤µà¤£à¤µà¤£": 5530,
      "Ġà¤°à¤¸à¤¦": 5531,
      "Ġà¤Ńà¤Ĺà¤µà¤¤": 5532,
      "à¤Ĺà¤¨à¤ļ": 5533,
      "NE": 5534,
      "à¤ĵà¤Ł": 5535,
      "à¤·à¤£à¤µ": 5536,
      "Ġà¤Łà¤£à¤ķ": 5537,
      "ver": 5538,
      "à¥¬à¥Ń": 5539,
      "94": 5540,
      "à¤²à¤¤à¤¤": 5541,
      "Ġà¤Ĩà¤ĩ": 5542,
      "Ġà¤Ĩà¤Īà¤ķà¤¡": 5543,
      "à¤µà¤°à¤£à¤µ": 5544,
      "Ġà¤«à¤¨": 5545,
      "à¤¾,\"": 5546,
      "à¥¯à¥Ń": 5547,
      "Ġà¤ªà¤¢": 5548,
      "à¤Ŀà¤¨à¤®à¤§": 5549,
      "Ġà¤ħà¤¡à¤¸": 5550,
      "Ġà¥§à¥¯à¥®à¥ª": 5551,
      "Ġà¤§à¤¸à¤ķ": 5552,
      "Ġà¤¦à¤¬à¤²": 5553,
      "à¤²à¤¬à¤¦": 5554,
      "ite": 5555,
      "Ġà¤²à¤ªà¤µà¤¤": 5556,
      "à¥Īà¤Ĥ,": 5557,
      "à¤¬à¤°à¤¹": 5558,
      "à¤ķà¤¨à¤Ĺà¤°": 5559,
      "âĢ¦âĢ¦": 5560,
      "à¤¯à¤®à¤¹": 5561,
      "à¤µà¤°à¤Ĺ": 5562,
      "Ġà¤¶à¤¹à¤°à¤ª": 5563,
      "ÂłĠÂłĠÂłĠÂłĠÂł": 5564,
      "ĠNov": 5565,
      "à¤Ĺà¤²à¤¬": 5566,
      "à¤ªà¤ķà¤¡": 5567,
      "||": 5568,
      "Ġà¤Ĩà¤¡à¤ķ": 5569,
      "ord": 5570,
      "à¤¤à¤ķà¤¡": 5571,
      "à¤Ĺà¤µà¤Ł": 5572,
      "Ġà¤§à¤µà¤¨à¤ļ": 5573,
      "à¤¦à¤Ī": 5574,
      "à¥ĭâĢĻ,": 5575,
      "76": 5576,
      "Ġà¤įà¤Ł": 5577,
      "Ġà¤¨à¤ľà¤°à¤ķ": 5578,
      "à¤ķà¤£à¤µ": 5579,
      "Ġà¤ķà¤Łà¤ķà¤Ł": 5580,
      "ick": 5581,
      "Ġà¤¹à¤²à¤¤": 5582,
      ".âĢĻ": 5583,
      "ue": 5584,
      "à¤°à¥Ł": 5585,
      "à¥Ĩ": 5586,
      "Ġà¤ľà¤²à¤¶": 5587,
      "à¤¤à¤¨à¤Ĺà¤°": 5588,
      "Read": 5589,
      "à¤³à¤ªà¤Ī": 5590,
      "Ġà¤¸à¤¨à¤¸à¤¨": 5591,
      "à¤®à¤£à¤°": 5592,
      "à¤³à¤µà¤²à¤ķà¤°": 5593,
      "Ġà¤ļà¤Łà¤Ī": 5594,
      "à¤Łà¤²à¤²": 5595,
      "à¤§à¤°à¤µà¤¡": 5596,
      "Ġ5000": 5597,
      "Ġ750": 5598,
      "Ġà¥§à¥¯à¥¯à¥Ń": 5599,
      "92": 5600,
      "ova": 5601,
      "à¤ĸà¤ªà¤¦": 5602,
      "Ġà¤Ĩà¤ªà¤Łà¤²": 5603,
      "iss": 5604,
      "Ġà¤ıà¤£": 5605,
      "Ġà¤¹à¤«": 5606,
      "Ġà¤¨à¤µà¤°à¤¦": 5607,
      "à¤¡à¤°à¤¸à¤¨": 5608,
      "Ġ00": 5609,
      "ann": 5610,
      "à¤Ĺà¤¡à¤ļ": 5611,
      "www": 5612,
      "Ġà¤¾": 5613,
      "roid": 5614,
      "yl": 5615,
      "à¤ıà¤µ": 5616,
      "Ġ128": 5617,
      "à¥ªà¥¯": 5618,
      "à¤ıà¤®à¤¡à¤¬": 5619,
      "ĠAd": 5620,
      "ĠCAA": 5621,
      "Ġà¤ľà¤ĸ": 5622,
      "Ġ3000": 5623,
      "à¤®à¤¹à¤°": 5624,
      "à¤¢à¤ª": 5625,
      "à¤ĩà¤Łà¤¨": 5626,
      "à¤Łà¤®à¤§à¤²": 5627,
      "ood": 5628,
      "à¤¾à¤Ĥ.": 5629,
      "à¤«à¤²à¤ķ": 5630,
      "à¤Ńà¤°à¤¹": 5631,
      "Ġà¤¶à¤Łà¤°": 5632,
      "à¤Ńà¤ļ": 5633,
      "à¥¨à¥¦à¥§à¥®": 5634,
      "Ġà¤Ĺà¤µà¤¸à¤²": 5635,
      "à¥ĩ,âĢĻâĢĻ": 5636,
      "Ġà¤µà¤°à¤µà¤°à¤ļ": 5637,
      "à¤¯à¤¨à¤®à¤§": 5638,
      "à¤¯à¤¸à¤¨à¤®": 5639,
      "à¤¦à¤µà¤°": 5640,
      "à¤°à¤ľà¤£": 5641,
      "à¤¨à¤°à¤µà¤°": 5642,
      "à¤īà¤ªà¤¸": 5643,
      "Ġà¤Ĺà¤«": 5644,
      "Ġà¤µà¤±": 5645,
      "Ġà¤°à¤¡à¤²": 5646,
      "ork": 5647,
      "à¤ĵà¤ľ": 5648,
      "2017": 5649,
      "à¥Ī'": 5650,
      "Ġsl": 5651,
      "à¥ĩ.âĢĻ": 5652,
      "à¥ĩ\".": 5653,
      "à¤°à¤µà¤¶": 5654,
      "à¤īà¤Ŀ": 5655,
      "à¤ķà¤²à¤²": 5656,
      "à¤®à¤¦à¤¹à¤¨": 5657,
      "Ġà¤ıà¤²à¤ª": 5658,
      "able": 5659,
      "à¤¸à¤·": 5660,
      "à¤¢à¤¯": 5661,
      "Ġà¥§à¥¯à¥«à¥¦": 5662,
      "Ġà¤ĩà¤¨à¤ķà¤®": 5663,
      "à¤¤à¤¨à¤ķ": 5664,
      "Ġcon": 5665,
      "à¤²à¤ķà¤ªà¤¦": 5666,
      "Ġmin": 5667,
      "à¤°à¤ķà¤ªà¤£": 5668,
      "à¤¯à¤®à¤§": 5669,
      "Ġà¤ķà¤µà¤¯": 5670,
      "Ġà¤ĸà¤±à¤¯": 5671,
      "82": 5672,
      "Ġà¤¦à¤¸à¤±": 5673,
      "à¥ĩâĢ¦.": 5674,
      "Ġà¤ħà¤µà¤ļ": 5675,
      "Ġà¤ĩà¤¥à¤ªà¤°": 5676,
      "Ġà¤ħà¤«à¤ľà¤²": 5677,
      "à¤ªà¤Ń": 5678,
      "à¤ĩà¤¤à¤ªà¤¤": 5679,
      "à¥«à¥®": 5680,
      "Ġà¤Ĩà¤¯à¤¨": 5681,
      "à¤Ŀà¤£": 5682,
      "ĠAnd": 5683,
      "à¤¡à¤°à¤®à¤§": 5684,
      "Ġà¤ıà¤¨à¤Ĩà¤¯à¤ı": 5685,
      "Ġà¤¤à¤²à¤®": 5686,
      "93": 5687,
      "ï¿½ï¿½ï¿½ï¿½ï¿½ï¿½": 5688,
      "à¤ķà¤±à¤¯": 5689,
      "à¥ĭà¤Ĥ.": 5690,
      "à¤¬à¤²à¤¤": 5691,
      "à¤°à¤²à¤¯": 5692,
      "\")": 5693,
      "Ġà¤ħà¤®à¤°à¤¸": 5694,
      "Ġà¤°à¤¨à¤ļ": 5695,
      "à¤¸à¤ħà¤ª": 5696,
      "à¤Ĩà¤°à¤¤": 5697,
      "61": 5698,
      "à¤¹à¤¡": 5699,
      "à¤¹à¤°à¤¬": 5700,
      "Ġà¤¬à¤¯": 5701,
      "Ġà¤¬à¤¡à¤µ": 5702,
      "Ġà¤§à¤¨à¤°": 5703,
      "Ġà¤Ńà¤°à¤µà¤¸": 5704,
      "à¥«à¥¨": 5705,
      "à¤ıà¤®à¤ķ": 5706,
      "Ġ1989": 5707,
      "à¤£à¤Ń": 5708,
      "Ġà¤¸à¤¬à¤²": 5709,
      "à¤łà¤¶": 5710,
      "à¤µà¤³à¤ķà¤°": 5711,
      "à¤¹à¤µà¤¤": 5712,
      "à¤£à¤¯à¤¹": 5713,
      "Ġà¤¹à¤²à¤µà¤¤": 5714,
      "à¤¤à¤²à¤Ĺ": 5715,
      "à¤®à¤¨à¤°": 5716,
      "à¤ªà¤°à¤¨": 5717,
      "Ġà¤ķà¤ļà¤±à¤¯": 5718,
      "Ġà¤®à¤ĸà¤®à¤²": 5719,
      "à¤Łà¤ķà¤¸à¤°": 5720,
      "Ġà¤ħà¤µà¤ĺà¤¡à¤ªà¤£": 5721,
      "Ġà¤¨à¤®à¤¨": 5722,
      "Ġà¤ıà¤ķà¤Łà¥Ł": 5723,
      "à¤¸à¤Ĺà¤¢": 5724,
      "Ġà¤«à¤¡à¤ķà¤µ": 5725,
      "Ġ104": 5726,
      "Ġà¤ĵà¤¸à¤°": 5727,
      "Ġà¤ĺà¤Łà¤£": 5728,
      "Ġà¤ķà¤°à¤ķ": 5729,
      "à¤Ĺà¤£à¤¦": 5730,
      "à¤īà¤ľ": 5731,
      "Ġà¤īà¤ªà¤¸à¤®": 5732,
      "vi": 5733,
      "Ġà¤²à¤¸à¤£": 5734,
      "Ġà¤ªà¤°à¤ķà¤°": 5735,
      "IV": 5736,
      "Ġà¤¤à¤ªà¤¸": 5737,
      "Ġà¤ªà¤Łà¤µà¤£": 5738,
      "Ġà¤īà¤§à¤³à¤ªà¤Ł": 5739,
      "Ġ!!!": 5740,
      "Ġà¤¨à¤Ń": 5741,
      "Ġhttp": 5742,
      "Ġà¤¬à¤¸à¤Ĺ": 5743,
      "Ġfl": 5744,
      "à¥®à¥¯": 5745,
      "Ġà¤ķà¤ªà¤¡à¥Ł": 5746,
      "ext": 5747,
      "à¤Ĩà¤¯à¤¬": 5748,
      "à¤¦à¤°à¤ªà¤£": 5749,
      "ark": 5750,
      "Ġà¤¯à¤¦": 5751,
      "Ġà¤«à¤£": 5752,
      "Ġad": 5753,
      "Ġà¤ĸà¤³à¤ĸà¤³": 5754,
      "ows": 5755,
      "à¤°à¤¡à¤µ": 5756,
      "Ġà¤ĺà¤¨à¤¶": 5757,
      "Ġà¤ªà¤Ľ": 5758,
      "Ð¾Ð": 5759,
      "à¤Ĩà¤°à¤ıà¤«à¤ļ": 5760,
      "Ġà¤®à¤¥à¤³": 5761,
      "à¤¯à¤°à¤®à¤§": 5762,
      "ĠAM": 5763,
      "Ġà¥§à¥¯à¥¯à¥ª": 5764,
      "à¤¾à¥ħ.": 5765,
      "à¥ªà¥©": 5766,
      "63": 5767,
      "à¤®à¤¡à¤²": 5768,
      "89": 5769,
      "oz": 5770,
      "Ġà¤®à¤°à¤Ĺà¤³": 5771,
      "ĠGoogle": 5772,
      "Ġà¤ħà¤µà¤ľ": 5773,
      "Ġà¤ĺà¤°à¤¬à¤¸à¤²": 5774,
      "Ġà¤ħà¤ļà¤²": 5775,
      "à¥®à¥¬": 5776,
      "ĠPHO": 5777,
      "Ġde": 5778,
      "à¤°à¤®à¤ķà¤ªà¤£": 5779,
      "Ġà¤īà¤ªà¤ħà¤Ń": 5780,
      "à¤¶à¤¨à¤ª": 5781,
      "Ġà¤ķà¤²à¤ķà¤¤": 5782,
      "Ġà¤ıà¤ļà¤ª": 5783,
      "Ġ2500": 5784,
      "ros": 5785,
      "à¤§à¤Ł": 5786,
      "Ġà¤Ĺà¤³à¤£": 5787,
      "rov": 5788,
      "Ġà¤®à¤¦à¤°à¤¶": 5789,
      "Ġ1984": 5790,
      "Ġ102": 5791,
      "Ġà¤Ĺà¤¹à¤¨": 5792,
      "à¥Ńà¥¬": 5793,
      "à¤µà¤¨à¤ļà¤°": 5794,
      "à¤ķà¤Łà¤µ": 5795,
      "à¤¤à¤µà¤¹": 5796,
      "à¥Ģ,\"": 5797,
      "à¤µà¤ĺà¤µ": 5798,
      "à¤°à¤£à¤ª": 5799,
      "à¤ķà¤°à¤Ńà¤°à¤¤": 5800,
      "à¤ĸà¤¡à¥Ł": 5801,
      "à¤Īà¤ķà¤²": 5802,
      "ary": 5803,
      "âĢ¢âĢ¢": 5804,
      "à¤ĸà¤°à¤£": 5805,
      "à¤ĺà¤³": 5806,
      "Ġà¤Ĩà¤®à¤²": 5807,
      "à¤ĵà¤ıà¤¸": 5808,
      "ĠNE": 5809,
      "Í¼": 5810,
      "999": 5811,
      "74": 5812,
      "Ġà¤¦à¤¶à¤®": 5813,
      ",âĢĿ": 5814,
      "à¤§à¤ľà¤¨": 5815,
      "Ġà¤Ĩà¤ľà¤Ĺ": 5816,
      "à¤¤à¤³à¤£": 5817,
      "Ġà¤ĺà¤µà¤ĺà¤µ": 5818,
      "à¥Ńà¥¨": 5819,
      "ĠÂłÂłĠ": 5820,
      "Ġà¤Ĩà¤°à¤®": 5821,
      "84": 5822,
      "à¤¹à¤°à¤ļà¤¨": 5823,
      "Ġà¤īà¤®à¤Łà¤µ": 5824,
      "Ġà¤¸à¤¬à¤³": 5825,
      "à¤¯à¤ķà¤®": 5826,
      "Ġà¤¥à¤µ": 5827,
      "Ġï": 5828,
      "à¤ĵà¤¡": 5829,
      "Ġà¤ķà¤¢à¤Īà¤¤": 5830,
      "à¥«à¥ª": 5831,
      "Ġà¤ħà¤¥à¤£": 5832,
      "71": 5833,
      "ear": 5834,
      "ile": 5835,
      "mat": 5836,
      "Ġà¤¶à¤«": 5837,
      "à¤«à¤¡": 5838,
      "à¤ĩà¤¶": 5839,
      "Ġcl": 5840,
      "Ġà¤µà¤ľà¤¨à¤¦": 5841,
      "Ġà¤īà¤ľà¤³à¤£": 5842,
      "à¤°à¤¹à¤°": 5843,
      "à¤ķà¤°à¤¸": 5844,
      "ron": 5845,
      "ĠâĢĻ,": 5846,
      "à¤µà¤°à¤ª": 5847,
      "Ġà¤ıà¤ķà¤¶": 5848,
      "Ġà¤Ĩà¤®à¤°à¤£": 5849,
      "Ġà¥§à¥¯à¥Ńà¥¦": 5850,
      "à¤ıà¤ĸ": 5851,
      "à¤°à¤µà¤łà¥Ł": 5852,
      "à¤¥à¤ªà¤°": 5853,
      "Ġà¤ľà¤¨à¤¸à¤®": 5854,
      "Ġà¤¤à¤¨à¤ª": 5855,
      "à¤°à¤¤à¤Ńà¤°": 5856,
      "à¤¦à¤®à¤°": 5857,
      "à¥¦à¥«": 5858,
      "à¤Ĺà¤¯": 5859,
      "Ġà¤ĺà¤°à¤ªà¤Ł": 5860,
      "à¤ħà¤¹à¤®à¤¦": 5861,
      "à¤¼à¤¿": 5862,
      "Ġà¤¨à¤¤à¤®à¤¸": 5863,
      "Ġà¤ħà¤¹à¤®à¤¦à¤¨à¤Ĺà¤°à¤®à¤§": 5864,
      "Me": 5865,
      "à¤¾à¤Ĥ,": 5866,
      "à¤ħà¤ªà¤ķ": 5867,
      "Ġà¤ªà¤ļà¤µ": 5868,
      "ru": 5869,
      "à¤®à¤°à¤£à¤¶à¤ķ": 5870,
      "Ġà¤ħà¤Ŀà¤°": 5871,
      "à¤Ĺà¤°à¤®à¤§": 5872,
      "à¤°à¤¥à¤®à¤¦à¤°": 5873,
      "à¤°à¤ĺà¤³à¤µ": 5874,
      "à¤Łà¤µà¤°à¤ļ": 5875,
      "à¥ªà¥§": 5876,
      "à¤²à¤®à¤ľ": 5877,
      "à¤°à¤ĺà¤³à¤²": 5878,
      "ĠÃ": 5879,
      "à¤¥à¤Ł": 5880,
      "Ġà¤Łà¤ķà¤²": 5881,
      "Ġà¤®à¤¤à¤¹": 5882,
      "à¤²à¤¸à¤°à¤ªà¤£": 5883,
      "pt": 5884,
      "Ġà¤¨à¤°à¤µ": 5885,
      "Ġà¤®à¤ĸà¤°": 5886,
      "à¤ľà¤¨à¤¹": 5887,
      "à¤ľà¤¨à¤¬à¤¦": 5888,
      "ike": 5889,
      "und": 5890,
      "zw": 5891,
      "à¤¤à¤¬à¤Ĺ": 5892,
      "à¤ĩà¤Łà¤²": 5893,
      "à¤Ĺà¤°à¤Ĺ": 5894,
      "Ġà¤¦à¤«à¤¨à¤Ń": 5895,
      "à¥Ģ\".": 5896,
      "à¤§à¤µà¤¸": 5897,
      "à¥ĢâĢ¦.": 5898,
      "à¤¯à¤ľà¤°": 5899,
      "à¤Īà¤Ī": 5900,
      "à¥«à¥§": 5901,
      "à¤¯à¤Ĺà¤¡à¤®à¤§": 5902,
      "own": 5903,
      "à¤¨à¤µà¤²": 5904,
      "Ġà¤ĵà¤ıà¤¨à¤ľ": 5905,
      "à¥ĢâĢĻ.": 5906,
      "à¤°à¤«à¤²": 5907,
      "Ġ101": 5908,
      "Ġà¤®à¤¤à¤ªà¤¤": 5909,
      "harashtra": 5910,
      "à¤ħà¤¸à¤¤": 5911,
      "Ġà¤Ńà¤°à¤¤à¤ķ": 5912,
      "à¤¶à¤¶": 5913,
      "Ġà¥ªà¥«à¥¦": 5914,
      "Ġà¤ħà¤¡à¤Ĺà¤³": 5915,
      "================": 5916,
      "à¤Łà¤ķà¤²": 5917,
      "à¤ķà¤¤à¤ļ": 5918,
      "Ġà¤°à¤Ĺ": 5919,
      "Ġwww": 5920,
      "Ġà¤Ĩà¤¦à¤³": 5921,
      "Ġà¤Ĩà¤Ĺà¤°à¤ķà¤°": 5922,
      "à¥Ńà¥®": 5923,
      "Ò»": 5924,
      "Ġà¤¶à¤Łà¤²": 5925,
      "ube": 5926,
      "à¤¶à¤£": 5927,
      "Ġà¥§à¥¯à¥Ńà¥¨": 5928,
      "ĠIPL": 5929,
      "à¤Ĺà¤²à¤µà¤°": 5930,
      "à¤ıà¤®à¤¨": 5931,
      "à¤¬à¤²à¤ļà¤ķ": 5932,
      "Ġà¤µà¤¸à¤Īà¤¤": 5933,
      "à¤¤à¤²à¤ĸ": 5934,
      "à¤¦à¤°à¤ª": 5935,
      "Ġà¥Ĳ": 5936,
      "à¤¹à¤®à¤§": 5937,
      "81": 5938,
      "Ġà¤µà¤¨à¤°": 5939,
      "à¤ľà¤°à¤²": 5940,
      "ĠIST": 5941,
      "Ġgl": 5942,
      "Ġà¥¨à¥¦à¥¨à¥¨": 5943,
      "à¤ħà¤®à¤°": 5944,
      "Ġà¤ļà¤®à¤ķà¤²": 5945,
      "Ġà¤Ŀà¤µà¤£": 5946,
      "à¤Īà¤¸à¤°": 5947,
      "à¥«à¥¯": 5948,
      "po": 5949,
      "à¤¨à¤¦à¤¯": 5950,
      "à¤ħà¤¯": 5951,
      "yn": 5952,
      "à¤£à¤ĸà¤¤": 5953,
      "ĠAh": 5954,
      "Ġà¤ķà¤£à¤¸": 5955,
      "à¤¦à¤°à¤¸": 5956,
      "Ġ1971": 5957,
      "à¥²": 5958,
      "Ġà¤Łà¤µ": 5959,
      "Ġà¤Ńà¤Ĺà¤¦": 5960,
      "à¤Ĺà¤²à¤Ł": 5961,
      "à¤·à¤£à¤ķà¤°": 5962,
      "IS": 5963,
      "à¤¿à¤¾": 5964,
      "à¤²à¤¢à¤ķà¤²": 5965,
      "à¤łà¤¦": 5966,
      "Ġï¿½ï¿½": 5967,
      "ax": 5968,
      "Ġà¤Ĳà¤ķà¤µà¤²": 5969,
      "73": 5970,
      "à¤®à¤²à¤¤": 5971,
      "à¤Ĺà¤²à¤ª": 5972,
      "Ġà¤¸à¤°à¤«à¤°": 5973,
      "à¤ħà¤¦": 5974,
      "à¥Ńà¥ª": 5975,
      "Ġà¤ļà¤Łà¤ķà¤¦": 5976,
      "à¤µà¤¦à¤¤": 5977,
      "Ġà¤ĸà¤²à¤¬à¤¤": 5978,
      "à¤¨à¤¸à¤ļ": 5979,
      "à¤¨à¤°à¤®à¤§": 5980,
      "Ġà¤Ĩà¤ªà¤¨": 5981,
      "Ġà¤ĵà¤µà¤°à¤¨": 5982,
      "à¤ıà¤®à¤¡": 5983,
      "Ġà¤µà¤¢": 5984,
      "att": 5985,
      "Ġà¤īà¤Ĺà¤µ": 5986,
      "à¤°à¤®à¤²": 5987,
      "ĠâĢĶ": 5988,
      "Ġà¤Ĩà¤łà¤ļ": 5989,
      "ÂłĠÂłĠÂłĠÂłĠÂłĠÂłĠÂł": 5990,
      "Ġà¤²à¤Łà¤ķà¤²": 5991,
      "à¤Ķà¤·à¤§": 5992,
      "Ġà¤¬à¤°à¤¸à¤²": 5993,
      "Ġà¤¹à¤²à¤Ĺ": 5994,
      "Ġà¤¬à¤Ŀ": 5995,
      "à¤³à¤Ĺà¤¡": 5996,
      "Ġ135": 5997,
      "à¥Ħ": 5998,
      "à¤Ĺà¤²à¤ķ": 5999,
      "Ġ115": 6000,
      "ips": 6001,
      "à¥¬à¥ª": 6002,
      "Ġà¤ĸà¤µà¤²": 6003,
      "à¥Ī-": 6004,
      "à¤¹à¤°à¤Ł": 6005,
      "Ġà¥©à¥¦à¥¦à¥¦": 6006,
      "à¤Ĺà¤ķà¤¡": 6007,
      "à¤ıà¤Ĩà¤¯": 6008,
      "Ġà¤ķà¤²à¤¬": 6009,
      "à¤Łà¥Łà¤ª": 6010,
      "à¤¯à¤¤à¤°": 6011,
      "à¤ıà¤²à¤¸": 6012,
      "à¥®à¥©": 6013,
      "à¤¯à¤Łà¤²": 6014,
      "à¤¯à¤ľà¤²": 6015,
      "Ġà¤ªà¤¦à¤¸": 6016,
      "Ġà¤ªà¤°à¤¤à¤µ": 6017,
      "âĢĿ.": 6018,
      "ech": 6019,
      "à¤¹à¤¸à¤µà¤¡": 6020,
      "Ġà¤¶à¤ªà¤¥à¤ªà¤¤": 6021,
      "à¤ĵà¤¬": 6022,
      "à¤Łà¤¸à¤ħ": 6023,
      "à¤¥à¤°à¤²": 6024,
      "%,": 6025,
      "Ġse": 6026,
      "Ġà¥§à¥¯à¥Ńà¥«": 6027,
      "Ġà¤°à¤Ŀ": 6028,
      "à¤¯à¤ķà¤²à¤¸": 6029,
      "Ġà¥§à¥¯à¥®à¥¯": 6030,
      "à¥«à¥©": 6031,
      "Ġà¤¸à¤®à¤°à¤¸": 6032,
      "à¥¯à¥©": 6033,
      "Ġà¤ħà¤Ĺà¤£": 6034,
      "Ġà¤ĺà¤®": 6035,
      "à¤¹à¤£à¤ķà¤°": 6036,
      "Ġà¥«à¥¦à¥¦à¥¦": 6037,
      "Ġà¤ıà¤²à¤ľ": 6038,
      "Ġà¤ļà¤®à¤ķà¤¤": 6039,
      "à¤Īà¤¹": 6040,
      "Ġà¤īà¤Ńà¤¯à¤¤": 6041,
      "à¤Ĺà¤¸à¤¹": 6042,
      "à¤ĺà¤¶": 6043,
      "Ġà¤ĩà¤¸à¤µ": 6044,
      "à¥į&": 6045,
      "Ġà¤ķà¤°à¤¤à¤ļ": 6046,
      "Ġwith": 6047,
      "à¤Īà¤¨à¤µà¤°": 6048,
      "Ġà¤¬à¤°à¤¬": 6049,
      "Ġà¥§à¥¯à¥®à¥©": 6050,
      "Ġà¤ĸà¤µà¤³à¤²": 6051,
      "à¤°à¤®à¤¯": 6052,
      "à¤µà¤¨à¤µ": 6053,
      "Ġà¤ıà¤¨à¤Ł": 6054,
      "CR": 6055,
      "ert": 6056,
      "Ġbl": 6057,
      "sh": 6058,
      "Ġqu": 6059,
      "Ġà¤ľà¤¨à¤Ĩ": 6060,
      "à¤Ĺà¤®à¤°à¤µà¤°": 6061,
      "à¤Łà¤°à¤ķ": 6062,
      "à¤¨à¤³": 6063,
      "à¥ĥ.": 6064,
      "à¤ħà¤Ł": 6065,
      "Ġà¤Ńà¤°à¤µà¤¶": 6066,
      "ating": 6067,
      "ĠOn": 6068,
      "à¤¯à¤¸à¤®": 6069,
      "ĠÂ·": 6070,
      "--------------------------------": 6071,
      "à¤ľà¤¨à¤¤": 6072,
      "à¤Łà¤ķà¤³à¤¤": 6073,
      "à¤¦à¤¨à¤¹": 6074,
      "à¤ľà¤¨à¤®à¤§": 6075,
      "à¤¹à¤²à¤®à¤§": 6076,
      "Ġà¤ķà¤¡à¤µà¤Ł": 6077,
      "à¤¸à¤Łà¤²": 6078,
      "à¥ĭ),": 6079,
      "Ġà¤§à¤µà¤²": 6080,
      "à¤¡à¤µà¤²à¤¶": 6081,
      "à¥Ńà¥§": 6082,
      "à¤¤à¤µà¤¸": 6083,
      "à¤ķà¤°à¤µà¤°": 6084,
      "à¥¯à¥ª": 6085,
      "Ġà¤ħà¤¹à¤®à¤¦à¤¨à¤Ĺà¤°à¤ļ": 6086,
      "Ġà¤¡à¤¬à¤ĺ": 6087,
      "ĠKol": 6088,
      "Ġà¤ľà¤²à¤¸à¤®": 6089,
      "à¤Łà¤£à¤®": 6090,
      "Too": 6091,
      "à¤ľà¤®à¤¨": 6092,
      "à¤¸à¤¹à¤ķ": 6093,
      "à¤Ĺà¤µà¤³à¤£": 6094,
      "Ġà¤Ĺà¤¡à¤Ĺà¤¡": 6095,
      "à¤¦à¤¯à¤¸à¤®": 6096,
      "à¤ıà¤®à¤Ĩà¤¯": 6097,
      "Ġà¤¹à¤°à¤µà¤£": 6098,
      "Ġà¤²à¤ĸà¤²": 6099,
      "à¤®à¤¥": 6100,
      "à¤ĩà¤Ŀ": 6101,
      "Ġà¤¬à¤²à¤¸": 6102,
      "Ġà¥§à¥¯à¥¬à¥¨": 6103,
      "ĠGoa": 6104,
      "à¤¸à¤¬à¤¦": 6105,
      "à¤ıà¤®à¤§": 6106,
      "old": 6107,
      "ĠAhmed": 6108,
      "Ġà¤¨à¤µà¤®": 6109,
      "Ġà¥§à¥§à¥«": 6110,
      "à¤¾,.": 6111,
      "Ġà¤ľà¤²à¤®": 6112,
      "zwj": 6113,
      "red": 6114,
      "à¤²à¤°à¤¶": 6115,
      "esh": 6116,
      "à¤Ĩà¤°à¤Ŀ": 6117,
      "Ġà¤¸à¤¹à¤¸à¤ļ": 6118,
      "à¤Łà¤¨à¤ª": 6119,
      "à¤£à¤ĸ": 6120,
      "à¤Īà¤¯": 6121,
      "à¤Īà¤ķà¤¡": 6122,
      "ls": 6123,
      "à¤Ĩà¤ľà¤ļ": 6124,
      "à¤ļà¤µà¤¡à¤ļ": 6125,
      "à¤¬à¤Īà¤ª": 6126,
      "à¤¹à¤Łà¤ķà¤°": 6127,
      "Ġà¤ľà¤ľ": 6128,
      "Ġ1985": 6129,
      "DA": 6130,
      "Ġà¤ķà¤¦à¤°": 6131,
      "Ġà¤ĩà¤¤à¤®": 6132,
      "Ġà¤ªà¤¤à¤ª": 6133,
      "à¤°à¤¹à¤ľ": 6134,
      "Ġà¥§à¥¯à¥®à¥«": 6135,
      "Ġà¤łà¤£": 6136,
      "à¤ªà¤°à¤µà¤°": 6137,
      "à¤¬à¤Īà¤¤à¤¹": 6138,
      "à¤¯à¤Ĺà¤¡à¤ļ": 6139,
      ",âĢĻâĢĻ": 6140,
      "hat": 6141,
      "Ġà¤¸à¤£à¤¸à¤£": 6142,
      "Ġà¥¨à¥«à¥¦à¥¦": 6143,
      "na": 6144,
      "à¥¬à¥¯": 6145,
      "Ġà¤¢à¤µà¤³à¤¤": 6146,
      "à¤°à¤ķà¤¸": 6147,
      "TM": 6148,
      "à¥¬à¥®": 6149,
      "à¤²à¤®à¤¡": 6150,
      "à¤§à¤ªà¤£": 6151,
      "Ġà¤ªà¤¡à¤µà¤³": 6152,
      "Ġà¤ħà¤¡à¤¤": 6153,
      "Ġà¤ĸà¤µà¤£": 6154,
      "à¤Ĺà¤£à¤¸": 6155,
      "%)": 6156,
      "à¤ĺà¤³à¤£": 6157,
      "Ġà¤¦à¤°à¤¹": 6158,
      "Ġà¤¬à¤³à¤µ": 6159,
      "à¤łà¤¬": 6160,
      "à¤¹à¤°à¤ª": 6161,
      "à¤¾à¥Ī": 6162,
      "à¤®à¤¨à¤µ": 6163,
      "ory": 6164,
      "Ġà¤Ĩà¤°à¤ıà¤¸": 6165,
      "Ġà¤Łà¤°à¤«à¤²": 6166,
      "à¤ĩà¤ļ": 6167,
      "Ġà¤įà¤Ĺ": 6168,
      "Ġà¤Ĩà¤ªà¤Ĩà¤ªà¤²": 6169,
      "à¤¡à¤µà¤¡": 6170,
      "à¤µà¤°à¤£à¤ªà¤¤": 6171,
      "à¤ķà¤ļà¤ķ": 6172,
      "à¤ıà¤®à¤µà¤°": 6173,
      "à¤Ĺà¤³à¤¤": 6174,
      "Ġà¤ĵà¤Ŀà¤°": 6175,
      "79": 6176,
      "Ġdec": 6177,
      "à¤®à¤¨à¤ļ": 6178,
      "à¤µà¤°à¤µ": 6179,
      "à¤¡à¤ķà¤ªà¤ļ": 6180,
      "Ġà¤¤à¤¡à¤µ": 6181,
      "à¤ªà¤°à¤¦": 6182,
      "à¤¡à¤¸à¤¨": 6183,
      "à¥¬à¥©": 6184,
      "Ġà¤ľà¤®à¤¶": 6185,
      "à¤¯à¤¸à¤°à¤ķ": 6186,
      "à¤¯à¤ķà¤¥": 6187,
      "à¤ªà¤°à¤ĸ": 6188,
      "à¤µà¤¨à¤ª": 6189,
      "à¤¡à¤µà¤²à¤¦": 6190,
      "à¤Łà¤¬à¤¦": 6191,
      "Ġà¤¦à¤®à¤²": 6192,
      "à¤¸à¤°à¤¨": 6193,
      "à¥¬à¥¨": 6194,
      "Ġà¤¢à¤ķà¤²à¤¤": 6195,
      "à¤«à¤Ĺ": 6196,
      "à¤µà¤¡à¤ķà¤°": 6197,
      "à¤ĳà¤ª": 6198,
      "Ġà¤įà¤¡à¤µ": 6199,
      "Ġ288": 6200,
      "Ġà¤ĨÃŃ": 6201,
      "Ġ106": 6202,
      "à¤ıà¤¨à¤ıà¤ķ": 6203,
      "rots": 6204,
      "IP": 6205,
      "à¤ħà¤°à¤¡": 6206,
      "Ġà¤ĩà¤¯": 6207,
      "Ġ2021": 6208,
      "Ġare": 6209,
      "à¤²à¤¨à¤ļ": 6210,
      "Ġà¤ĺà¤°à¤¤": 6211,
      "à¤¡à¤²à¤ļ": 6212,
      "Ġà¤Ĩà¤°à¤ıà¤¸à¤ıà¤¸": 6213,
      "Ġà¤Ĳà¤¹": 6214,
      "à¤Ŀà¤«": 6215,
      "à¤³à¤Ī": 6216,
      "à¤Īà¤ķà¤¨": 6217,
      "Ġà¤Ĩà¤°à¤ľ": 6218,
      "à¤°à¤¦à¤¸": 6219,
      "à¤µà¤Ĺà¤°": 6220,
      "Ġà¤Ĩà¤¯à¤Ĩà¤°à¤¸": 6221,
      "Ġ1972": 6222,
      "Ġà¤ĸà¤¦à¤ĸà¤¦": 6223,
      "à¤§à¤µà¤ļ": 6224,
      "Ġà¤ıà¤®à¤ıà¤²à¤¡": 6225,
      "à¤ıà¤¨à¤Ĩà¤°à¤¸": 6226,
      "à¤®à¤¤à¤µ": 6227,
      "Ġ103": 6228,
      "Ġà¤Īà¤¥": 6229,
      "ater": 6230,
      "ice": 6231,
      "air": 6232,
      "man": 6233,
      "à¤®à¤§à¤¡": 6234,
      "à¤±à¤¹": 6235,
      "à¤ķà¤°à¤£à¤ļ": 6236,
      "ines": 6237,
      "Ġcur": 6238,
      "à¤°à¤«à¤¡": 6239,
      "à¥Ģ,'": 6240,
      "Ġà¤¸à¤¡à¤ª": 6241,
      "Ġà¤īà¤ªà¤ĸ": 6242,
      "à¥Ńà¥©": 6243,
      "oun": 6244,
      "à¤²à¤ĺà¤°à¤ļ": 6245,
      "TC": 6246,
      "à¥¯à¥¨": 6247,
      "à¤¸à¤¨à¤¸": 6248,
      "Ġà¤īà¤²à¤Łà¤¤": 6249,
      "Ġtr": 6250,
      "à¤Ŀà¤®à¤ļ": 6251,
      "à¤¤à¤³à¥Ł": 6252,
      "Ġà¥§à¥¦à¥ª": 6253,
      "Ġà¤ªà¤³à¤µà¤£": 6254,
      "à¤ľà¤¯à¤¨à¤Ĺà¤°": 6255,
      "Ġà¤Ŀà¤Łà¤¤": 6256,
      "Ġ1960": 6257,
      "enc": 6258,
      "ĠCom": 6259,
      "à¤§à¤Ń": 6260,
      "Ã©": 6261,
      "à¤¯à¤²à¤¨": 6262,
      "Ġà¤ľà¤²à¤ªà¤°": 6263,
      "ots": 6264,
      "à¤Ńà¤Ĺà¤µ": 6265,
      "Ġà¥²à¤¡": 6266,
      "à¥į?": 6267,
      "à¤ıà¤ħà¤°": 6268,
      "à¤·à¤ķà¤¹": 6269,
      "à¥¬à¥§": 6270,
      "à¤¡à¤²à¤Ĺ": 6271,
      "à¤°à¤¹à¤®": 6272,
      "ĠLED": 6273,
      "Ġ&#": 6274,
      "à¥¯à¥§": 6275,
      "Ġ}": 6276,
      "Ġ1988": 6277,
      "à¤¹à¤³à¤£": 6278,
      "Ġà¤²à¤¢à¥Ł": 6279,
      "à¤ıà¤¸à¤ıà¤¨à¤ıà¤²à¤ļ": 6280,
      "à¤ķà¤¨à¤ļ": 6281,
      "Ġ1983": 6282,
      "AM": 6283,
      "Ġà¤Ĺà¤³à¤ļ": 6284,
      "Ġà¤§à¤£": 6285,
      "à¤¾âĢĻ.": 6286,
      "Ġà¤Ĺà¤µà¤Ī": 6287,
      "Ġà¤Ńà¤Łà¤ķà¤¤": 6288,
      "à¤°à¤Ŀ": 6289,
      "à¤¹à¤¹": 6290,
      "2016": 6291,
      "Ġà¤ľà¤¯à¤¤": 6292,
      "ĠÂłĠÂłĠ": 6293,
      "à¤Łà¤ľà¤µà¤³": 6294,
      "à¤·à¤£à¤¤à¤ľ": 6295,
      "Ġà¥§à¥ªà¥ª": 6296,
      "à¤°à¤®à¤£à¤§": 6297,
      "Ġï¿½": 6298,
      "à¤īà¤¥": 6299,
      "Ġà¤ªà¤¸à¤°à¤µà¤¤": 6300,
      "à¤¯à¤£à¤Ĺ": 6301,
      "Ġ107": 6302,
      "Ġà¤°à¤£à¤Ĺ": 6303,
      "à¤¦à¤¶à¤®": 6304,
      "à¤Īà¤¦à¤²": 6305,
      "à¤°à¤ĸà¤¡": 6306,
      "Ġà¤Ńà¤¯à¤ªà¤Ł": 6307,
      "ki": 6308,
      "à¤¹à¤¨à¤°": 6309,
      "......": 6310,
      "à¤Īà¤Łà¤¨": 6311,
      "à¥®à¥ª": 6312,
      "Ġ112": 6313,
      "line": 6314,
      "à¤Ĺà¤²à¤®": 6315,
      "Ġà¤¨à¤Ĺà¤°à¤ķà¤°": 6316,
      "Ġà¤Łà¤°à¤¬": 6317,
      "Ġ1970": 6318,
      "IT": 6319,
      "à¥ĩÃ·": 6320,
      "Ġà¥Ńà¥«à¥¦": 6321,
      "à¤³à¤«": 6322,
      "à¤¯à¤ĺ": 6323,
      "Ġ240": 6324,
      "à¤Ĺà¤¡à¥Ł": 6325,
      "Ġà¤ħà¤¸à¤ļ": 6326,
      "AZ": 6327,
      "han": 6328,
      "Ġà¤®à¤²à¤¨": 6329,
      "Ġ175": 6330,
      "AN": 6331,
      "Ġà¤ªà¤°à¤Ĺ": 6332,
      "ight": 6333,
      "Ġà¤¨à¤Łà¤°": 6334,
      "Ġà¥§à¥¦à¥§": 6335,
      "à¤·à¤ķà¤°": 6336,
      "à¤ľà¤ªà¤¤à¤°": 6337,
      "à¤®à¤Ńà¤°": 6338,
      "Ġà¤īà¤Ŀ": 6339,
      "à¤Ńà¤°à¤ļ": 6340,
      "à¤°à¤®à¤°à¤£": 6341,
      "Ġà¤ľà¤®à¤µà¤£": 6342,
      "Ġà¤ļà¤ªà¤ĸà¤²": 6343,
      "à¤²à¤®à¤¨": 6344,
      "Ġà¤£": 6345,
      "à¤ıà¤ľ": 6346,
      "à¥ĩ);": 6347,
      "à¤Ĺà¤²à¤Ĺ": 6348,
      "à¤Ĩà¤¦à¤°": 6349,
      "à¤¡à¤£à¤Ĺà¤¡": 6350,
      "à¤¶à¤¨à¤ķà¤¡": 6351,
      "à¥®à¥¨": 6352,
      "Ġà¤¤à¤°à¤²": 6353,
      "à¤ªà¤£à¤ľ": 6354,
      "ĠHD": 6355,
      "Ġà¤ľà¤¸à¤ľà¤¶": 6356,
      "Ġà¤ªà¤²à¤Łà¤£": 6357,
      "Ġà¤°à¤£à¤°": 6358,
      "Ġà¤¸à¤¹à¤¨à¤¶à¤ķ": 6359,
      "ids": 6360,
      "à¤¾âĢĵ": 6361,
      "à¥®à¥Ń": 6362,
      "IX": 6363,
      "Ġà¤Ĺà¤Ŀ": 6364,
      "Ġà¤Ŀà¤£": 6365,
      "Ġà¤«à¤²à¤¦": 6366,
      "à¤ªà¤¤à¤ļ": 6367,
      "à¤¸à¤µà¤²": 6368,
      "à¤Ĭà¤ľ": 6369,
      "Ġà¤Ĩà¤¯à¤ıà¤¨à¤ıà¤¸": 6370,
      "Ġà¤Ĩà¤Ĺà¤ª": 6371,
      "Ġà¤§à¤°à¤ª": 6372,
      "Ġà¤Ĩà¤µà¤°à¤²": 6373,
      "Ġà¤ħà¤ªà¤ļà¤¨": 6374,
      "++++": 6375,
      "Ġà¤µà¤ļà¤¨à¤¬à¤¦": 6376,
      "Ġà¤¸à¤°à¤ªà¤Łà¤£": 6377,
      "Ġà¤Ńà¤°à¤ķà¤Łà¤²": 6378,
      "à¤¦à¤°à¤ķ": 6379,
      "à¤¯à¤¨à¤¸": 6380,
      "à¤ļà¤¨à¤®à¤§": 6381,
      "****************": 6382,
      "Ġà¤®à¤³à¤£": 6383,
      "à¤¡à¤ľ": 6384,
      "Ġà¤¨à¤ª": 6385,
      "à¤¦à¤°à¤Ĺà¤¡": 6386,
      "à¤ıà¤ķà¤¦": 6387,
      "à¤Ĺà¤°à¤°": 6388,
      "Ġ111": 6389,
      "à¤¹à¤°à¤¸": 6390,
      "Ġcont": 6391,
      "à¤¬à¤²à¤¸": 6392,
      "Ġà¤¨à¤°à¤¹à¤°": 6393,
      "Ġ',": 6394,
      "Ġà¤ĵà¤ªà¤¨à¤ļ": 6395,
      "Ġà¤¬à¤²à¤°": 6396,
      "Ġà¤ħà¤«à¤°": 6397,
      "Ġà¤Łà¤³": 6398,
      "rew": 6399,
      "Ġover": 6400,
      "à¤µà¤°à¤£à¤®": 6401,
      "ics": 6402,
      "MeToo": 6403,
      "oil": 6404,
      "Ġà¤Ĩà¤µà¤Ł": 6405,
      "Ġà¤²à¤¢à¤µà¤¯": 6406,
      "WS": 6407,
      "Ġà¤ķà¤°à¤¸": 6408,
      "à¤Ŀà¤¡à¤¤": 6409,
      "à¤®à¤£à¤Ĺ": 6410,
      "à¤¹à¤°à¤µà¤°": 6411,
      "Ġà¤ĸà¤°à¤Ĺ": 6412,
      "Ġà¤ıà¤ķà¤°à¤ķà¤®": 6413,
      "à¤ħà¤¡à¤ļà¤£": 6414,
      "Ġà¤ĸà¤°à¤¬": 6415,
      "à¤ļà¤¨à¤ļ": 6416,
      "à¤¹à¤¨à¤²": 6417,
      "are": 6418,
      "à¤°à¤§à¤°": 6419,
      "ĠNew": 6420,
      "tr": 6421,
      "à¤³à¤ķà¤¡": 6422,
      "Ġà¤¸à¤¦à¤Ĺ": 6423,
      "âĢĻ!": 6424,
      "à¤ªà¤¨à¤²": 6425,
      "à¤®à¤°à¤¨": 6426,
      "Ġà¤µà¤Ł": 6427,
      "à¤Łà¤¨à¤²": 6428,
      "à¤£à¤ķà¤¡": 6429,
      "à¤¤à¤°à¤¸": 6430,
      "Ġ1947": 6431,
      "Ġà¤ħà¤¨à¤µ": 6432,
      "Ġcarrots": 6433,
      "Ġà¤¶à¤°à¤®": 6434,
      "à¤Ĭà¤Łà¤°": 6435,
      "à¤ķà¤°à¤¦à¤¨": 6436,
      "Ġac": 6437,
      "Ġ\\": 6438,
      "Ġ1950": 6439,
      "à¤¡à¤¸à¤®": 6440,
      "Ġà¤ķà¤³à¤¸à¤ķà¤°": 6441,
      "Ġà¤ĨÃŃà¤¥à¤ķ": 6442,
      "ĠPro": 6443,
      "à¤ıà¤Ī": 6444,
      "Ġà¤§à¤¡à¤ķà¤£": 6445,
      "IA": 6446,
      "à¤®à¤¸à¤¤": 6447,
      "Ġà¤§à¤®à¤¨": 6448,
      "Ġà¤ıà¤¸à¤Ĩà¤°à¤ı": 6449,
      "2014": 6450,
      "Ġ1986": 6451,
      "Ġ:)": 6452,
      "Ġà¤ĸà¤£à¤£": 6453,
      "af": 6454,
      "à¤¦à¤°à¤ķà¤°": 6455,
      "Ġà¤§à¤¡à¤§": 6456,
      "à¤¨à¤¯à¤¨": 6457,
      "à¤µà¤²à¤£": 6458,
      "Ġà¤ħà¤µà¤¯à¤µà¤¯": 6459,
      "Ġà¤ħà¤¢à¤³": 6460,
      "à¤Łà¤®à¤°": 6461,
      "Ġà¤¬à¤¦à¤ķ": 6462,
      "Ġà¤¢à¤¸": 6463,
      "Ġà¤§à¤¨à¤²": 6464,
      "à¤°à¤¯à¤·": 6465,
      "Ġà¤§à¤°à¤ªà¤ķà¤¡": 6466,
      "ire": 6467,
      "à¤ıà¤²à¤¨": 6468,
      "à¤Łà¤¤à¤®": 6469,
      "à¤¨à¤ĸà¤¡": 6470,
      "ĠIS": 6471,
      "à¥ģâĢĻ": 6472,
      "à¤ľà¤ĸ": 6473,
      "ĠCP": 6474,
      "Ġà¤¬à¤®": 6475,
      "Ġà¤Ĩà¤²à¤®": 6476,
      "Ġà¤īà¤ªà¤¸à¤²": 6477,
      "ld": 6478,
      "Ġà¤¨à¤¸à¤°": 6479,
      "à¤¸à¤®à¤Ł": 6480,
      "à¤¯à¤°à¤®": 6481,
      "Ġà¤Ĩà¤Łà¤²": 6482,
      "Ġà¤¡à¤¬à¤ķ": 6483,
      "Ġà¤¸à¤¶à¤°": 6484,
      "à¥Ģ.)": 6485,
      "Ġà¤¥à¤ķà¤µà¤²": 6486,
      "à¤¶à¤²à¤¤": 6487,
      "à¥Ĥ),": 6488,
      "à¤¨à¤²à¤®à¤§": 6489,
      "à¤ĳà¤Ĺà¤¸": 6490,
      "Ġà¥§à¥¯à¥Ńà¥Ń": 6491,
      "à¤ķà¤ªà¤Ł": 6492,
      "à¤Ĥ\"": 6493,
      "Ġà¤ľà¤°à¤¬": 6494,
      "Ġà¤¤à¤³à¤µà¤²à¤ķà¤°": 6495,
      "à¤Ĺà¤ĸ": 6496,
      "ĠUSB": 6497,
      "Ġà¤Ķà¤ķ": 6498,
      "à¤Īà¤¨à¤®à¤§": 6499,
      "à¥ĩà¤¼.": 6500,
      "à¤¬à¤ªà¤°": 6501,
      "Ġà¤ħà¤µà¤¤à¤°à¤£": 6502,
      "à¤²à¤ľà¤µà¤³": 6503,
      "Ġà¤ļà¤ķà¤µ": 6504,
      "à¤¯à¤ķà¤µà¤¡": 6505,
      "Ġà¤ĵà¤®à¤ķ": 6506,
      "à¤ıà¤¸à¤¡": 6507,
      "à¤¤à¤®à¤ļ": 6508,
      "Ġà¥§à¥¯à¥®à¥¬": 6509,
      "Ġ1987": 6510,
      "à¥ĩâĢĿ,": 6511,
      "Ġpour": 6512,
      "Ġà¤¨à¤ļ": 6513,
      "à¤¦à¤°à¤¤": 6514,
      "Ġà¤µà¤ĸ": 6515,
      "à¤°à¤ľà¤ķà¤°": 6516,
      "à¤łà¤²à¤°": 6517,
      "oots": 6518,
      "à¤Ŀà¤¸": 6519,
      "à¤Łà¤²à¤¨": 6520,
      "Ġà¤Ĩà¤¯à¤ıà¤¸à¤Ĩà¤¯": 6521,
      "à¤ªà¤¡à¥Ł": 6522,
      "Ġà¤ĵà¤°à¤ĸà¤¡": 6523,
      "à¤Īà¤Łà¤¸": 6524,
      "Ġ124": 6525,
      "à¤¤à¤¶à¤¬": 6526,
      "à¤µà¤Ĺà¤¤": 6527,
      "à¤¡à¤°à¤°à¤¨": 6528,
      "2015": 6529,
      "ez": 6530,
      "à¤¨à¤ī": 6531,
      "Ġà¤²à¤°": 6532,
      "Ġ122": 6533,
      "!!!": 6534,
      "à¥ĭà¥¤": 6535,
      "à¤¬à¤²à¤ª": 6536,
      "ĠLokmat": 6537,
      "à¤Łà¤ķà¤Ł": 6538,
      "Ġà¤¢à¤®": 6539,
      "Ġà¥§à¥§à¥¨": 6540,
      "à¤¤à¤ªà¤Ł": 6541,
      "à¤¤à¤°à¤µ": 6542,
      "Ġà¥§à¥¦à¥¨": 6543,
      "ana": 6544,
      "Ġà¤°à¤¸à¤Ĺ": 6545,
      "à¤īà¤¡à¤µ": 6546,
      "Ġ650": 6547,
      "Ġà¤Ŀà¤£à¤Ŀà¤£": 6548,
      "ock": 6549,
      "à¤Łà¥Łà¤Ĺ": 6550,
      "à¤§à¤°à¤¨": 6551,
      "Ġsm": 6552,
      "Ġà¤ªà¤³à¤¸": 6553,
      "Ġà¤°à¤£à¤¶": 6554,
      "à¤Ĩà¤Ĭ": 6555,
      "Ġà¤ħà¤¡à¤ĸ": 6556,
      "à¤°à¤¤à¤®à¤§": 6557,
      "à¤¯à¤¤à¤¨à¤Ĺà¤°": 6558,
      "KY": 6559,
      "à¥¨à¥¦à¥§à¥Ń": 6560,
      "Ġà¤Ĩà¤²à¤¬": 6561,
      "à¤ļà¤ªà¤¦à¤¸": 6562,
      "à¥ĩà¤ĥ": 6563,
      "à¤®à¤¯à¤ķ": 6564,
      "uck": 6565,
      "à¤¥à¤¯": 6566,
      "ade": 6567,
      "Ġà¤ļà¤ķà¤²": 6568,
      "à¥Ńà¥¯": 6569,
      "à¤ªà¤¸à¤®à¤§": 6570,
      "Ġà¤ĸà¤¤à¤°à¤¨": 6571,
      "à¤¨à¤Īà¤²": 6572,
      "à¤¨à¤¨à¤Ĺà¤°": 6573,
      "Ġà¤°à¤£à¤¸": 6574,
      "ĠÂłÂłÂł": 6575,
      "ĠMumbai": 6576,
      "à¤Ĺà¤²à¤µ": 6577,
      "à¤µà¤°à¤®": 6578,
      "Ġà¤¸à¤®à¤¸à¤®": 6579,
      "Ġà¤²à¤ķà¤¡": 6580,
      "Ġ1800": 6581,
      "ĠThe": 6582,
      "à¥®à¥§": 6583,
      "à¥ĢâĢĵ": 6584,
      "à¤¸à¤°à¤³": 6585,
      "à¥Ī)": 6586,
      "Ġ117": 6587,
      "à¤¦à¤ķà¤¡": 6588,
      "uz": 6589,
      "Ġà¤ĺà¤°à¤µ": 6590,
      "Ġà¤ĵà¤°à¤¡à¤£": 6591,
      "à¤¯à¤ĳà¤ķ": 6592,
      "Ġà¤Ĩà¤ı": 6593,
      "Ġà¤ªà¤¥à¤¨": 6594,
      "à¤¡à¤ļà¤¡": 6595,
      "à¤¯à¤Łà¤¨à¤®": 6596,
      "Ġ360": 6597,
      "Ġà¤ļà¤ķà¤ļà¤ķ": 6598,
      "Ġdis": 6599,
      "ĠEn": 6600,
      "hats": 6601,
      "à¤¥à¤¨à¤Ĺà¤°": 6602,
      "Ġà¤Ńà¤°à¤Ĺà¤ļ": 6603,
      "her": 6604,
      "Ġo": 6605,
      "Ġà¤®à¤¤à¤²": 6606,
      "Ġà¤ıà¤¡à¤µà¤°": 6607,
      "aya": 6608,
      "Ġà¤¥à¤°à¤ķ": 6609,
      "Ġà¤ħà¤®à¤³à¤¨": 6610,
      "Ġà¥§à¥¯à¥®à¥®": 6611,
      "à¤£à¤¥à¤³": 6612,
      "Ġà¤¦à¤°à¤¦": 6613,
      "à¤¶à¤¯à¤ªà¤£": 6614,
      "Ġà¤ķà¤³à¤®à¤¨": 6615,
      "ĠDel": 6616,
      "Ġà¤ķà¤ªà¤Ł": 6617,
      "à¤ĵà¤³à¤ĸ": 6618,
      "Ġà¤¹à¤°à¤¦": 6619,
      "Ġà¤°à¤ľà¤¤": 6620,
      "à¤ľà¤ªà¤¥": 6621,
      "Ġà¤¡à¤¸": 6622,
      "Ġà¤īà¤®à¤Łà¤£": 6623,
      "à¤·à¤®à¤ªà¤£": 6624,
      "Ġyou": 6625,
      "Ġà¤°à¤ľà¤ª": 6626,
      "à¤°à¤ªà¤Łà¤¹": 6627,
      "à¤²à¤Ńà¤¤": 6628,
      "Ġsal": 6629,
      "à¤¹à¤ķà¤¤": 6630,
      "ond": 6631,
      "IM": 6632,
      "NT": 6633,
      "à¤¬à¤¸à¤ª": 6634,
      "à¤ļà¤Ł": 6635,
      "à¤¹à¤¬à¤¦": 6636,
      "Ġà¤¸à¤®à¤¶": 6637,
      "à¤ľà¤¯à¤°": 6638,
      "Ġ550": 6639,
      "à¤²à¤Łà¤²": 6640,
      "à¤Łà¤ĩ": 6641,
      "Ġà¤°à¤Īà¤¸": 6642,
      "à¤ķà¤°à¤¬à¤°": 6643,
      "ations": 6644,
      "à¤®à¤¸à¤²à¤¤": 6645,
      "Ġà¤Ĩà¤²à¤Ł": 6646,
      "âĢįà¥ĥ": 6647,
      "à¤¨à¤¹à¤°": 6648,
      "Ġà¥§à¥§à¥ª": 6649,
      "à¤ķà¤®à¤¤à¤ļ": 6650,
      "Ġà¤¯à¤®à¤ķ": 6651,
      "à¤ķà¤¡à¤²": 6652,
      "Ġcomp": 6653,
      "Ġà¤§à¤Ĺà¤§": 6654,
      "à¤¯à¤ľà¤¨": 6655,
      "à¤¹à¤±à¤¯": 6656,
      "à¥Ģ,âĢĿ": 6657,
      "Ġ118": 6658,
      "Ġà¤Ĳà¤ļ": 6659,
      "Ġà¤¬à¤¡à¥Ł": 6660,
      "Ġà¤ħà¤¹à¤®à¤¦à¤ª": 6661,
      "Ġà¥§à¥§à¥¯": 6662,
      "à¤¨à¤¦à¤°": 6663,
      "à¤®à¤¸à¤¹": 6664,
      "Ġà¤ħà¤ªà¤¸": 6665,
      "Ġà¤·à¤·": 6666,
      "Ġà¤Ĺà¤°à¤µ": 6667,
      "Ġà¤¬à¤ĸà¤°": 6668,
      "sp": 6669,
      "Ġà¤īà¤ĸà¤¡": 6670,
      "Ġ190": 6671,
      "à¤¬à¤°à¤µ": 6672,
      "Ġà¤Łà¥Ł": 6673,
      "Ġà¤ıà¤¯à¤°": 6674,
      "Ġà¤µà¤¸à¤®à¤¤": 6675,
      "à¥¦à¥®": 6676,
      "Ġà¤µà¤µ": 6677,
      "Ġà¤ĵà¤¦": 6678,
      "Ġà¥¨à¥¨à¥¦": 6679,
      "à¤Łà¤ļà¤ķ": 6680,
      "ushes": 6681,
      "à¤°à¤¡à¤£": 6682,
      "à¥Ī!": 6683,
      "à¤ľà¤¨à¤µ": 6684,
      "à¤¸à¤Ĺà¤¡à¤ļ": 6685,
      "Ġà¤Ĺà¤¡à¤Ĺà¤¡à¤²": 6686,
      "Ġà¤īà¤ķà¤°": 6687,
      "à¤ĩà¤¸à¤ļ": 6688,
      "ko": 6689,
      "led": 6690,
      "à¤ľà¤¯à¤²": 6691,
      "Ġà¤ħà¤¨à¤ĺ": 6692,
      "à¤µà¤ķà¤¡": 6693,
      "Ġà¤¹à¤²à¤£": 6694,
      "Ġà¤ªà¤¬à¤ľ": 6695,
      "Ġà¤°à¤¥à¤¯": 6696,
      "gan": 6697,
      "Ġà¤µà¤Ŀ": 6698,
      "Ġà¤®à¤¨à¤¨": 6699,
      "à¤²à¤®à¤§à¤²": 6700,
      "Ġà¤ķà¤³à¤µà¤³": 6701,
      "oss": 6702,
      "Ġ<": 6703,
      "rows": 6704,
      "Ġà¤¸à¤¡à¤²": 6705,
      "à¥Ĥà¥Ĥ": 6706,
      "à¤Łà¤¸à¤ļ": 6707,
      "Ġà¤ľà¤¯à¤ľà¤¯à¤ķ": 6708,
      "rab": 6709,
      "à¥¦à¥¯": 6710,
      "à¤®à¤²à¤²": 6711,
      "à¤®à¤¨à¤µà¤®": 6712,
      "ads": 6713,
      "à¤¦à¤³à¤µà¤¨": 6714,
      "800": 6715,
      "Ġà¤¨à¤®à¤µ": 6716,
      "Ġà¤Ńà¤µà¤¤": 6717,
      "ĠCrim": 6718,
      "Ġ230": 6719,
      "Ġà¤¤à¤°à¤¬": 6720,
      "Ġà¤§à¤ľ": 6721,
      "à¤¸à¤°à¤¡": 6722,
      "à¤®à¤¨à¤®": 6723,
      "Ġà¥§à¥§à¥Ń": 6724,
      "à¤ıà¤®à¤Ī": 6725,
      "Ġà¤ıà¤µà¤¢à¤ļ": 6726,
      "Ġ123": 6727,
      "Ġshoots": 6728,
      "IVE": 6729,
      "Ġà¤Ńà¤°à¤¡à¤²": 6730,
      "Ø§": 6731,
      "ĠSp": 6732,
      "Ġà¤ªà¤ªà¤Ī": 6733,
      "Ġà¤®à¤¨à¤°": 6734,
      "ĠXIX": 6735,
      "à¤µà¤ķà¤²": 6736,
      "à¤¦à¤µà¤ļ": 6737,
      "à¤²à¤¸à¤®": 6738,
      "à¤ķà¤²à¤¸": 6739,
      "ara": 6740,
      "Ġà¥§à¥¯à¥®à¥¨": 6741,
      "Ġà¤ıà¤²à¤«": 6742,
      "à¤µà¤³à¤®à¤§": 6743,
      "à¤µà¤§à¤ªà¤£": 6744,
      "Ãĳ": 6745,
      "Ġà¤®à¤ľà¤¦": 6746,
      "Ġà¤ļà¤£à¤ļà¤£": 6747,
      "ÂłĠÂł": 6748,
      "à¤Ĩà¤³": 6749,
      "à¤®à¤¨à¤¨": 6750,
      "à¤¸à¤µà¤£": 6751,
      "ĠâĨ": 6752,
      "ĠNEWS": 6753,
      "à¤Īà¤Ńà¤ķ": 6754,
      "reak": 6755,
      "Ġà¤ħà¤ľà¤¹à¤°": 6756,
      "à¤²à¤ļà¤°": 6757,
      "à¤¸à¤®à¤ķ": 6758,
      "à¤¦à¤²à¤Ĺ": 6759,
      "Ġà¤ħà¤¸à¤¹à¤ķ": 6760,
      "Ġà¥§à¥¦à¥¬": 6761,
      "Ġà¤¨à¤Ĺà¤¦": 6762,
      "à¤ĩà¤¡à¤ļ": 6763,
      "Ġà¤¨à¤¸à¤¬": 6764,
      "Ġ114": 6765,
      "Ġà¤§à¤¡à¤§à¤¡": 6766,
      "Ġà¤«à¤¡à¤ķà¤²": 6767,
      "à¤¥à¤Ĺà¤¤": 6768,
      "?\"": 6769,
      "ran": 6770,
      "Ġà¤īà¤¸à¤³à¤¤": 6771,
      "erv": 6772,
      "ĠPh": 6773,
      "Ġà¥§à¥¯à¥Ńà¥®": 6774,
      "à¤®à¤°à¤ļ": 6775,
      "Ġ1977": 6776,
      "Ġà¤¬à¤Łà¤²à¤°": 6777,
      "à¤²à¤ķà¤¹": 6778,
      "Ġà¤¸à¤¹à¤ľà¤Ĺà¤¤": 6779,
      "ï¿½ï¿½ï¿½ï¿½ï¿½ï¿½ï¿½ï¿½": 6780,
      "Ġà¤ķà¤²à¤Ĺ": 6781,
      "Ġà¤īà¤ªà¤¸à¤£": 6782,
      "Ġà¤ıà¤¨à¤ķ": 6783,
      "à¤²à¤£à¤ķà¤°": 6784,
      "Ġà¤ıà¤²à¤Ł": 6785,
      "Ġà¤ªà¤ļà¤£": 6786,
      "Ġà¤ıà¤®à¤ı": 6787,
      "Ġà¤ħà¤ł": 6788,
      "Ġà¤¸à¤¹à¤ľà¤ļ": 6789,
      "à¤µà¤²à¤ļ": 6790,
      "à¤¸à¤®à¤¯": 6791,
      "à¤ľà¤µà¤¸": 6792,
      "Ġpre": 6793,
      "Ġà¤¸à¤°à¤¡": 6794,
      "Ġà¤īà¤ĺà¤¡à¥Ł": 6795,
      "Ġà¤ĸà¤°à¤¤à¤°": 6796,
      "ĠHy": 6797,
      "NEKY": 6798,
      "ĠPHONEKY": 6799,
      "à¤²à¤¡à¤¬": 6800,
      "à¤¨à¤Īà¤¨": 6801,
      "Ġà¤ıà¤Ĩà¤¯": 6802,
      "Ġà¤¬à¤°à¤ļ": 6803,
      "Ġà¤¸à¤§à¤¨": 6804,
      "à¤ķà¤²à¤Ĺ": 6805,
      "BC": 6806,
      "à¤¸à¤°à¤µà¤°": 6807,
      "à¤ıà¤ķà¤¡": 6808,
      "Ġà¤Īà¤Ł": 6809,
      "Ġ1975": 6810,
      "ave": 6811,
      "à¤®à¤ªà¤¤": 6812,
      "Ġà¤ĩà¤¤à¤¨": 6813,
      "Ġà¤ıà¤¸à¤¡": 6814,
      "à¤´": 6815,
      "rit": 6816,
      "à¤¯à¤¨à¤®à¤¸": 6817,
      "à¤ıà¤«à¤Ł": 6818,
      "kov": 6819,
      "Ġà¤¨à¤Ĭà¤ļ": 6820,
      "Ġà¤ķà¤°à¤µà¤¤": 6821,
      "à¤¬à¤Īà¤¤à¤ļ": 6822,
      "Ġà¥§à¥¨à¥®": 6823,
      "à¤¶à¤¨à¤Ĺà¤°": 6824,
      "ĠMar": 6825,
      "Ġà¤ĩà¤ķà¤¬": 6826,
      "à¤¤à¤°à¤£à¤ķà¤¡": 6827,
      "Ġà¥§à¥©à¥«": 6828,
      "à¤Łà¤¨à¤°à¤¶": 6829,
      "Ġà¤Ķà¤°à¤ļ": 6830,
      "Ġà¤¨à¤²à¤µà¤¡": 6831,
      "à¤µà¤³à¤ļ": 6832,
      "Ġà¤Ĩà¤łà¤¹": 6833,
      "ase": 6834,
      "à¤®à¤°à¤¤": 6835,
      "Ġà¤ħà¤µà¤¹": 6836,
      "Ġpol": 6837,
      "à¤Ĺà¤°à¤ľ": 6838,
      "Ġà¤®à¤¡à¤ķà¤Īà¤ķà¤°": 6839,
      "Ġà¤Ĩà¤¡à¤Ĺ": 6840,
      "Ġà¤¤à¤¸à¤²": 6841,
      "Ġà¤ķà¤¹à¤¨": 6842,
      "Ġà¤Īà¤ļ": 6843,
      "à¤°à¤µà¤°à¤ļ": 6844,
      "à¤ľà¤®à¤§à¤²": 6845,
      "Ġà¤ĭà¤ļ": 6846,
      "Ġà¤ħà¤¦à¤¨": 6847,
      "Ġà¤¨à¤µà¤µà¤§": 6848,
      "à¥Ī?": 6849,
      "als": 6850,
      "ett": 6851,
      "Ġà¤ĸà¤Łà¤ķà¤²": 6852,
      "à¤¸à¤®à¤¤": 6853,
      "à¤Ĺà¤¸à¤®": 6854,
      "à¤ªà¤®à¤¤": 6855,
      "ÂłĠÂłĠÂłĠÂłĠÂłĠÂłĠÂłĠÂłĠÂłĠÂłĠÂłĠÂłĠÂłĠÂłĠÂłĠÂłĠÂłĠÂłĠÂłĠÂłĠÂłĠÂłĠÂłĠÂłĠÂłĠÂłĠÂłĠÂłĠÂłĠÂłĠÂłĠÂłĠÂł": 6856,
      "à¤Łà¤²à¤°à¤ļ": 6857,
      "Ġà¤Īà¤¤à¤°": 6858,
      ">>>": 6859,
      "Ġà¤«à¤°à¤«": 6860,
      "à¤®à¤ķà¤¹": 6861,
      "ĠEx": 6862,
      "Ġà¤İ": 6863,
      "int": 6864,
      "à¤µà¤¸à¤ļ": 6865,
      "Ġ126": 6866,
      "lav": 6867,
      "à¤¹à¤¨à¤¨": 6868,
      "à¤ıà¤®à¤ıà¤®": 6869,
      "Ġà¤ķà¤¨à¤ķ": 6870,
      "Ġ145": 6871,
      "Ġà¥§à¥¯à¥ªà¥®": 6872,
      "à¤Ĭà¤¨à¤®à¤§": 6873,
      "Ġà¤«à¤¡à¤ķà¤µà¤²": 6874,
      "Ġà¤Ńà¤Ĺà¤µà¤¦": 6875,
      "Ġab": 6876,
      "à¤ªà¤²à¤¨": 6877,
      "à¤²à¤Ī": 6878,
      "Ġà¤¹à¤²à¤²": 6879,
      "à¤¶à¤ķà¤¡": 6880,
      "Ġà¤ĸà¤Łà¤ªà¤Ł": 6881,
      "Ġ109": 6882,
      "Ġà¤®à¤ķà¤°à¤¸": 6883,
      "AI": 6884,
      "à¤¯à¤·": 6885,
      "Ġà¤¹à¤°à¤ķ": 6886,
      "à¤Īà¤®à¤ª": 6887,
      "Ġà¤ĳà¤²à¤°": 6888,
      "sc": 6889,
      "à¤Ńà¤¹": 6890,
      "Ġ116": 6891,
      "à¤¨à¤Ŀ": 6892,
      "à¤²à¤¨à¤¸": 6893,
      "Ġà¤ķà¤¡à¤ķà¤ªà¤£": 6894,
      "à¤¸à¤įà¤ª": 6895,
      "Ð»": 6896,
      "à¤¨à¤¶à¤°": 6897,
      "Ġà¥§à¥¯à¥®à¥Ń": 6898,
      "Ġà¤¤à¤ľà¤µ": 6899,
      "à¤ľà¤¦à¤ļ": 6900,
      "we": 6901,
      "Ġ1962": 6902,
      "Ġà¤ħà¤°à¤®": 6903,
      "ern": 6904,
      "Ġà¤īà¤¬à¤°": 6905,
      "à¤ķà¤°à¤£à¤¹": 6906,
      "rop": 6907,
      "à¤²à¤®à¤°": 6908,
      "Ġà¤ķà¤Łà¤°": 6909,
      "ium": 6910,
      "à¤°à¤¬à¤²": 6911,
      "Ġà¤ľà¤¸à¤²": 6912,
      "à¤ľà¤³à¤Ĺ": 6913,
      "à¤¶à¤¤à¤µ": 6914,
      "Ġà¤ħà¤¡à¤ķà¤µà¤²": 6915,
      "Ġà¤įà¤°": 6916,
      "Ġà¥¦à¥§": 6917,
      "ags": 6918,
      "150": 6919,
      "à¥ĩ.âĢĻâĢĻ": 6920,
      "à¤°à¤®à¤®à¤§": 6921,
      "Ġ(âĢĺ": 6922,
      "Ġà¤ļà¤ķà¤°": 6923,
      "à¤ľà¤®à¤ľ": 6924,
      "à¤°à¤¡à¥Ł": 6925,
      "à¤ķà¤¥à¤¨": 6926,
      "à¥¦à¥Ń": 6927,
      "à¤¶à¤¨à¤¦": 6928,
      "à¤ķà¤®à¤¹": 6929,
      "à¤®à¤®à¤§à¤²": 6930,
      "ĠPC": 6931,
      "SE": 6932,
      "Ġà¤łà¤Ĺ": 6933,
      "Ġsub": 6934,
      "à¤µà¤²à¤¸": 6935,
      "à¤¹à¤£à¤µà¤£": 6936,
      "Ġà¤¸à¤¹à¤ľà¤¸": 6937,
      "ena": 6938,
      "à¤ıà¤«à¤ĵ": 6939,
      "à¤¿à¥ĩ": 6940,
      "à¤ªà¤Łà¤°": 6941,
      "à¤¡à¤Ł": 6942,
      "raft": 6943,
      "à¤µà¤µà¤°": 6944,
      "Ġà¤µà¤¸à¤Īà¤ļ": 6945,
      "amp": 6946,
      "à¤Łà¤ħ": 6947,
      "Ġà¤§à¤¨à¤¤": 6948,
      "à¤¨à¤®à¤¸": 6949,
      "à¤ªà¤ĸ": 6950,
      "Ġà¤ĩà¤ħà¤°": 6951,
      "Ġà¤¸à¤¹à¤Ĩà¤¯": 6952,
      "Ġà¤Ľà¤ªà¤°": 6953,
      "Ġà¤§à¤¨à¤¦": 6954,
      "Ġà¤µà¤¨à¤°à¤ķ": 6955,
      "Ġph": 6956,
      "à¤ŁÃĳ": 6957,
      "à¤¤à¤ķà¤ļ": 6958,
      "à¤ıà¤¨à¤Ĩà¤¯à¤ı": 6959,
      "Ġso": 6960,
      "Ġà¤«à¤°à¤¸à¤¬": 6961,
      "à¤²à¤¤à¤ļ": 6962,
      "orld": 6963,
      "Ġwar": 6964,
      "Ġà¤ķà¤¸à¤°": 6965,
      "Ġwe": 6966,
      "Ġà¤µà¤°à¤¦à¤¹à¤¸": 6967,
      "Ġà¤ķà¤¢à¤Ī": 6968,
      "à¤¡à¤¬à¤°": 6969,
      "à¤§à¤¨à¤ļ": 6970,
      "à¤°à¤®à¤ľ": 6971,
      "res": 6972,
      "à¤ķà¤ªà¤°": 6973,
      "à¤µà¤«à¤²à¤ķ": 6974,
      "à¤ķà¤¤à¤°": 6975,
      "à¤Ŀà¤¨à¤ļ": 6976,
      "Ġà¤¥à¤¤": 6977,
      "Ġà¤µà¤Ĺà¤°": 6978,
      "à¤ĺà¤¡à¤µà¤£": 6979,
      "Ġà¤¤à¤°à¤¡": 6980,
      "à¤°à¤µà¤Ł": 6981,
      "Ġ119": 6982,
      "PS": 6983,
      "Ġà¤Ĺà¤²à¤¥": 6984,
      "Ġà¤¡à¤Ĺ": 6985,
      "Ġà¤¸à¤¬à¤®": 6986,
      "Ġà¤¸à¤¹à¤ķà¤²": 6987,
      "PF": 6988,
      "Ġà¤ľà¤Ĺà¤¬": 6989,
      "Ġà¤ļà¤ķà¤¤": 6990,
      "à¤¯à¤²à¤®à¤§": 6991,
      "à¤¡à¤Ń": 6992,
      "Ġà¤¹à¤Łà¤£": 6993,
      "Ġà¤Ĩà¤ľà¤ĺà¤¡": 6994,
      "Ġà¥§à¥®à¥¦à¥¦": 6995,
      "à¤ªà¤¸à¤²": 6996,
      "Ġà¤Īà¤¡à¤¨": 6997,
      "Ġà¤łà¤£à¤łà¤£": 6998,
      "à¤Ńà¤®à¤¨": 6999,
      "à¥Ģ.\"": 7000,
      "Ġ1982": 7001,
      "à¤¦à¤°à¤¹": 7002,
      "Ġà¤ĵà¤ĸ": 7003,
      "à¤¡à¤ķà¤¨": 7004,
      "ĠSU": 7005,
      "Ġà¤¸à¤ķà¤ª": 7006,
      "à¤Ĺà¤¡à¤¬à¤¡": 7007,
      "uri": 7008,
      "Ġà¤ĺà¤¨à¤®": 7009,
      "à¤Łà¥Łà¤¸": 7010,
      "Ġà¤ĭà¤Ĺ": 7011,
      "à¤°à¤ķà¤µà¤°": 7012,
      "let": 7013,
      "Ġà¤¦à¤®à¤Ł": 7014,
      "à¤¬à¤°à¤¦à¤°à¤®": 7015,
      "à¤¦à¤°à¤¬": 7016,
      "Ġà¤¨à¤®à¤µà¤²": 7017,
      "Ġà¤«à¤³à¤Ń": 7018,
      "à¤īà¤Ń": 7019,
      "à¤²à¤¸à¤¨": 7020,
      "Ġà¤¨à¤£": 7021,
      "à¤¦à¤¹à¤¶à¤¤à¤µ": 7022,
      "à¤¤à¤Ĺà¤£": 7023,
      "Ġà¤ĸà¤Łà¤ķà¤¤": 7024,
      "600": 7025,
      "Ġà¤ľà¤²à¤®à¤¯": 7026,
      "Ġà¥§à¥¦à¥©": 7027,
      "à¤¡à¤¤à¤°": 7028,
      "Ġà¤¨à¤Ĭà¤µ": 7029,
      "à¤¨à¤Ĺà¤°à¤µ": 7030,
      "Ġà¤®à¤ĺ": 7031,
      "Ġà¤Ĩà¤µà¤³à¤£": 7032,
      "Ġsk": 7033,
      "Ġà¤Ĺà¤²à¤¬à¤¤": 7034,
      "à¤²à¤Ńà¤°": 7035,
      "à¤ķà¤ªà¤ļ": 7036,
      "Ġà¤īà¤°à¤ķà¤²": 7037,
      "Ġà¤Ŀà¤Łà¤£": 7038,
      "à¤¸à¤¸à¤®": 7039,
      "à¤¦à¤¨à¤µ": 7040,
      "à¤ıà¤«à¤¡": 7041,
      "Ġà¤ħà¤Ĺà¤¸": 7042,
      "Ġà¤µà¤ļà¤¨à¤¨": 7043,
      ".âĢĻâĢĻ": 7044,
      "RI": 7045,
      "Ġà¤¹à¤¸à¤°": 7046,
      "à¤ķà¤ļà¤°": 7047,
      "Ġ113": 7048,
      "à¤®à¤¸à¤®": 7049,
      "Ġ'.": 7050,
      "Ġà¤§à¤¨à¤ķ": 7051,
      "à¤¦à¤°à¤¨": 7052,
      "%.": 7053,
      "Ġà¤Ĺà¤³à¤ªà¤Ł": 7054,
      "yst": 7055,
      "à¤®à¤¸à¤®à¤°": 7056,
      "Ġà¤¸à¤°à¤®": 7057,
      "Ġà¥§à¥§à¥¬": 7058,
      "Ġimp": 7059,
      "à¤ĸà¤®à¤§": 7060,
      "Ġ(?": 7061,
      "ĠMP": 7062,
      "Ġà¥§à¥§à¥®": 7063,
      "Ġà¤Ĺà¤Ĺà¤¨à¤¬": 7064,
      "Ġà¤ķà¤Łà¤²": 7065,
      "Ġà¤¸à¤®à¤¦": 7066,
      "Ġà¤Ŀà¤Łà¤ķà¤²": 7067,
      "Ġà¤¦à¤³": 7068,
      "Ġà¤īà¤®à¤Ĺà¤²": 7069,
      "Ġ210": 7070,
      "à¤¬à¤Łà¤ªà¤£": 7071,
      "Ġà¤®à¤¢": 7072,
      "Ġà¤®à¤¨à¤µ": 7073,
      "co": 7074,
      "Ġà¤ħà¤¸à¤®à¤¤": 7075,
      "à¤¶à¤¨à¤¤à¤°": 7076,
      "à¤¨à¤ļà¤°": 7077,
      "Ġà¤ĸà¤³à¤Ĺ": 7078,
      "Ġà¤ĩà¤¤à¤ªà¤¤": 7079,
      "à¤¨à¤ªà¤Ł": 7080,
      "Ġà¤¨à¤°à¤µà¤£": 7081,
      "atch": 7082,
      "Ġà¤¹à¤¡": 7083,
      "à¤³à¤ķà¤µ": 7084,
      "à¤ĵà¤¥": 7085,
      "Ġà¤ĺà¤¡à¥Ł": 7086,
      "à¤ļà¤²à¤°": 7087,
      "Ġ132": 7088,
      "à¤ĺà¤³à¤¤": 7089,
      "Ġà¤ļà¤¢à¤µà¤¤": 7090,
      "Ġby": 7091,
      "Ġ1978": 7092,
      "NS": 7093,
      "Ġ320": 7094,
      "à¤¨à¤®à¤¨": 7095,
      "Ġà¤Ĩà¤¯à¤ıà¤¨à¤ıà¤ķ": 7096,
      "Ġà¤Ĩà¤łà¤¶": 7097,
      "à¤¹à¤²à¤¤": 7098,
      "à¤¨à¤Īà¤®à¤§": 7099,
      "Ġà¤Ĩà¤°à¤ıà¤¸à¤ıà¤¸à¤ļ": 7100,
      "per": 7101,
      "à¤¿à¤Ĥ.": 7102,
      "Ġà¤ıà¤ħà¤°à¤¬": 7103,
      "Ġà¥¨à¥®à¥®": 7104,
      "à¤¿âĢĻ": 7105,
      "à¤Łà¤°à¤¡": 7106,
      "à¤¯à¤£à¤°": 7107,
      "Ġà¥§à¥¯à¥¬à¥Ń": 7108,
      "Ġà¥§à¥§à¥©": 7109,
      "ign": 7110,
      "à¤łà¤Ĺ": 7111,
      "à¤°à¤®à¤Ĺà¤¡": 7112,
      "à¤²à¤ķà¤µ": 7113,
      "âĢ¦âĢĻ": 7114,
      "Ġà¤¡à¤ķ": 7115,
      "Ġà¤¬à¤«": 7116,
      "Ġà¤ĩà¤µà¤²": 7117,
      "ĠPre": 7118,
      "Ġà¥§à¥¯à¥¬à¥«": 7119,
      "à¤ħà¤ªà¤°": 7120,
      "ĠÂłĠÂłĠÂł": 7121,
      "Ġà¥§à¥§à¥§": 7122,
      "Ġà¤°à¤¹à¤¨": 7123,
      "Ġà¤ľà¤¨à¤¶à¤ķ": 7124,
      "à¤¾à¥ħà¤Ĥ": 7125,
      "à¤³à¤µà¤¡": 7126,
      "Ġà¤ıà¤µà¤¢à¤¯": 7127,
      "à¤ľà¤¨à¤µà¤°": 7128,
      "Ġ165": 7129,
      "ĠiP": 7130,
      "Ġà¤ĩà¤ª": 7131,
      "Ġà¤įà¤ªà¤ļ": 7132,
      "Ġà¤īà¤®à¤Łà¤µà¤£": 7133,
      "2020": 7134,
      "alog": 7135,
      "ier": 7136,
      "rad": 7137,
      "Ġà¤²à¤³": 7138,
      "à¥ī,": 7139,
      "Ġà¤ĸà¤¡à¤ĸà¤¡": 7140,
      "Ġà¤Ŀà¤Ĺà¤®à¤Ĺ": 7141,
      "Ġà¤¨à¤®à¤¤": 7142,
      "à¤Ľà¤Ł": 7143,
      "Ġ1967": 7144,
      "Ġà¤ķà¤°à¤µà¤£": 7145,
      "Ġà¤«à¤³à¤Ŀ": 7146,
      "à¤µà¤°à¤¯": 7147,
      "Ġà¤ıà¤¥": 7148,
      "à¥¦à¥§": 7149,
      "Ġà¤Ĩà¤¯à¤¶": 7150,
      "Ġà¤īà¤ļà¤²à¤¬": 7151,
      "Ġà¤ĵà¤ªà¤¨à¤®à¤§": 7152,
      "ler": 7153,
      "pers": 7154,
      "utt": 7155,
      "Ġà¤¨à¤Ī": 7156,
      "âĢ¦!": 7157,
      "à¤¯à¤²à¤¢": 7158,
      "Ġà¤ªà¤¡à¤µ": 7159,
      "à¤²à¤¨à¤ª": 7160,
      "à¤°à¤¹à¤¸": 7161,
      "Ġà¥ªà¥¦à¥¦à¥¦": 7162,
      "Ġà¤¹à¤¸à¤µà¤£": 7163,
      "à¤µà¤ķà¤ªà¤¦": 7164,
      "à¤ķà¤¦à¤®": 7165,
      "________________": 7166,
      "Ġà¥§à¥¨à¥¨": 7167,
      "à¤²à¤¬à¤¨": 7168,
      "Ġà¤«à¤°à¤«à¤Łà¤¤": 7169,
      "à¤µà¤Ĩà¤ĺ": 7170,
      "à¤ľà¤Ĺà¤¤": 7171,
      "à¤Ľà¤µ": 7172,
      "Ġ4000": 7173,
      "Ġant": 7174,
      "Ġà¤ľà¤¹à¤°": 7175,
      "Ġà¤«à¤³à¤ª": 7176,
      "ashi": 7177,
      "racks": 7178,
      "Ġem": 7179,
      "Ġ---": 7180,
      "Ġà¤ħà¤ªà¤Ĺ": 7181,
      "à¤¡à¤ªà¤°": 7182,
      "Ġà¤ıà¤²à¤°": 7183,
      "angal": 7184,
      "eld": 7185,
      "à¤¡à¤Īà¤¤": 7186,
      "à¤ĺà¤µà¤¨": 7187,
      "à¤ıà¤®à¤²": 7188,
      "à¤²à¤¨à¤¹": 7189,
      "à¤¸à¤¹à¤¸": 7190,
      "Ġà¤ĸà¤¯": 7191,
      "ung": 7192,
      "Ġà¤ķà¤²à¤°à¤ļ": 7193,
      "ĠOS": 7194,
      ".'": 7195,
      "Ġà¤ĩà¤¨à¤¸": 7196,
      "Ġà¤ķà¤®à¤µà¤¤": 7197,
      "à¤ıà¤¸à¤ıà¤«à¤ļ": 7198,
      "TV": 7199,
      "à¤¤à¤¨à¤¦": 7200,
      "org": 7201,
      "à¤¾.\"": 7202,
      "igar": 7203,
      "fl": 7204,
      "Ġà¤ľà¤²à¤°": 7205,
      "Ġà¤«à¤¡à¤¶": 7206,
      "à¥¦à¥¨": 7207,
      "Ġri": 7208,
      "à¤²à¤¹à¤°": 7209,
      "Ġ1600": 7210,
      "Ġà¤īà¤¦à¤¯à¤ª": 7211,
      "Ġà¤°à¤¹à¤¤": 7212,
      "lect": 7213,
      "à¥ģà¥¥": 7214,
      "à¤µà¤¹à¤¨à¤®": 7215,
      "à¤ľà¤ªà¤£": 7216,
      "Ġà¤¥à¤¡à¤Ĺ": 7217,
      "Ġà¤įà¤¶": 7218,
      "Ġà¤ĳà¤ķà¤²": 7219,
      "à¤ĩà¤ķà¤ļ": 7220,
      "à¤°à¤ľà¤ļ": 7221,
      "à¤¯à¤¦à¤ķ": 7222,
      "Ġ1300": 7223,
      "ists": 7224,
      "Ġà¤ıà¤ħà¤°à¤¸": 7225,
      "aper": 7226,
      "ĠJa": 7227,
      "à¤²à¤µà¤¸": 7228,
      "à¤ªà¤¸à¤®": 7229,
      "à¤¬à¤ĺ": 7230,
      "Ġà¤µà¤¨à¤Ń": 7231,
      "à¤ıà¤®à¤¬": 7232,
      "à¤Īà¤ķà¤µ": 7233,
      "ores": 7234,
      "Ġà¤ĺà¤°à¤ĺà¤°": 7235,
      "à¤¡à¤ľà¤µà¤³": 7236,
      "à¤ıà¤²à¤Ł": 7237,
      "à¤¨à¤¨à¤²": 7238,
      "à¤ķà¤Ĩà¤Ĭà¤Ł": 7239,
      "à¤®à¤¦à¤¤": 7240,
      "à¥ªà¥¦à¥¦": 7241,
      "umbs": 7242,
      "eva": 7243,
      "Ġà¤īà¤Ł": 7244,
      "Ġà¤®à¤¨à¤ľ": 7245,
      "Ġà¤ĺà¤¸à¤°à¤Ĺ": 7246,
      "à¤Łà¤¸à¤®": 7247,
      "Ġà¤Ĩà¤¯à¤µ": 7248,
      "à¤ıà¤¸à¤¯": 7249,
      "Ġ151": 7250,
      "Ġà¤īà¤Ĺà¤²": 7251,
      "Ġà¤¹à¤ľà¤°à¤¤": 7252,
      "ages": 7253,
      "à¤¬à¤°à¤®à¤¤": 7254,
      "ĠDelhi": 7255,
      "à¤ľà¤Ĺà¤£": 7256,
      "Ġà¤ķà¤³à¤µà¤¤": 7257,
      "Ġà¤§à¤Ĺà¤§à¤Ĺà¤¤": 7258,
      "à¤¯à¤®à¤¶": 7259,
      "à¤ĸà¤²à¤«": 7260,
      "Ġ149": 7261,
      "à¤¶à¤¨à¤ľà¤µà¤³": 7262,
      "Ġ127": 7263,
      "Ġà¤ķà¤°à¤¶": 7264,
      "à¥¦à¥ª": 7265,
      "à¤·à¤ķà¤µà¤°": 7266,
      "och": 7267,
      "Ġà¤¨à¤³à¤ª": 7268,
      "ence": 7269,
      "ĠPl": 7270,
      "ept": 7271,
      "à¤®à¤°à¤ķ": 7272,
      "à¤¾,'": 7273,
      "à¤°à¤Ĺà¤³à¤²": 7274,
      "TP": 7275,
      "à¤¡à¤°à¤µ": 7276,
      "à¤Īà¤Łà¤²": 7277,
      "à¤²à¤¨à¤Ĺà¤°": 7278,
      "Ġà¤ķà¤¡à¤¬": 7279,
      "700": 7280,
      "à¤µà¤Łà¤µ": 7281,
      "à¤¨à¤°à¤¸": 7282,
      "Ġà¤ĸà¤¸à¤ĸ": 7283,
      "à¤īà¤ľà¤µ": 7284,
      "à¤¹à¤ļà¤µà¤²": 7285,
      "Ġà¤ħà¤¤à¤°": 7286,
      "anc": 7287,
      "à¤ĩà¤¨à¤®à¤§": 7288,
      "erg": 7289,
      "Ġà¥§à¥¨à¥ª": 7290,
      "à¤¸Âºà¤¯": 7291,
      "Ġà¤Ĳà¤ķà¤µ": 7292,
      "form": 7293,
      "Ġà¥§à¥¯à¥¬à¥¬": 7294,
      "à¤ļà¤ķà¤³": 7295,
      "à¥Ģ.âĢĿ": 7296,
      "à¤ķà¤¬à¤§": 7297,
      "à¤¯à¤®à¤¸à¤¨": 7298,
      "Ġà¤¬à¤¦à¤²à¤µ": 7299,
      "à¤ļà¤°à¤®à¤§": 7300,
      "à¤¨à¤®à¤ļ": 7301,
      "à¤¨à¤²à¤¨": 7302,
      "à¤¥à¤¬": 7303,
      "à¤ĺà¤¹": 7304,
      "à¤¹à¤¤à¤Ĺ": 7305,
      "Ġman": 7306,
      "Ġà¤ıà¤®à¤Ĩà¤¯à¤Ł": 7307,
      "âĢĮà¤Ĥ": 7308,
      "à¤Łà¤°à¤¤": 7309,
      "Ġà¤ªà¤³à¤¶": 7310,
      "à¤¤à¤¥à¤°": 7311,
      "à¤ıà¤²à¤¬": 7312,
      "Ġà¤ĳà¤¨à¤°": 7313,
      "Ġà¤®à¤¦à¤¤à¤¹": 7314,
      "ery": 7315,
      "à¤®à¤¬à¤°": 7316,
      "ĠChand": 7317,
      "à¤²à¤¤à¤°": 7318,
      "à¤ķà¤¦à¤µ": 7319,
      "à¤¯à¤ıà¤¸à¤Ĩà¤°": 7320,
      "Ġà¤¡à¤Ĺà¤®": 7321,
      "à¤¨à¤²à¤²": 7322,
      "à¤®à¤²à¤·": 7323,
      "Ġà¤ļà¤®à¤ļà¤®": 7324,
      "Ah": 7325,
      "à¤·à¤²à¤Ĺ": 7326,
      "Ġà¤²à¤«à¤¡": 7327,
      "à¤ħà¤°à¤®": 7328,
      "Ġà¤¹à¤¸à¤¤à¤®": 7329,
      "à¤ªà¤¤à¤Ĺ": 7330,
      "à¤¯à¤°à¤ļà¤¨": 7331,
      "Ġà¤ĳà¤¥": 7332,
      "à¤ıà¤¸à¤ıà¤²à¤µ": 7333,
      "à¤µà¤¡à¤°à¤ļ": 7334,
      "Ġà¥²à¤ķ": 7335,
      "Ġpoured": 7336,
      "Ġà¤µà¤¹à¤¨": 7337,
      "Ġà¤ľà¤Ĺà¤¹": 7338,
      "~~": 7339,
      "Ġà¤µà¤°à¤ķà¤°à¤£": 7340,
      "Ġà¤ħà¤¨à¤Ĺ": 7341,
      "Ġà¤īà¤ĸà¤¡à¤²": 7342,
      "Fi": 7343,
      "Ġà¤īà¤¸à¤Ĺ": 7344,
      "In": 7345,
      "TE": 7346,
      "à¥¦à¥¬": 7347,
      "à¤ľà¤¯à¤¶": 7348,
      "à¥©à¥¦à¥¦": 7349,
      "Ġà¤«à¤¡à¤ķà¤µà¤£": 7350,
      "à¤¤à¤µà¤¡": 7351,
      "ĠNCR": 7352,
      "à¤Łà¤°à¤¶": 7353,
      "à¤®à¤²à¤¦": 7354,
      "à¤¾à¤¿": 7355,
      "à¤ĸà¤°à¤²": 7356,
      "Ġà¤ĸà¤°à¤®à¤°": 7357,
      "Ġà¤«à¤¡à¤¤à¤°": 7358,
      "à¥ĩ.'": 7359,
      "à¤ľà¤ķà¤¨": 7360,
      "à¤ıà¤«à¤¨": 7361,
      "Ġà¤ıà¤«à¤ıà¤¸à¤Ĩà¤¯": 7362,
      "ays": 7363,
      "à¤¯à¤ķà¤²à¤²": 7364,
      "ĠGST": 7365,
      "à¤¤à¤¶à¤¤": 7366,
      "à¤ķà¤°à¤¹": 7367,
      "à¥Ģ);": 7368,
      "gl": 7369,
      "Ġà¤®à¤²à¤ª": 7370,
      "ember": 7371,
      "VM": 7372,
      "Ġà¤¤à¤³à¤¹": 7373,
      "Ġà¤Ĩà¤īà¤Łà¤ª": 7374,
      "à¤¹à¤°à¤ķ": 7375,
      "Ġà¤¤à¤ĸ": 7376,
      "Ġà¤¸à¤°à¤³à¤¸": 7377,
      "à¤ļà¤®à¤¨": 7378,
      "US": 7379,
      "à¤ľà¤¨à¤¨": 7380,
      "à¤Łà¤¤à¤¯": 7381,
      "à¤Ĺà¤°à¤¨": 7382,
      "à¤µà¤®à¤¤": 7383,
      "à¤Ĺà¤°à¤ĸ": 7384,
      "Ġas": 7385,
      "ĠLIVE": 7386,
      "à¤¸à¤¨à¤Ĺà¤°à¤®à¤§": 7387,
      "à¤Ľà¤°": 7388,
      "Ġres": 7389,
      "CP": 7390,
      "à¤łà¤¨": 7391,
      "Ġà¤Ĩà¤¸à¤²": 7392,
      "va": 7393,
      "Ġà¤¸à¤ªà¤¤": 7394,
      "Ġà¤µà¤Łà¤¹": 7395,
      "Ġà¤ħà¤¸à¤°": 7396,
      "à¤¹à¤¨à¤®à¤§": 7397,
      "Ġà¥§à¥¯à¥¬à¥¯": 7398,
      "Ġà¤ıà¤¡à¤®": 7399,
      "à¤¬à¤°à¤ħà¤ĸ": 7400,
      "à¤ªà¤¯à¤¶": 7401,
      "Ġà¤¸à¤®à¤ľà¤µ": 7402,
      "Ġà¥§à¥¯à¥Ńà¥ª": 7403,
      "Ġà¥§à¥¯à¥«à¥¬": 7404,
      "à¤§à¤¯": 7405,
      "à¤łà¤²à¤µ": 7406,
      "à¤Ĺà¤°à¤¬": 7407,
      "à¤¦à¤°à¤°": 7408,
      "à¤®à¤¨à¤¦": 7409,
      "Ġà¤ıà¤¨à¤ıà¤®": 7410,
      "Ġà¥§à¥Ńà¥«": 7411,
      "yd": 7412,
      "à¤¸à¤²à¤°": 7413,
      "à¤ķà¤®à¤³": 7414,
      "Ġà¥§à¥¯à¥©à¥¦": 7415,
      "Ġà¤®à¤¦à¤°à¤¬": 7416,
      "bl": 7417,
      "à¤¶à¤ªà¤£": 7418,
      "Ġà¤«à¤¡à¤¤": 7419,
      "ĠGB": 7420,
      "à¤¾âĢĺ": 7421,
      "à¤¬à¤°à¤¸": 7422,
      "Ġà¤¸à¤¹à¤¦": 7423,
      "à¤®à¤¤à¤¹": 7424,
      "ĠBl": 7425,
      "à¤¡à¤Ńà¤°": 7426,
      "Ġà¤°à¤Ł": 7427,
      "Ġà¤ĩà¤¨à¤¹": 7428,
      "Ġà¤Īà¤ľ": 7429,
      "Ġà¤ĺà¤Łà¤µ": 7430,
      "Ġà¤Ĺà¤ľà¤Ń": 7431,
      "Ġà¤Īà¤²": 7432,
      "à¤Ńà¤¶": 7433,
      "à¤Īà¤²à¤¸": 7434,
      "Ġgrows": 7435,
      "ennai": 7436,
      "Ġà¤ľà¤¡à¤¤": 7437,
      "à¤ķà¤®à¤²": 7438,
      "à¤ķà¤®à¤§à¤²": 7439,
      "Ġà¤§à¤µà¤¨à¤²": 7440,
      "Ðº": 7441,
      "à¤£à¤®à¤¤à¤µ": 7442,
      "urs": 7443,
      "à¤¨à¤Łà¤ķ": 7444,
      "Ġà¤ľà¤²à¤ļà¤°": 7445,
      "Ġà¤Ĺà¤³à¥Ł": 7446,
      "kata": 7447,
      "à¤ķà¤£à¤ķà¤°": 7448,
      "Ġà¤ħà¤ªà¤¹à¤°à¤£à¤ķà¤°": 7449,
      "Ġà¤¨à¤°à¤Ńà¤ķ": 7450,
      "à¤ªà¤²à¤µ": 7451,
      "derabad": 7452,
      "à¤Ŀà¤°à¤®à¤§": 7453,
      "Ġà¤¶à¤°à¤¯": 7454,
      "Ġ280": 7455,
      "Ġà¤ķà¤¡à¤ķà¤¨": 7456,
      "JP": 7457,
      "à¤«à¤®à¤§": 7458,
      "Ġà¤¬à¤¹à¤²": 7459,
      "Ġà¥§à¥¨à¥¬": 7460,
      "Ġvs": 7461,
      "à¤Ĺà¤²à¤®à¤§": 7462,
      "Ġà¥²à¤ª": 7463,
      "Ġà¤ĺà¤¸à¤ĺà¤¶": 7464,
      "Ġà¥¦à¥¨": 7465,
      "à¤£à¤¬à¤§": 7466,
      "à¥ĩ.[": 7467,
      "ual": 7468,
      "ipur": 7469,
      "à¥¦à¥©": 7470,
      "Ġà¤ľà¤Ĺà¤¨à¤®": 7471,
      "à¤ļà¤ķà¤¤": 7472,
      "à¤®à¤²à¤ķ": 7473,
      "Ġà¤ħà¤¸à¤¶": 7474,
      "à¤³à¤µà¤Ł": 7475,
      "à¤ķà¤ħà¤ªà¤ļ": 7476,
      "à¤¬à¤¬": 7477,
      "à¤¯à¤ķà¤²à¤¨": 7478,
      "à¤²à¤¬à¤¹": 7479,
      "ĠIC": 7480,
      "ild": 7481,
      "ĠCrimea": 7482,
      "DF": 7483,
      "Ġà¥§à¥¦à¥Ń": 7484,
      "alt": 7485,
      "Ġà¤Ŀà¤Ĺà¤¡à¤¤": 7486,
      "Ġ143": 7487,
      "à¤¯à¤¬à¤°à¤ļ": 7488,
      "à¤Łà¤Ń": 7489,
      "Ġ1100": 7490,
      "à¤ıà¤¨à¤ıà¤ļ": 7491,
      "oh": 7492,
      "Ġà¤¸à¤µà¤¡": 7493,
      "Ġà¤ıà¤ļà¤¸": 7494,
      "ÂłÂłÂłÂłÂłÂł": 7495,
      "Ġà¤§à¤Ĺ": 7496,
      "à¤¯à¤¨à¤µ": 7497,
      "owels": 7498,
      "ĠHyderabad": 7499,
      "à¤¡à¤°à¤¶": 7500,
      "Ġà¤¸à¤¹à¤Ĺà¤²": 7501,
      "Ġà¤īà¤¤à¤°à¤µà¤¤": 7502,
      "Ġà¤Ĺà¤£à¤¤": 7503,
      "Ġtox": 7504,
      "OM": 7505,
      "à¤¤à¤«à¤°": 7506,
      "Ġà¤Ĳà¤µà¤¢": 7507,
      "Ġà¤ħà¤¦à¤Ń": 7508,
      "à¤Ĭà¤¸à¤µà¤°": 7509,
      "Ġcrumbs": 7510,
      "Ġà¤²à¤Ī": 7511,
      "angalore": 7512,
      "à¤ħà¤°à¤¹": 7513,
      "ms": 7514,
      "ren": 7515,
      "ve": 7516,
      "à¤¯à¤°à¤µ": 7517,
      "Ġà¥¨à¥¦à¥¨à¥§": 7518,
      "Ġà¥¨à¥ªà¥¦": 7519,
      "à¤°à¤³à¤²": 7520,
      "à¤¯à¤°à¤ķ": 7521,
      "ĠChennai": 7522,
      "à¤Łà¤Ńà¤Ł": 7523,
      "à¤Ĺà¤²à¤²": 7524,
      "Ġà¥«à¥«à¥¦": 7525,
      "Ġà¤ľà¤²à¤¤à¤°à¤£à¤ªà¤Ł": 7526,
      "Ġ420": 7527,
      "à¥ĩ'.": 7528,
      "ĠBangalore": 7529,
      "à¥ľà¤ķ": 7530,
      "ĠKolkata": 7531,
      "à¤¯à¤ľà¤¨à¤ķ": 7532,
      "à¤¾.)": 7533,
      "à¤²à¤ķà¤ļ": 7534,
      "à¤ĩà¤¬": 7535,
      "Ġà¥©à¥¬à¥¦": 7536,
      "igarh": 7537,
      "ER": 7538,
      "Ġà¤ĩà¤¤à¤ķà¤ļ": 7539,
      "Ġ121": 7540,
      "à¤®à¤³à¤ªà¤£": 7541,
      "à¤²à¤¯à¤ļ": 7542,
      "à¤ľà¤£à¤Ĺ": 7543,
      "Ġ1966": 7544,
      "à¤łà¤®à¤²": 7545,
      "à¤¡à¤£à¤µ": 7546,
      "Ġtoxins": 7547,
      "à¤¯à¤ķà¤¶": 7548,
      "à¤¹à¤°à¤«": 7549,
      "IN": 7550,
      "Ġà¤īà¤¹": 7551,
      "Ġà¤¯à¤¶à¤°": 7552,
      "ance": 7553,
      "Ġà¥§à¥¯à¥«à¥¨": 7554,
      "indows": 7555,
      "ĠAhmedabad": 7556,
      "ĠChandigarh": 7557,
      "à¤²à¤·": 7558,
      "à¤ĺà¤¡à¤µ": 7559,
      "ĠJaipur": 7560,
      "TA": 7561,
      "Ġdil": 7562,
      "Ġ162": 7563,
      "Ġà¤²à¤µà¤²": 7564,
      "Ġà¤Ĩà¤¯à¤¶à¤°": 7565,
      "Ġà¤ĺà¤¡à¤¯": 7566,
      "à¤¾'.": 7567,
      "Ġmar": 7568,
      "Ġ147": 7569,
      "ame": 7570,
      "Ġat": 7571,
      "lets": 7572,
      "Ġà¤®à¤¹à¤²": 7573,
      "Ġà¤¸à¤°à¤¹à¤¦": 7574,
      "à¤·à¤£à¤ª": 7575,
      "ale": 7576,
      "Ġà¤Łà¤µà¤Łà¤µ": 7577,
      "à¤¨à¤µà¤µ": 7578,
      "à¤ķà¤¬à¤¡": 7579,
      "Ġà¤Ĩà¤®à¤°": 7580,
      "à¤Łà¤°à¤¨à¤²": 7581,
      "à¤¸à¤µà¤¤": 7582,
      "à¤ªà¤³à¤µ": 7583,
      "à¤Łà¤§": 7584,
      "Ġà¤ĺà¤Łà¤ķà¤ªà¤ķ": 7585,
      "à¤§à¤µà¤²": 7586,
      "Ġà¤ıà¤®à¤Ĩà¤°à¤Ĩà¤¯": 7587,
      "Ġà¤µà¤¨à¤ªà¤°": 7588,
      "ator": 7589,
      "urg": 7590,
      "Ġà¥§à¥¯à¥Ńà¥¯": 7591,
      "à¥įà¤¼": 7592,
      "Ġà¤Ĺà¤¹à¤²": 7593,
      "Ġà¤¨à¤µà¤ķà¤²": 7594,
      "à¤Ńà¤µà¤¶": 7595,
      "à¥ĭà¤¼": 7596,
      "Ġà¤ĺà¤³": 7597,
      "à¤·à¤ķà¤ļ": 7598,
      "Ġgro": 7599,
      "Ġà¥§à¥¯à¥Ńà¥©": 7600,
      "Ġà¤ªà¤¡à¤ķ": 7601,
      "à¤°à¤¸à¤¤": 7602,
      "Ġà¤¤à¤¸à¤¤à¤¶": 7603,
      "à¤µà¤°à¤µà¤°": 7604,
      "à¤ĩà¤®à¤°": 7605,
      "Ġà¤µà¤ļà¤ª": 7606,
      "à¤³à¤§": 7607,
      "à¤¤à¤®à¤¹": 7608,
      "Ġà¤®à¤¤à¤²à¤¬": 7609,
      "à¤¯à¤ĸ": 7610,
      "Ġà¤«à¤¡à¤«": 7611,
      "Ġà¤µà¤°à¤ª": 7612,
      "ued": 7613,
      "à¤°à¤¤à¤Ń": 7614,
      "VII": 7615,
      "Ġà¤¦à¤¶à¤ķà¤Ńà¤°": 7616,
      "à¥Ģ'.": 7617,
      "Ġ225": 7618,
      "à¤Ĺà¤ľà¤¨à¤ķ": 7619,
      "Ġ136": 7620,
      "Ġà¤ħà¤ľà¤¸": 7621,
      "ĠSBI": 7622,
      "ÂłÂłÂłÂłÂł": 7623,
      "ems": 7624,
      "Ġà¤ªà¤°à¤¶à¤°": 7625,
      "à¤ıà¤²à¤Ĩà¤°": 7626,
      "à¤«à¤Łà¤ķ": 7627,
      "Ġà¤ıà¤¨à¤¬": 7628,
      "à¤¾à¤Ĥ'": 7629,
      "Ġà¤ĵà¤°à¤¬": 7630,
      "Ġ1979": 7631,
      "Ã¢": 7632,
      "Ġà¤²à¤ļà¤ķ": 7633,
      "à¤ĺà¤°à¤ļ": 7634,
      "!)": 7635,
      "ix": 7636,
      "Ġà¤¸à¤°à¤ķà¤£": 7637,
      "ĠMa": 7638,
      "à¤¤à¤¥": 7639,
      "à¤Ĺà¤²à¤¤": 7640,
      "Ġà¤¸à¤°à¤¶": 7641,
      "à¤¹à¤³à¤¯": 7642,
      "à¤ıà¤«à¤Ĩà¤¯": 7643,
      "Ġà¤Ĺà¤²à¤Ĺà¤²": 7644,
      "Ġà¤ħà¤²à¤«": 7645,
      "Ġà¤ļà¤²à¤¨à¤µ": 7646,
      "à¤ļà¤ķà¤²": 7647,
      "à¥ĤâĢĻ,": 7648,
      "Ġà¥§à¥ªà¥«": 7649,
      "à¤¿)": 7650,
      "à¤°à¤ķà¤¹": 7651,
      "à¤µà¤¨à¤¯": 7652,
      "Ġà¤ħà¤ľà¤®à¤²": 7653,
      "à¥įà¥į": 7654,
      "à¤°à¤ķà¤ª": 7655,
      "Ġsn": 7656,
      "Ġà¤ħà¤¸à¤¹à¤®à¤¤": 7657,
      "à¤įà¤ķ": 7658,
      "Ġ1956": 7659,
      "à¥ĺ": 7660,
      "à¤¸à¤®à¤¸à¤ļ": 7661,
      "à¤Łà¤®à¤ļ": 7662,
      "Ġà¤¦à¤ĸ": 7663,
      "à¤Ńà¤µà¤¹": 7664,
      "AS": 7665,
      "Ġà¤Ĩà¤ľà¤¨": 7666,
      "à¥¨à¥¦à¥§à¥¯": 7667,
      "bo": 7668,
      "ãĢ": 7669,
      "Ġà¤Ĺà¤ľà¤¬à¤ľ": 7670,
      "AC": 7671,
      "à¤Łà¤¤à¤°": 7672,
      "à¤³à¤µà¤£à¤ķà¤°": 7673,
      "itter": 7674,
      "hiv": 7675,
      "900": 7676,
      "łà¤¿": 7677,
      "Ġà¤īà¤ªà¤¸à¤ļ": 7678,
      "à¤¶à¤¨à¤ªà¤¤": 7679,
      "uted": 7680,
      "Ġ1948": 7681,
      "Ġà¤ĸà¤¸à¤ĸà¤¸": 7682,
      "Ġà¤Ńà¤°à¤ļ": 7683,
      "à¤°à¤¤à¤³": 7684,
      "Ġhere": 7685,
      "Ġà¤Ĺà¤Ĺà¤¨à¤ļ": 7686,
      "ake": 7687,
      "à¤Ĺà¤łà¤¨": 7688,
      "à¥ĩà¥ĩà¤Ĥ": 7689,
      "Ġà¤Ńà¤°à¤°à¤¸": 7690,
      "Ġà¤¥à¤°à¤¥à¤°": 7691,
      "à¤ıà¤¸à¤²": 7692,
      "à¤¡à¤ĺà¤¶": 7693,
      "Ġà¤µà¤°à¤µ": 7694,
      "à¤°à¤¤à¤¨": 7695,
      "à¤īà¤ªà¤°": 7696,
      "Ġà¤īà¤ļà¤Ĺ": 7697,
      "Ġà¤®à¤¤à¤ķà¤°": 7698,
      "?âĢĻ": 7699,
      "Ġà¤ľà¤¬à¤²à¤ª": 7700,
      "à¤°à¤¤à¤¹": 7701,
      "à¤¸à¤¨à¤µ": 7702,
      "à¤µà¤ļà¤£": 7703,
      "ĠAndroid": 7704,
      "à¤¼à¥ĭ": 7705,
      "Ġà¤Ńà¤µà¤¨à¤®à¤§": 7706,
      "à¤Īà¤Ĺà¤¡à¤¬à¤¡": 7707,
      "Ġ137": 7708,
      "Ġà¤¬à¤ĸ": 7709,
      "ness": 7710,
      "à¤µà¤¥": 7711,
      "à¤ĵà¤ķà¤¡": 7712,
      "ora": 7713,
      "Ġ1981": 7714,
      "à¤¡à¤Ĺà¤°": 7715,
      "Ġà¤¬à¤«à¤°": 7716,
      "Ġà¤ķà¤®à¤µà¤£": 7717,
      "à¤Ĺà¤¦à¤Ĺ": 7718,
      "à¤īà¤ªà¤ļ": 7719,
      "Ġà¤Ńà¤°à¤¤à¤¨": 7720,
      "oli": 7721,
      "ced": 7722,
      "à¤Īà¤¨à¤°": 7723,
      "à¤«à¤°à¤ļ": 7724,
      "à¤Ĩà¤¯à¤ıà¤²": 7725,
      "Ġà¤ľà¤Ĺà¤®": 7726,
      "Ġà¤ĩà¤¨à¤¡": 7727,
      "Ġ185": 7728,
      "250": 7729,
      "à¤ıà¤ıà¤²": 7730,
      "Ġà¤īà¤®à¤°à¤Ĺ": 7731,
      "Ġ1400": 7732,
      "à¥ĭâĢĿ": 7733,
      "Ġà¤µà¤¡à¤²": 7734,
      "Ġà¤ıà¤ķà¤µà¤Ł": 7735,
      "Ġ\"-": 7736,
      "ĠCPU": 7737,
      "Ġà¤¸à¤³à¤¸": 7738,
      "à¤¡à¤¨à¤¨": 7739,
      "à¤«à¤°à¤ª": 7740,
      "Ġ154": 7741,
      "eng": 7742,
      "Ġà¥§à¥¯à¥¬à¥§": 7743,
      "Ġà¥§à¥¨à¥©": 7744,
      "à¤°à¤µà¤£à¤ķà¤°": 7745,
      "à¤°à¤°à¤ļà¤¨": 7746,
      "à¤¤à¤ªà¤°": 7747,
      "à¤°à¤ªà¤³à¤²": 7748,
      "Ġ260": 7749,
      "Ġà¤Ĩà¤¡à¤¤": 7750,
      "2013": 7751,
      "Ġ3500": 7752,
      "à¤¯à¤Łà¥Ł": 7753,
      "Ġà¤ħà¤ªà¤Ń": 7754,
      "Ġà¤¸à¤²à¤Ĺà¤°": 7755,
      "Ġà¤¹à¤¤à¤¬à¤²à¤¤": 7756,
      "Ġ155": 7757,
      "Ġà¤ĺà¤°à¤¦": 7758,
      "à¤Ĩà¤µà¤¶": 7759,
      "ee": 7760,
      "à¤¡à¤µà¤³": 7761,
      "à¤£à¤µà¤ł": 7762,
      "à¤¤à¤ĺ": 7763,
      "ace": 7764,
      "MC": 7765,
      "à¤Ĺà¤¦à¤°à¤®": 7766,
      "à¤·à¤±": 7767,
      "Ġcre": 7768,
      "à¤Ĩà¤¬": 7769,
      "à¤ıà¤¨à¤ıà¤²": 7770,
      "Ġà¤ıà¤¨à¤ıà¤¸à¤ľ": 7771,
      "à¤Īà¤ķà¤¸": 7772,
      "Ġà¤§à¤¡à¤ªà¤¡à¤£": 7773,
      "ĠApp": 7774,
      "Ġà¤īà¤ľà¤³à¤²": 7775,
      "à¤¬à¤¨à¤ļ": 7776,
      "à¤¯à¤ļà¤¯": 7777,
      "à¤ľà¤¤à¤¦": 7778,
      "Ġà¥¬à¥«à¥¦": 7779,
      "Ġà¤ĩà¤¥à¤ª": 7780,
      "ures": 7781,
      "à¤²à¤¤à¤ľ": 7782,
      "Ġà¤¨à¤¯à¤¨à¤¤": 7783,
      "Ġà¤ıà¤ıà¤¨à¤Ĩà¤¯": 7784,
      "Ġà¤¶à¤¹à¤¨": 7785,
      "à¤¾.âĢĿ": 7786,
      "à¤³à¤¸à¤ķà¤°": 7787,
      "à¤ªà¤ı": 7788,
      "à¤¶à¤ªà¤°": 7789,
      "à¤°à¤Łà¤¯": 7790,
      "Ġà¤Ńà¤Łà¤ľ": 7791,
      "Ì³": 7792,
      "à¤¶à¤²à¤ļ": 7793,
      "Ġà¤ķà¤°à¤ļ": 7794,
      "Ġà¤ĵà¤¸à¤µ": 7795,
      "ues": 7796,
      "Ġà¤¸à¤¨à¤¸": 7797,
      "à¥ĭ).": 7798,
      "à¤³à¤®à¤³": 7799,
      "à¤ıà¤Łà¤°à¤ļ": 7800,
      "Ġ153": 7801,
      "Ġà¤ľà¤¦à¤¯": 7802,
      "à¤¦à¤¨à¤ļ": 7803,
      "Ġà¤¤à¤¸à¤¦": 7804,
      "à¤®à¤¨à¤Ĺ": 7805,
      "Ġà¤Ĩà¤Ĭà¤Łà¤²": 7806,
      "à¤ľà¤®à¤¤": 7807,
      "Ġà¤īà¤ĸà¤³": 7808,
      "ĠWi": 7809,
      "à¥ĩâĢĿ.": 7810,
      "à¤¨à¤ĺ": 7811,
      "à¤µà¤²à¤®à¤§": 7812,
      "à¤Ĺà¤²à¤®à¤¯": 7813,
      "Ġ(\"": 7814,
      "Ġà¤®à¤¤à¤µ": 7815,
      "arm": 7816,
      "à¤ĭà¤·": 7817,
      "à¤¨à¤Ĺà¤°à¤²": 7818,
      "Ġà¤¤à¤³à¤ª": 7819,
      "Ġà¥§à¥¬à¥¦à¥¦": 7820,
      "Ġ1961": 7821,
      "FC": 7822,
      "Ġim": 7823,
      "à¤Īà¤¨à¤²": 7824,
      "Ġà¤Ĩà¤®à¤¸à¤Ń": 7825,
      "à¤µà¤ļà¤°": 7826,
      "Ġà¤¸à¤ķà¤Ł": 7827,
      "Ġà¤ĺà¤¨à¤¸": 7828,
      "Ġà¤ĵà¤Łà¤ļ": 7829,
      "Ġ133": 7830,
      "à²": 7831,
      "à¤¸à¤ĳà¤°": 7832,
      "à¤µà¤Īà¤ķà¤°": 7833,
      "à¥īà¤¼": 7834,
      "à¤µà¤¢à¤¯": 7835,
      "Ġà¥§à¥¯à¥®à¥§": 7836,
      "Ġà¤īà¤µ": 7837,
      "Ġper": 7838,
      "à¤¿à¤¼": 7839,
      "à¤ĺà¤²à¤ķ": 7840,
      "à¤ľà¤¨à¤ª": 7841,
      "à¤ĩà¤µà¤°": 7842,
      "à¤¯à¤£à¤¨": 7843,
      "à¥ģ)": 7844,
      "Ġà¤®à¤«": 7845,
      "Ġà¤¥à¤ª": 7846,
      "ized": 7847,
      "Ġà¤ħà¤Ŀà¤¹à¤°": 7848,
      "Ġcool": 7849,
      "Ġà¤²à¤Łà¤ķà¤µ": 7850,
      "Ġall": 7851,
      "Ġà¤¬à¤Łà¤²": 7852,
      "à¤Ŀà¤®à¤§": 7853,
      "à¤Ĺà¤°à¤µ": 7854,
      "à¤ľà¤¸à¤¹": 7855,
      "Ġ256": 7856,
      "Ġà¤ħà¤µà¤¸à¤°": 7857,
      "ster": 7858,
      "ode": 7859,
      "Ġà¤µà¤°à¤ļà¤·": 7860,
      "agar": 7861,
      "à¤°à¤ĺà¤³à¤£": 7862,
      "Ġ1969": 7863,
      "à¤ªà¤Ľ": 7864,
      "à¤Ĺà¤°à¤¸": 7865,
      "à¤Ŀà¤°à¤ļ": 7866,
      "à¤ıà¤¨à¤Ł": 7867,
      "Ġà¤īà¤Ŀà¤¬": 7868,
      "Ġà¤¸à¤µà¤¤": 7869,
      "Ġà¤ħà¤®à¤ľà¤¦": 7870,
      "Ġà¤¸à¤°à¤ªà¤£": 7871,
      "à¤ľà¤ªà¤¬à¤°": 7872,
      "ities": 7873,
      "Ġà¤ļà¤µà¤³": 7874,
      "à¤¹à¤£à¤¨": 7875,
      "à¤°à¤¥à¤®à¤¤": 7876,
      "à¤ıà¤ķà¤¤": 7877,
      "St": 7878,
      "Ġà¤ªà¤łà¤¡": 7879,
      "à¤µà¤¸à¤¨à¤®": 7880,
      "Ġà¤ĵà¤ıà¤¸": 7881,
      "Ġcurls": 7882,
      "à¥į'": 7883,
      "Ġà¤¡à¤³à¤®à¤³": 7884,
      "ĠBS": 7885,
      "à¤¯à¤ıà¤¸à¤ª": 7886,
      "à¤¸à¤ķà¤²": 7887,
      "Ġà¤ħà¤Ńà¤¦": 7888,
      "Ġ1965": 7889,
      "Ġà¥§à¥¯à¥ªà¥¨": 7890,
      "à¯": 7891,
      "à¤¬à¤ļà¤¤": 7892,
      "Ġà¤¥à¤ķà¤¤": 7893,
      "ering": 7894,
      ".......": 7895,
      "Ġ302": 7896,
      "?âĢĿ": 7897,
      "Ñĥ": 7898,
      "Ġà¤¤à¤ķà¤²": 7899,
      "Ġà¤¶à¤°à¤¸": 7900,
      "Ġit": 7901,
      "Ġà¤°à¤µà¤³": 7902,
      "à¤°à¤¤à¤²": 7903,
      "à¤ķà¤®à¤ªà¤£": 7904,
      "Ġwh": 7905,
      "tern": 7906,
      "uff": 7907,
      "à¤¬à¤Īà¤¬": 7908,
      "Ġà¤Ĩà¤¯à¤ľ": 7909,
      "Ġà¤¨à¤µà¤ļ": 7910,
      "à¤ľà¤¯à¤µà¤°": 7911,
      "oms": 7912,
      "Ġà¤¬à¤°à¤¸à¤¤": 7913,
      "ling": 7914,
      "à¥Ģ.âĢĻ": 7915,
      "yt": 7916,
      "à¤¿âĢį": 7917,
      "à¤¸à¤®à¤ľ": 7918,
      "à¤¦à¤µà¤¹": 7919,
      "Ġà¤ªà¤ļà¤¨à¤ķ": 7920,
      "à¤¯à¤¤à¤¤": 7921,
      "ĠXVII": 7922,
      "Ġà¤Ĺà¤ľà¤²": 7923,
      "Ġ850": 7924,
      "ĠAm": 7925,
      "Ġanalog": 7926,
      "Ġà¤ĺà¤¨à¤µà¤Ł": 7927,
      "Ġà¤Ĭà¤¬": 7928,
      "à¤¯à¤®à¤µà¤¯": 7929,
      "à¤°à¤µà¤ļ": 7930,
      "à¤¶à¤¨à¤ªà¤°": 7931,
      "Ġà¤ĺà¤°à¤Ń": 7932,
      "Ġà¤¡à¤°à¤ķ": 7933,
      "à¤¾?\"": 7934,
      "Ġà¤²à¤ĸà¤²à¤ĸ": 7935,
      "Ġà¤īà¤ªà¤ľà¤¤": 7936,
      "ãĤ": 7937,
      "Ġà¤¹à¥Ł": 7938,
      "à¤¶à¤«": 7939,
      "ini": 7940,
      "ĠWhats": 7941,
      "âĢĶâĢĶ": 7942,
      "à¤¯à¤¨à¤²à¤ļ": 7943,
      "à¤Ĭà¤²à¤ĸ": 7944,
      "Ġmel": 7945,
      "à¤²à¤ªà¤¦": 7946,
      "Ġà¥§à¥¯à¥Ńà¥¬": 7947,
      "ology": 7948,
      "Ġob": 7949,
      "à¤¨à¤ļà¤ķ": 7950,
      "ĠNRC": 7951,
      "Ġà¤¨à¤Łà¤¸à¤®": 7952,
      "à¥ĩ.''": 7953,
      "Ġà¤Ńà¤°à¤µà¤¤": 7954,
      "Ġà¤ĩà¤¦": 7955,
      "tion": 7956,
      "Ġà¤īà¤ªà¤¨à¤¦": 7957,
      "à¤¨à¤°à¤¬": 7958,
      "à¤¾à¥į": 7959,
      "à¤ªà¤Łà¤ķ": 7960,
      "Ġ>>>>>>": 7961,
      "à¤ķà¤Łà¤°": 7962,
      "Ġà¤ľà¤³à¤£": 7963,
      "Ġà¥§à¥¦à¥¯": 7964,
      "Ġà¤°à¤ĸà¤°à¤ĸ": 7965,
      "à¤ķà¤²à¤¶": 7966,
      "Ġà¤Īà¤¨": 7967,
      "Ġà¥§à¥¯à¥«à¥«": 7968,
      "aked": 7969,
      "Ġà¤ıà¤®à¤ıà¤®à¤Ĩà¤°à¤¸": 7970,
      "à¥ĭ/": 7971,
      "à¤Ŀà¤°à¤¨": 7972,
      "à¤ĵà¤¦": 7973,
      "Ġà¤¬à¤¸à¤¥": 7974,
      "à¤ķà¤ĸ": 7975,
      "Ġà¤¬à¤¹à¤°à¤¤": 7976,
      "à¤Ĥà¤¾": 7977,
      "à¤ĺà¤¦": 7978,
      "Ġà¤¹à¤°à¤Ńà¤±": 7979,
      "Ġà¤¦à¤Ĺà¤¦à¤Ĺ": 7980,
      "à¥ĩà¤Ĥà¥¤": 7981,
      "à¤®à¤¤à¤ļ": 7982,
      "Ġ999": 7983,
      "Ġà¤ľà¤¨à¤§à¤¨": 7984,
      "à¤ĸà¤²à¤ª": 7985,
      "Ġà¤µà¤¡à¤µà¤£": 7986,
      "Ġdiluted": 7987,
      ".,": 7988,
      "Ġà¤Ĩà¤¸à¤ķ": 7989,
      "à¤¡à¤µà¤°à¤ļ": 7990,
      "à¥Ģà¤ĤâĢĻ": 7991,
      "ĠSMS": 7992,
      "Ġà¤¨à¤®à¤µà¤¤": 7993,
      "oft": 7994,
      "Ġà¤ħà¤Łà¤ķà¤³": 7995,
      "Ġà¤Īà¤¤à¤ķ": 7996,
      "Ġ148": 7997,
      "ĠEVM": 7998,
      "Ġà¤¢à¤Ĺà¤«": 7999,
      "ables": 8000,
      "Ġtowels": 8001,
      "à¥¯à¥¯à¥¯": 8002,
      "à¤Ĺà¤Ńà¤°": 8003,
      "Ġà¤¹à¤®à¤²": 8004,
      "Ġà¤¸à¤¹à¤ļà¤°": 8005,
      "Ġà¤Ĺà¤°à¤ľà¤¹": 8006,
      "Ġà¤¨à¤Ĺà¤°à¤²": 8007,
      "à¤¸à¤³à¤¯": 8008,
      "ise": 8009,
      "ool": 8010,
      "à¤ľà¤ªà¤ķ": 8011,
      "Ġ134": 8012,
      "à¤ĳà¤Ł": 8013,
      "à¤¦à¤¤à¤ª": 8014,
      "Ġà¤ķà¤ªà¤¡à¤¯": 8015,
      "à¤¦à¤ªà¤°": 8016,
      "à¤¹à¤¤à¤µ": 8017,
      "ĠSch": 8018,
      "Ġà¤Ńà¤Łà¤ķà¤£": 8019,
      "Ġà¤ªà¤°à¤³à¤ļ": 8020,
      "à¤²à¤µà¤£à¤ļ": 8021,
      "Ġà¤¸à¤¹à¤ľà¤°": 8022,
      "à¤īà¤ķ": 8023,
      "Ġ1973": 8024,
      "à¤Łà¤¸à¤ķ": 8025,
      "à¤¯à¤¸à¤ļ": 8026,
      "à¤ıà¤¸à¤Ĩà¤¯à¤Ł": 8027,
      "Ġà¤ĳà¤«à¤°à¤ļ": 8028,
      "à¤¡à¤¡": 8029,
      "à¤¶à¤¨à¤¬": 8030,
      "Ġà¤ĵà¤µà¤°": 8031,
      "Ġà¤įà¤¥à¤°": 8032,
      "IR": 8033,
      "Ġà¤¹à¤Łà¤²": 8034,
      "à¤µà¤ķà¤ļ": 8035,
      "ĠIND": 8036,
      "raph": 8037,
      "Ġkn": 8038,
      "à¤¦à¤¬à¤¦": 8039,
      "à¤°à¤¸à¤²": 8040,
      "Ġ139": 8041,
      "à¤ĳà¤¡": 8042,
      "ula": 8043,
      "eth": 8044,
      "à¤²à¤®à¤£": 8045,
      "Ġà¤¸à¤¡à¤£": 8046,
      "Ġà¤ļà¤ªà¤Ł": 8047,
      "à¤Ŀà¤ª": 8048,
      "à¥Ģ]": 8049,
      "ĠRBI": 8050,
      "Tube": 8051,
      "à¤¥à¤Ĺà¤¨": 8052,
      "à¤Ĭà¤³à¤Ĺ": 8053,
      "Ġ270": 8054,
      "Ġà¤ľà¤ĸà¤¡à¤£": 8055,
      "à¥ĢâĢĺ": 8056,
      "à¤ļà¤ķà¤¡": 8057,
      "Ġà¤Ĩà¤¸à¤µ": 8058,
      "à¤¬à¤«": 8059,
      "Ġ182": 8060,
      "Ġ1976": 8061,
      "Ġà¤Ĩà¤¸à¤¤": 8062,
      "à¤Īà¤«à¤²": 8063,
      "2012": 8064,
      "Ġà¤°à¤®à¤®": 8065,
      "Ġà¤¦à¤¬à¤ķ": 8066,
      "Ġloo": 8067,
      "Ġà¤¤à¤ķà¤¤à¤ķ": 8068,
      "ĠPE": 8069,
      "Ġà¤ļà¤¹à¤²à¤¨": 8070,
      "pped": 8071,
      "Ġà¤¸à¤¢à¤³": 8072,
      "à¤¨à¤Ĺà¤°à¤¸": 8073,
      "Ġà¤įà¤ªà¤µà¤°": 8074,
      "ĠðŁĻ": 8075,
      "à¤¤à¤µà¤¨": 8076,
      "à¤ıà¤®à¤Ĩà¤¯à¤ıà¤®": 8077,
      "ala": 8078,
      "Ġà¤²à¤Łà¤ķà¤¤": 8079,
      "king": 8080,
      "à¤Īà¤¸à¤ļ": 8081,
      "Ġà¤ķà¤¸à¤¦": 8082,
      "Ġ712": 8083,
      "reaking": 8084,
      "à¤³à¤¸à¤µ": 8085,
      "Ġà¤Łà¤¬": 8086,
      "Ġà¤ªà¤°à¤Ĺà¤£": 8087,
      "à¤°à¤¹à¤°à¤£": 8088,
      "Ġà¥§à¥¯à¥¬à¥®": 8089,
      "Ġà¤¨à¤ĸà¤°": 8090,
      "ĠÂłÂłĊ": 8091,
      "à¤£à¤®à¤¹": 8092,
      "à¤ľà¤ĺ": 8093,
      "Ġà¤ħà¤¡à¤ķà¤µà¤£": 8094,
      "uch": 8095,
      "à¤µà¤Ĺà¤£à¤ļ": 8096,
      "à¤²à¤¶à¤¨": 8097,
      "Ġà¤ľà¤³à¤ķ": 8098,
      "à¤¾,âĢĿ": 8099,
      "Ġà¤ıà¤¨à¤Ĩà¤¯à¤ıà¤¨": 8100,
      "à¤°à¤¸à¤ķà¤°": 8101,
      "Ġ142": 8102,
      "à¤Ĩà¤¢": 8103,
      "à¤ıà¤®à¤ıà¤®à¤Ĩà¤°à¤¡": 8104,
      "Ġà¤ıà¤«à¤Ł": 8105,
      "à¤Ĺà¤łà¤¬": 8106,
      "à¤¤à¤Ńà¤Ł": 8107,
      "à¤¨à¤ľà¤£": 8108,
      "à¤®à¤¸à¤°": 8109,
      "à¤ĩà¤¨à¤²": 8110,
      "Ġà¤Łà¤¸": 8111,
      "Ġà¤ĩà¤ķà¤¡à¤ļ": 8112,
      "Hz": 8113,
      "Ġà¤°à¤¨à¤°": 8114,
      "Ġà¤ĩà¤Ŀ": 8115,
      "à¤ĩà¤Łà¤¸": 8116,
      "Ġcop": 8117,
      "Ġreg": 8118,
      "Ġà¤¤à¤¡à¤«à¤¡": 8119,
      "à¤¬à¤¨à¤µ": 8120,
      "Ġ1920": 8121,
      "Ġ1945": 8122,
      "Ġà¥§à¥¨à¥§": 8123,
      "Ġbul": 8124,
      "Ġra": 8125,
      "à¤Łà¤µà¤¤": 8126,
      "Ġà¤Łà¤®": 8127,
      "à¤ķà¤¡à¤¯": 8128,
      "à¤Łà¤ķà¤³": 8129,
      "ĠPol": 8130,
      "à¤µà¤«à¤³": 8131,
      "à¤Łà¤µà¤ķ": 8132,
      "ices": 8133,
      "Ġà¤¬à¤°à¤¸à¤£": 8134,
      "à¤µà¤¨à¤ªà¤Ł": 8135,
      "Ġà¤īà¤²à¤Łà¤ªà¤ķ": 8136,
      "Ġà¥§à¥ªà¥¯": 8137,
      "ME": 8138,
      "nik": 8139,
      "à¥ĭ,âĢĻ": 8140,
      "Ġà¤ľà¤®à¤¦": 8141,
      "Ġ1974": 8142,
      "à¤Ĩà¤¯à¤Ĩà¤¯": 8143,
      "à¤ªà¤¡à¤¯": 8144,
      "Ġà¥§à¥®à¥«à¥Ń": 8145,
      "Ġà¤¨à¤µà¤²à¤ĸ": 8146,
      "ebook": 8147,
      "ĠQu": 8148,
      "Ġà¤¶à¤®à¤¶": 8149,
      "Ġà¥¦à¥©": 8150,
      "à¤¤à¤°à¤ĸ": 8151,
      "à¤Ĩà¤łà¤ļ": 8152,
      "à¤ľà¤¯à¤ª": 8153,
      "Ġà¤īà¤ļà¤ķà¤Ł": 8154,
      "Ġop": 8155,
      "à¤£à¤¹à¤¤": 8156,
      "à¥ĢâĢĿ,": 8157,
      "ole": 8158,
      "à¤ļà¤²à¤ķ": 8159,
      "Ġà¥§à¥¯à¥¨à¥¦": 8160,
      "Ġà¤¬à¤ķà¤±": 8161,
      "Ġà¤Ŀà¤µ": 8162,
      "à¤ıà¤ķà¤ļ": 8163,
      "Ġà¥§à¥©à¥¨": 8164,
      "à¤¯à¤°à¤¸à¤®": 8165,
      "Ġup": 8166,
      "Ġà¤ļà¤¹à¤°": 8167,
      "Ġind": 8168,
      "à¤ļà¤¨à¤¸": 8169,
      "Ġà¤°à¤£à¤ķ": 8170,
      "ÂłÂłÂłÂłÂłÂłÂł": 8171,
      "âĢ¢âĢ¢âĢ¢âĢ¢": 8172,
      "Ġà¤īà¤ªà¤Ł": 8173,
      "App": 8174,
      "à¤¯à¤ªà¤°à¤²": 8175,
      "à¤¦à¤«": 8176,
      "Ġà¤¹à¤ķà¤¨": 8177,
      "Ġà¤īà¤ªà¤¸à¤°": 8178,
      "à¤ªà¤ķà¤¨": 8179,
      "Ġdi": 8180,
      "ky": 8181,
      "à¤¦à¤³à¤Ĺ": 8182,
      "Ġà¤¬à¤²à¤¦": 8183,
      "à¤¸à¤ľà¤®": 8184,
      "Ġà¤¨à¤³à¤ľ": 8185,
      "Ġà¤¸à¤¨à¤¬à¤°": 8186,
      "§à¥§à¥": 8187,
      "à¤Ĺà¤¡à¤®à¤§": 8188,
      "à¤¬à¤Łà¤¯": 8189,
      "à¤ľà¤¸à¤ªà¤£": 8190,
      "Ġà¥§à¥¨à¥Ń": 8191,
      "à¤¤à¤ķà¤°à¤£": 8192,
      "Ġà¤ľà¤®à¤µà¤¤": 8193,
      "estion": 8194,
      "ainik": 8195,
      "à¤Ĺà¤Ńà¤²": 8196,
      "Ġà¤¸à¤¦à¤°à¤¹": 8197,
      "ĠUn": 8198,
      "Ġà¤¹à¤¦à¤Ĺ": 8199,
      "Ġà¤ľà¤¬à¤ķ": 8200,
      "à¤·à¤®à¤¯": 8201,
      "Ġà¤¯à¤°": 8202,
      "à¤¬à¤ķà¤²": 8203,
      "Ġà¤ļà¤ļ": 8204,
      "Ġà¤Ĩà¤Īà¤¶": 8205,
      "ali": 8206,
      "Ġpar": 8207,
      "à¤łà¤¹": 8208,
      "Ġ1942": 8209,
      "Ġà¤ªà¤®": 8210,
      "à¤µà¤°à¤«": 8211,
      "MP": 8212,
      "à¤¤à¤ľà¤¨": 8213,
      "Ġà¤Ĩà¤«à¤¤": 8214,
      "Ġà¤¹à¤®à¤¸": 8215,
      "Ġà¤Ĩà¤Īà¤ª": 8216,
      "Ġ138": 8217,
      "ĠPrab": 8218,
      "Ġte": 8219,
      "Ġà¥©à¥«à¥¦à¥¦": 8220,
      "Ġà¥§à¥¯à¥¬à¥ª": 8221,
      "Ġà¥§à¥¯à¥«à¥Ń": 8222,
      "à¤ļà¤ªà¤Ł": 8223,
      "osh": 8224,
      "Ġà¤ªà¤¡à¤¸à¤²à¤Ĺ": 8225,
      "Ġà¤¶à¤¯à¤¨": 8226,
      "Ġà¤Ĳà¤ªà¤¤": 8227,
      "acebook": 8228,
      "ĠSer": 8229,
      "à¤¨à¤Ĭà¤ļ": 8230,
      "à¤ıà¤®à¤ĵ": 8231,
      "à¤¾);": 8232,
      "pi": 8233,
      "Ġï¿½ï¿½ï¿½": 8234,
      "à¤¯à¤ªà¤¨": 8235,
      "à¤¯à¤ªà¤§": 8236,
      "Ġà¤īà¤§à¤³à¤¤": 8237,
      "à¤¨à¤µà¤°à¤¹": 8238,
      "à¤¹à¤®à¤¨": 8239,
      "à¤§à¤¬": 8240,
      "à¤¬à¤°à¤¶": 8241,
      "à¤ľà¤²à¤¦": 8242,
      "ubles": 8243,
      "120": 8244,
      "ãĥ": 8245,
      "à¤ļà¤ķà¤¸": 8246,
      "ely": 8247,
      "à¤ľà¤¯à¤®": 8248,
      "Ġà¤°à¤¨à¤µà¤°": 8249,
      "à¤Īà¤²à¤²": 8250,
      "à¤łà¤£à¤ķà¤°": 8251,
      "urn": 8252,
      "à¤¨à¤¯à¤¶": 8253,
      "Ġà¤¬à¤ª": 8254,
      "à¤ķà¤Łà¤¦": 8255,
      "ere": 8256,
      "ower": 8257,
      "Ġà¥§à¥¯à¥ªà¥«": 8258,
      "âĢ²": 8259,
      "à¤ľà¤ªà¤¸à¤¹": 8260,
      "Ġ1941": 8261,
      "à¤¡à¤°à¤°à¤ļ": 8262,
      "à¤Īà¤ķà¤®à¤§": 8263,
      "ĠWindows": 8264,
      "à¤«à¤°à¤²": 8265,
      "Ġà¤¸à¤Īà¤¦à¤ļ": 8266,
      "ta": 8267,
      "Ġà¤ķà¤°à¤µà¤¸": 8268,
      "à¤°à¤ªà¤³à¤¤": 8269,
      "Ġà¤ħà¤«à¤Ŀ": 8270,
      "à¤ħà¤¹à¤®à¤¦à¤¨à¤Ĺà¤°": 8271,
      "Ġà¤¨à¤µà¤¤": 8272,
      "à¤ĺà¤Ĺà¤°": 8273,
      "à¤·à¤£à¤ªà¤¦": 8274,
      "Ġà¥¦à¥ª": 8275,
      "à¤Łà¤°à¤¸à¤¹": 8276,
      "Ġà¤²à¤ĸà¤¨à¤Ĭà¤®à¤§": 8277,
      "à¤¸à¤ľà¤µà¤³": 8278,
      "rid": 8279,
      "Ġà¥§à¥¯à¥ªà¥¦": 8280,
      "à¥¬à¥¦à¥¦": 8281,
      "2011": 8282,
      "ci": 8283,
      "à¤¤à¤¸à¤¹": 8284,
      "Ġà¤ķà¤°à¤£à¤¨": 8285,
      "à¤ªà¤¨à¤Ĺà¤°": 8286,
      "Ġmon": 8287,
      "PA": 8288,
      "à¥ĤâĢ¦": 8289,
      "à¤ıà¤®à¤µ": 8290,
      "ĠPaper": 8291,
      "Ġà¥¦à¥¯": 8292,
      "à¤ľà¤®à¤µ": 8293,
      "à¤Ľà¤¨": 8294,
      "Ġà¤ıà¤¨à¤Ĩà¤¯à¤ıà¤ļ": 8295,
      "à¤Ĺà¤§à¤°": 8296,
      "à¤īà¤®à¤°": 8297,
      "Ġint": 8298,
      "à¤¨à¤°à¤ĸ": 8299,
      "à¤ľà¤¨à¤Ĺ": 8300,
      "Ġà¤ªà¤¦à¤ļ": 8301,
      "ĠDainik": 8302,
      "Ġà¤Ĥ": 8303,
      "à¤Īà¤¨à¤¨": 8304,
      "Ġà¥¯à¥¯à¥¯": 8305,
      "Ġà¤ıà¤®à¤ıà¤¸à¤Ĩà¤°à¤¡": 8306,
      "ĠPrabhat": 8307,
      "à¤©": 8308,
      "à¤¸à¤Ī": 8309,
      "à¤¹à¤°à¤ķà¤¤": 8310,
      "à¤µà¤³à¤ª": 8311,
      "à¤ľà¤¯à¤µ": 8312,
      "Ġ129": 8313,
      "à¤¾!!": 8314,
      "Ġà¤ħà¤¡à¤ĸà¤³à¤¤": 8315,
      "Ġcracks": 8316,
      "à¤¬à¤¡à¥Ł": 8317,
      "Ġà¤ĺà¤¨à¤«": 8318,
      "à¤µà¤ªà¤£": 8319,
      "à¤¦à¤¯à¤¨": 8320,
      "à¤§à¤µà¤ľ": 8321,
      "à¤īà¤ĺà¤¡": 8322,
      "Ġà¤ħà¤²à¤®à¤Ł": 8323,
      "Ġà¤¢à¤³": 8324,
      "à¥¨à¥¦à¥§à¥¬": 8325,
      "Ġ1952": 8326,
      "Ġà¥ŀà¤ķ": 8327,
      "Ġ~": 8328,
      "à¤µà¤Ńà¤°": 8329,
      "à¤ľà¤¤à¤ļ": 8330,
      "Ġà¤²à¤µà¤£": 8331,
      "à¤ıà¤ıà¤¨": 8332,
      "à¤²à¤Ĺà¤¡": 8333,
      "à¤¨à¤ľà¤°": 8334,
      "Ġ('": 8335,
      "à¤īà¤·": 8336,
      "ÂłĠÂłĠÂłĠÂłĠÂłĠÂłĠÂłĠÂłĠÂłĠÂłĠÂłĠÂłĠÂłĠÂłĠÂłĠÂłĠÂłĠÂłĠÂłĠÂłĠÂłĠÂłĠÂłĠÂłĠÂł": 8337,
      "atest": 8338,
      "à¤¸à¤µà¤°à¤ļ": 8339,
      "Ġà¤ķà¤¹à¤¤": 8340,
      "Ġà¤®à¤²à¤µ": 8341,
      "Ġà¤¹à¤³à¤¹": 8342,
      "Ġà¤°à¤£à¤ª": 8343,
      "mail": 8344,
      "à¤µà¤³à¥Ł": 8345,
      "Ġ131": 8346,
      "à¤Īà¤ıà¤¸": 8347,
      "ada": 8348,
      "à¤²à¤µà¤¯": 8349,
      "Ġà¤¹à¤°à¤¹": 8350,
      "Ġà¤¸à¤®à¤ª": 8351,
      "Ġà¤ľà¤¯à¤Ĺà¤¡": 8352,
      "maharashtra": 8353,
      "à¤Ĺà¤®à¤ļ": 8354,
      "anov": 8355,
      "pr": 8356,
      "à¤Łà¤¨à¤¸": 8357,
      "LL": 8358,
      "à¤®à¤¡à¤£": 8359,
      "Ġà¤ħà¤§à¤°": 8360,
      "à¤Ĺà¤¸à¤°à¤ķà¤°": 8361,
      "Ġà¥§à¥«à¥§": 8362,
      "Ġà¥§à¥©à¥¦à¥¦": 8363,
      "RO": 8364,
      "witter": 8365,
      "Ġà¤§à¤¨à¤Ĺà¤°à¤µ": 8366,
      "Ġà¤²à¤®": 8367,
      "à¤¢à¤¸": 8368,
      "Ġà¤Ĩà¤¡à¤¸": 8369,
      "à¤ĸà¤°à¤¨": 8370,
      "icro": 8371,
      "Ġme": 8372,
      "kin": 8373,
      "au": 8374,
      "à¤¸à¤ľà¤¨": 8375,
      "à¤Łà¤ĺà¤°": 8376,
      "à¤¸à¤¤à¤ļ": 8377,
      "à¥®à¥¦à¥¦": 8378,
      "Ġà¤¬à¤²à¤µà¤¤": 8379,
      "Ġ1968": 8380,
      "Ġà¤ĸà¤µà¤ĸà¤µà¤£": 8381,
      "BS": 8382,
      "Ġbushes": 8383,
      "abha": 8384,
      "ational": 8385,
      "à¤¤à¤§": 8386,
      "à¤ªà¤ªà¤£": 8387,
      "Ġà¤īà¤°à¤®": 8388,
      "à¤Łà¤ķà¤µ": 8389,
      "Ġà¤¸à¤ķà¤³": 8390,
      "Ġà¤ıà¤¨à¤Ĩà¤¯à¤ıà¤ķà¤¡": 8391,
      "à¤«à¤¡à¤£à¤µ": 8392,
      "Ġà¤¶à¤¹à¤ľ": 8393,
      "era": 8394,
      "à¥Ĥà¥į": 8395,
      "Ġà¤¬à¤Ĺà¤³": 8396,
      "Ġà¤§à¤¨à¤µ": 8397,
      "Ġ152": 8398,
      "Ġà¥§à¥§à¥¦à¥¦": 8399,
      "Ġà¤°à¤ĸà¤¡": 8400,
      "Ġà¥¨à¥©à¥¦": 8401,
      "Ġà¥§à¥¯à¥«à¥§": 8402,
      "Ġ1949": 8403,
      "eed": 8404,
[...]
